#version: 0.2
a n
Ġ d
e r
e n
Ġ m
Ġ s
an g
a r
a t
i n
Ġ b
a k
Ġ p
Ġ k
a h
Ġ t
a l
u n
a s
e m
a m
y a
Ġd i
Ġ y
en g
a d
Ġy ang
t u
k an
e l
a p
Ġs e
i s
i k
Ġm en
Ġd an
Ġ l
Ġb er
g a
i l
i t
e s
n ya
in g
Ġ h
Ġm em
Ġt er
Ġ j
e b
o n
ak an
u s
Ġ in
ar i
o r
Ġk e
eng an
i d
u t
u r
Ġ A
tu k
Ġ S
i h
ad a
d a
Ġd engan
Ġp er
Ġm eng
Ġin i
Ġ un
u l
u k
u m
i r
un g
e k
Ġun tuk
e t
o l
Ġ P
ar a
t i
a g
a u
Ġd ari
Ġ r
i tu
Ġ K
a i
al ah
as i
al am
u d
b a
Ġ c
Ġ B
i a
Ġ M
i m
a in
id ak
Ġs a
b u
Ġ T
Ġ n
Ġ D
Ġt idak
ad i
an ya
Ġp en
â Ģ
Ġb is
o m
am a
s i
ap at
Ġ an
Ġ ad
p er
w a
Ġ g
Ġbis a
t a
Ġ akan
Ġ itu
Ġ at
u p
Ġ I
i an
j a
r o
u kan
Ġm er
Ġd alam
e h
am p
ĠA n
o k
it a
Ġad alah
Ġj u
Ġp ada
ang an
Ġ w
Ġju ga
Ġm el
Ġ J
y ak
e p
Ġp em
j adi
Ġm as
u h
ud ah
ĠAn da
en a
or ang
Ġat au
Ġk ar
at an
ap a
Ġ (
e d
at u
eb ih
Ġmem b
Ġk am
Ġd apat
e g
ik a
en t
Ġ f
a b
Ġb ah
ga i
Ġ ada
al i
a w
eb ut
Ġter s
o t
an a
at a
ag i
Ġh ar
Ġ R
a y
Ġ ak
an d
as a
en d
Ġs em
Ġ H
ol eh
Ġ 2
Ġp eng
Ġl ebih
ba gai
u a
Ġse k
i kan
Ġmen jadi
Ġk ita
Ġ 1
Ġb an
Ġs el
Ġkar ena
Ġ C
el ah
ĠI n
am b
Ġ N
an t
Ġmen y
t er
Ġp ro
in ya
il ik
Ġan da
Ġters ebut
al u
em b
Ġs udah
Ġb a
em p
ang at
Ġ oleh
ek a
o s
ap i
Ġ L
l ah
r i
ak ukan
Ġs er
Ġsa ya
Ġban yak
Ġt ah
a ya
g un
Ġ orang
is i
at i
Ġl ain
ar an
a j
g i
Ġ âĢ
ilik i
ang g
u b
Ġmen d
ang k
Ġs angat
u an
o b
a c
Ġs atu
Ġ G
per ti
Ġse b
Ġ U
bu at
Ġse bagai
Ġdi s
Ġmer eka
al an
ir i
Ġmem iliki
. .
Ġbah wa
eb er
i p
Ġsa at
0 0
Ġm ak
Ġhar us
Ġk el
it as
Ġse perti
t r
ah an
Ġk em
Ġkam i
c ara
Ġmen c
gun akan
ing ga
o d
el um
Ġke p
Ġba ik
as il
un ya
ung an
Ġk on
am an
âĢ Ŀ
i b
a an
o g
Ġtah un
es ar
Ġdi l
l in
Ġsa ja
eber apa
Ġh al
Ġb ar
an j
Ġh anya
Ġmem buat
on g
u j
Ġ W
Ġdi k
Ġp as
o p
Ġk es
ing k
ĠIn d
Ġk er
Ġ ag
u ar
Ġse d
d uk
ing in
ih at
on es
Ġ F
ung k
m ain
emp at
ones ia
Ġ ya
Ġdi b
Ġ O
Ġse s
0 1
Ġp ara
am un
Ġb eberapa
Ġber s
Ġber k
as an
o ta
us ah
al a
Ġse h
Ġmemb er
lin e
Ġkam u
il ih
e w
u tu
Ġse cara
or m
Ġper t
Ġ v
Ġmak a
ĠInd onesia
in t
Ġk al
Ġmeng h
Ġp el
Ġj ika
is t
en ar
Ġs amp
Ġke t
Ġt ent
ang kan
Ġt elah
Ġber b
ag ian
ur an
o h
Ġt et
ar t
bu h
en tu
k u
ak tu
Ġmas ih
ik asi
ungk in
Ġter l
Ġs alah
in d
y ar
Ġ E
Ġ Y
Ġmel akukan
Ġ2 01
Ġmeng gunakan
Ġ ap
Ġak u
ar kan
Ġb esar
Ġse t
Ġl agi
Ġp r
Ġan ak
Ġb i
an nya
Ġk eb
um ah
ang s
Ġ on
ing g
Ġ apa
ik ut
Ġs end
u al
Ġt ak
Ġdi t
Ġt an
Ġs u
Ġpem b
Ġdi m
Ġmend apat
ar ang
in i
im p
ĠP er
Ġc ara
h ir
Ġ ingin
Ġsem ua
a at
r a
om p
Ġh ari
ĠA l
e c
s es
Ġw aktu
Ġdi a
Ġb agi
ep at
u ang
Ġ al
Ġ as
Ġ a
Ġon line
Ġdi p
un j
Ġs i
Ġsend iri
Ġ 3
Ġpro duk
p un
ah kan
Ġter b
Ġser ta
Ġya itu
uk a
Ġsamp ai
ul ai
p a
ĠâĢ ľ
i c
ap an
Ġke c
Ġm an
Ġp un
an an
Ġbar u
Ġr umah
bu ah
ĠU n
Ġb el
up akan
Ġtent ang
Ġse buah
l u
Ġt r
Ġp es
t ing
Ġpen d
id up
e da
Ġmem per
ud i
ingk at
Ġt empat
er i
am i
uh an
Ġses u
j alan
Ġm au
u i
n a
Ġlain nya
Ġs ama
uk up
er ja
ba ik
ak at
Ġber t
Ġhar ga
f orm
) .
on al
Ġmer upakan
Ġat as
Ġmendapat kan
Ġkep ada
m as
Ġmember ikan
al ing
Ġag ar
us ia
ing an
Ġber h
Ġdil akukan
Ġber bagai
Ġb u
ap kan
Ġm akan
eng k
o w
at akan
t ar
Ġse ti
ul an
Ġseh ingga
Ġsek ali
ĠS el
un ia
Ġk h
a f
Ġc ukup
Ġper n
ar ah
angs ung
ak s
er a
Ġse j
t or
Ġb ukan
Ġseb elum
ol a
Ġmem ang
ĠâĢ ĵ
Ġt u
g r
on t
i f
Ġter k
Ġb agian
Ġk ali
Ġ ia
Ġseti ap
im a
Ġdi r
ul it
Ġm udah
Ġter jadi
Ġse g
ti f
Ġ -
ol ah
Ġj adi
en is
Ġse orang
il a
yar akat
ed ia
e j
Ġke d
Ġset elah
main an
Ġse p
Ġn eg
ak u
Ġpen y
e f
im ana
Ġm ungkin
ud ian
h ad
Ġw ar
Ġm in
Ġket ika
el as
et ah
Ġb elum
ek erja
ung g
Ġper lu
Ġdi per
ang un
Ġh ingga
anj ut
Ġr es
form asi
emb ali
at ang
f aat
Ġdi ri
en c
l e
Ġm ulai
Ġ um
Ġmas yarakat
ak in
Ġs itu
Ġt api
an c
Ġp ul
aw at
Ġp aling
ak ar
ek s
r e
en al
Ġdi d
u c
Ġ 5
ĠT er
Ġper mainan
Ġd unia
Ġn amun
Ġkel uar
ing gi
an ti
a wa
al nya
an tu
ul u
en si
an s
alu i
es t
ak ai
ur ut
Ġk ur
Ġmen j
Ġ 4
Ġber l
ai kan
ter n
Ġper s
t ara
e v
Ġl angsung
Ġl a
Ġs o
Ġl alu
Ġpern ah
Ġh asil
ga imana
Ġt em
Ġter d
it ar
Ġa ir
en tuk
alam i
Ġmem p
il an
Ġmel ihat
Ġd ua
un t
un c
Ġj udi
ul is
ĠB er
.. .
Ġk embali
usah aan
Ġkon s
Ġin d
on s
Ġ V
in ta
Ġmem ba
h an
Ġt i
Ġber p
Ġsed ang
âĢ ľ
l ikasi
Ġs en
Ġsel alu
Ġ wa
Ġ i
as anya
c aya
m u
Ġtet api
um lah
is wa
c a
Ġj enis
Ġak hir
Ġber d
m an
Ġm od
ĠK ar
eb ab
yak it
Ġm us
Ġsesu ai
ingg al
Ġt im
Ġb enar
ĠD i
Ġt inggi
Ġ o
n is
ik ir
Ġtan pa
r es
n i
Ġk u
ĠD an
o ba
ak i
Ġh idup
v er
ĠN amun
er ah
Ġmel alui
Ġber main
Ġk ata
y ata
, âĢĿ
o c
ĠUn tuk
Ġtet ap
amb il
ut ama
Ġbers ama
Ġin formasi
Ġsel ama
Ġsek arang
e tu
Ġm es
l i
c om
eg itu
Ġpert ama
ur uh
Ġ ob
Ġk as
Ġp os
il ai
Ġke h
had ap
Ġm ana
al au
us us
ur ah
Ġ "
usah a
Ġd ep
Ġtu buh
Ġkal au
Ġk omp
er int
Ġsitu s
Ġser ing
âĢ Ļ
Ġter hadap
Ġs t
au h
Ġsek itar
Ġd es
Ġ ga
Ġpem ain
ak ah
il ah
p at
el i
Ġpen ting
aw an
amp u
Ġ :
Ġk om
s t
aj ar
Ġper usahaan
ĠJ ika
Ġtah u
Ġber ada
b er
at kan
Ġ uang
em ukan
Ġkem udian
an y
ĠA p
an i
Ġsu atu
Ġkec il
um p
Ġmem ilih
Ġan tara
Ġter baik
Ġbah kan
ĠS em
ek si
ar ik
Ġc epat
ti kan
al is
) ,
h at
an ita
uk u
angk a
Ġdi gunakan
Ġmemb antu
ar u
e kan
etah ui
Ġk ota
u as
Ġp ilih
Ġter us
ĠD engan
Ġsem akin
Ġpro ses
Ġmas alah
Ġd em
ik et
Ġ ar
ĠP ro
Ġpen yakit
ol o
id e
Ġmeng g
A N
Ġn ama
akar ta
ĠP em
Ġs p
ist em
ur u
ob il
Ġj am
eng ah
Ġl uar
er ita
Ġn g
alam an
l og
ek n
or i
âĢ ¦
Ġd a
ti m
Ġj alan
Ġl ama
ok er
Ġmas uk
unj ung
Ġwa j
Ġb egitu
h ar
Ġman usia
Ġmeng atakan
anj ang
Ġmenc ari
Ġum um
Ġmeng en
s a
im b
us i
ay anan
in a
Ġ aw
Ġneg ara
eng ar
a bu
es i
on e
ar k
at as
Ġ angg
Ġse ba
Ġt iket
ur un
Ġmas a
am u
Ġmau pun
eh atan
Ġkh usus
j u
Ġm ampu
d i
ĠAl lah
ah as
Ġt angg
et elah
ik it
Ġ art
ut an
h kan
Ġmakan an
00 0
u da
as ar
Ġb ulan
Ġb ag
ri b
Ġbar ang
Ġberb eda
ĠH al
ĠKar ena
Ġbah an
ati f
and ing
Ġbi asa
erint ah
ual itas
eng g
ĠR p
Ġmer asa
up a
Ġker ja
Ġ1 9
b an
Ġd atang
Ġw anita
gr am
Ġmen arik
er n
Ġw eb
Ġked ua
Ġsed ikit
Ġpas ti
an da
or e
ant ai
Ġl ap
ot o
ĠS eb
U n
Ġsel uruh
ih an
Ġb aw
od e
ih ak
ap un
a it
ĠP en
o v
Ġt amp
Ġt el
Ġpeng gun
Ġn y
m i
Ġap likasi
Ġsebelum nya
S el
Ġber ikut
Ġke k
ok o
Ġmen ingkat
Ġt epat
ti v
un d
Ġ ac
Ġ 6
tu r
asi onal
ad an
i j
am e
Ġj auh
olo gi
Ġke gi
Ġk ulit
Ġba gaimana
Ġmen er
Ġkur ang
amb ah
Ġs istem
ac am
angk at
or t
Ġkegi atan
Ġf il
ap ai
Ġin tern
Ġm obil
Ġt ar
Ġbis nis
ak si
is ata
s it
ay ah
Ġt entu
e orang
id ikan
g as
ik ian
Ġob at
ĠSel ain
ak hir
ĠJ akarta
Ġad anya
bu tu
an yak
Ġg un
Ġk en
am at
butu hkan
am in
Ġter p
Ġm urah
Ġper k
h e
uh i
Ġdep an
ĠA g
Ġmem as
er b
Ġbi asanya
a ja
ed i
ub ungan
Ġk an
mas uk
uk kan
Ġr asa
d isi
us t
ad ang
Ġmengen ai
uj uan
Ġp unya
em en
Ġter j
Ġl ok
utu han
ir an
Ġ ef
at is
Ġm at
il ang
Ġj elas
Ġkal ian
ak a
ia ya
Ġkes ehatan
Ġb entuk
Ġ ,
ĠM en
ik m
Ġ1 0
el it
engk ap
u g
c o
Un tuk
Ġ or
l ik
ang i
Ġb ekerja
ot or
Ġtem an
us an
Ġp ihak
ĠA r
Ġbaw ah
Ġ nya
ĠP r
en er
ĠI s
ent ara
Ġ .
utu s
Ġbu at
ĠA m
Ġbag us
er ta
Ġp ut
pat en
Ġk r
ir im
Ġmen ja
Ġb log
abu paten
Ġdis ebut
in an
Ġkeluar ga
ak it
c h
Ġj angan
Ġ 7
ek at
enar nya
Ġterl ihat
Ġt ekn
Ġterl alu
Ġj umlah
l am
ĠIn i
Ġ eks
t inya
Ġ201 8
om b
Ġb ola
ĠA s
l o
Ġkeb utuhan
i g
Ġd ata
ub ah
ĠS e
uk um
ĠS aya
Ġakhir nya
Ġdi c
o ga
at ur
Ġter n
ag u
Ġ em
Ġm ata
ĠT api
Ġ uj
Ġs tr
Ġb ay
Ġter t
Ġg r
Ġmeng alami
Ġda erah
Ġter masuk
Ġpen c
Ġtr ans
si al
a il
g an
Ġl akukan
ont oh
Ġdib er
per caya
Ġt angan
Ġwar na
Ġdim ana
ĠM er
Ġpilih an
Ġ ul
angun an
ĠJ adi
Ġl em
ik el
it ik
ur a
b at
Ġ z
Ġdi g
en ang
Ġh ati
Ġsej ak
an ak
w ar
m in
um ber
h one
Ġt ip
ĠP eng
Ġber at
Ġbel ajar
ad ah
Ġp ol
ebab kan
in o
al ik
Ġp ekerja
ur at
Ġmen emukan
k er
w an
ung si
ĠD alam
Ġkon disi
ong an
angk ah
Ġt inggal
Ġdi j
up aya
id ang
ĠC h
, "
Ġ 8
et ak
u anya
amb ut
e ja
g er
a ik
and ar
Ġm engan
l as
ĠP ada
Ġm edia
Ġdi ba
f t
u angan
ing at
Ġ utama
Ġ is
Ġmen unj
Ġsek olah
Ġpro gram
ikut i
Ġ usaha
unt ungan
ul i
Ġt ujuan
Ġaw al
Ġ il
ul a
ĠA ku
es k
Ġses eorang
Ġtent unya
om o
Ġm et
Ġbah asa
Ġag en
ĠA d
ar at
ul kan
Ġpen j
Ġmeng etahui
Ġh ad
Ġtangg al
ud uk
ĠK ota
ah un
uk uran
is alnya
ut a
Ġpes awat
amb ar
S eb
Ġseg era
jalan an
id ur
anjut nya
Ġef ek
Ġseb agian
at eg
l an
Ġj ar
ant ung
Ġn ilai
as al
il i
Ġp an
Ġkar tu
Ġsesu atu
Ġb ur
Ġb ak
P er
Ġm alam
Ġ ot
ĠD ia
Ġj awa
emb angan
emb ang
ahas iswa
ĠM as
edi akan
emb er
Ġberh asil
Ġpul a
Ġterd apat
ik at
ak ni
Ġ2 00
Ġpem erintah
um si
Ġmeningkat kan
Ġangg ota
al l
Ġs akit
am anya
ĠK ami
kan nya
amp uan
Ġti ga
um en
on om
ang ga
ib at
ĠS M
Ġmas ing
Ġb uku
and ingan
af tar
Ġb adan
ĠD es
Ġ aman
Ġd ulu
Ġap akah
Ġk eber
Ġtern yata
Ġp oker
Ġtar uhan
aj aran
Ġpr ia
alah an
as arkan
idup an
Ġi bu
itu r
Ġmemb eli
Ġy akni
ada an
Ġg ame
sit e
Ġb iaya
unya i
ar is
asi kan
ĠJ awa
im al
ĠA da
Ġk ualitas
Ġdi h
Ġac ara
e a
i v
Ġart ikel
is a
ĠO n
Ġdir inya
ĠK abupaten
Ġt oko
Ġ ay
b enar
Ġs uka
Ġtr ad
Ġmenc oba
unc ul
Ġkon t
omp ok
Ġ 0
ak t
y ang
an akan
or d
Ġper jalanan
ĠT idak
Ġwaj ah
et ika
ĠK em
ak nya
ĠIn g
Ġ 9
as akan
Ġseb enarnya
Ġber jalan
ĠY ang
Ġt ingkat
Ġber j
Ġmemp unyai
Ġy g
amp ir
asa an
ip un
ar ga
Ġmenc apai
Ġh ukum
Ġd ok
Ġku at
Ġ ek
Ġt idur
ar anya
ara an
Ġ Z
Ġk ol
Ġ alam
Ġseg ala
Ġdes ain
ĠK ep
Ġpend idikan
Ġkeh idupan
anding kan
Ġb ila
Ġsi ap
Ġal at
ĠâĢ ĺ
ĠT im
ar ti
at unya
Ġmen urut
emp atan
Ġd ah
oh on
Ġk or
J ika
Ġd in
Ġk ap
Ġw isata
ter i
Ġl ingk
p hone
Ġkem ampuan
Ġm uncul
Ġpro f
Ġin f
Ġdiber ikan
is ik
m a
al on
Ġdem ikian
buh an
ĠS ek
Ġs h
at e
Ġmem en
Ġd asar
enc ana
B er
il ayah
bu atan
e i
Ġs il
Ġwar ga
id en
ĠS etelah
om or
en angan
ir a
ide o
Ġso sial
asil kan
an ja
Ġman faat
ĠA k
mas ing
Ġmem butuhkan
y ah
o ok
Ġke untungan
ain kan
Ġp anjang
ot el
Ġf ak
entu kan
m art
a v
ĠI a
in si
Ġter akhir
i bu
Ġs iswa
in asi
Ġintern et
Ġp et
Ġb eb
is asi
Ġpas ar
Ġl ayanan
ungg u
g ak
e wa
Ġ ist
Ġf oto
l ukan
Ġ alami
g et
est asi
. âĢĿ
ung i
m e
f at
um an
M en
Ġmes in
Ġpekerja an
ikm ati
ungg uh
ĠT uhan
y at
ĠMer eka
ur kan
Ġmeng ambil
Ġweb site
uj u
i ver
Ġb un
ingg u
Ġper b
uk ti
Ġkel as
Ġber arti
D i
en s
Ġdi buat
Ġs k
Ġt ua
ac k
Ġ op
is tr
Ġan d
el uar
an faat
ur n
Ġs umber
ĠS o
Ġke ter
Ġr ek
Ġd arah
Ġs ini
Ġj asa
Ġkar ya
elit ian
Ġt um
Ġseh at
Ġres mi
al agi
Ġatau pun
Ġmember i
Ġfil m
Ġor gan
ra ga
Ġseba b
Ġmemba wa
i z
Ġ ukuran
Ġpem ba
at asi
Ġny aman
A n
Ġr uang
Ġper gi
er an
Ġp akai
Ġmenunj ukkan
Ġs ah
Ġbu ah
Ġpos isi
per asi
Ġpert andingan
gr is
Ġb idang
Ġter g
Ġter utama
Ġber asal
rib adi
w ah
D alam
A R
ut er
ab is
Ġk ini
Ġ X
Ġk a
Ġm ahasiswa
Ġs ulit
ul t
Ġh ubungan
Ġsel ain
on d
h i
b ung
aman an
ar nya
emp uan
Ġ /
l im
Ġmen uju
Ġlok asi
Ġb at
Ġp ot
ĠIs lam
Ġw ilayah
Ġmeng ak
ĠIng gris
us tr
am atan
Ġpenggun a
man faat
h o
Ġ Q
Ġm acam
Ġmeng k
Ġtekn ologi
Ġt engah
us at
un an
angg ap
al kan
hat ikan
Sel ain
aks anakan
oc ok
ir kan
ar d
Ġpeng alaman
Ġr e
Ġg ambar
Ġber n
i ga
Ġm uda
ĠT r
aj ak
ĠOn line
Ġ e
ĠS t
ag am
ĠS er
Ġp ak
f f
Ġber m
Ġg ak
tu m
Ġseb esar
ĠP as
ĠM eng
S I
Ġd ekat
en da
Ġmes k
Ġak un
u e
Ġber manfaat
Ġlingk ungan
tiv itas
Ġtert entu
ĠM em
Ġdik enal
ro id
Ġtan ah
in j
Ġkes empatan
Ġj uta
el l
Ġterb aru
Ġg el
Ġdi ter
Ġg er
Ġd aftar
Ġpen uh
ow n
Ġmenja ga
Ġmen it
ro duk
Ġk at
s p
Ġ &
and ang
uk ses
Ġmener ima
P ada
Ġke ku
Ġ2 0
Ġ1 5
Ġmeny ebabkan
Ġc ontoh
Ġpeng h
Ġpes erta
Ġp l
t akan
Ġbay i
Ġkom un
Ġmak s
Ġmemba ca
um a
Ġkam ar
Ġv ideo
as ih
Ġk end
Ġper m
ĠM ar
Ġil mu
Ġbel i
Ġmeny ediakan
Ġmod el
ant or
o y
g k
ĠP T
2 01
Ġd aya
Ġmen ulis
uk ung
el a
S aya
Ġgun akan
Ġs al
ĠN eg
Ġb et
Ġpas angan
Ġl engkap
Ġ en
Ġsi apa
unjung i
il l
ep as
er ti
Ġter c
onom i
ah a
ĠS p
ĠO l
angs a
op ul
Ġmen jalan
ar ap
Ġr am
any akan
Ġdah ulu
ak ang
l is
a gai
Ġf itur
is ah
Ġmus im
Ġm otor
imp in
es an
Ġterk ait
Ġmen ang
Ġ1 2
Ġ ik
b ila
I n
Ġt ulis
ebih an
Ġs isi
Ġr ambut
Ġter percaya
S em
da ya
Ġpel angg
Ġl ah
Ġmeng ikuti
utu p
Ġ el
Ġ ikut
ah ami
Ġg uru
p l
mart phone
us nya
um i
Ġ up
Ġper empuan
elas kan
Ġng gak
Ġ201 7
Ġak tif
Ġumum nya
ub ahan
Ġl uas
Ġp ikir
ed it
Ġ ikan
Ġpes an
ĠJ ep
Ġmeny er
ur i
ai an
Ġsel anjutnya
anya an
Ġkel ompok
Ġmeny el
amp ak
ari an
er s
olah raga
Ġkas ih
Ġmen inggal
ad ar
Ġgr atis
Ġmengh ad
Ġl angkah
ol usi
ud ara
N I
Ġd om
ung kan
m en
Ġh ampir
Ġapa bila
Ġal asan
Ġ usia
Ġm ah
Ġc er
ew at
Ġm ul
ark et
ĠK e
Ġn anti
Ġmemb uka
Ġc ocok
ĠP ol
Ġber g
em an
a z
ra f
ĠB ahkan
Ġpemb el
E R
in c
end er
Ġdi tu
Ġkep ala
Ġl anjut
Ġper caya
Ġput ih
Ġmengh asilkan
w al
Ġmeng ur
ĠD P
y ek
ĠS eh
Ġters edia
eb ar
Ġdi ant
r y
er h
end ah
em u
S etelah
asil itas
lo ad
Ġjawa b
au d
Ġt amb
op i
r is
ong k
ob atan
ga bung
ant ik
ont on
as aran
Ġ ib
Ġneg eri
Ġdi atas
Ġdes a
Ġsu ara
Ġg ol
angg ung
ar uh
h al
or an
Ġm isalnya
Ġs ana
Ġd et
et api
Ġp ribadi
anfaat kan
ĠAn d
D engan
Ġc alon
Ġmen urun
at ihan
Ġkas us
ap ak
ĠK alau
ons umsi
ĠS alah
A M
Ġkem enangan
er j
un i
ay u
and i
ĠG o
u ga
og el
in k
h a
es s
i ap
Ġk ab
Ġs ih
Ġterl ebih
at or
Ġpen elitian
Ġn aik
ĠS aat
Ġmend ukung
ĠK ec
Ġser i
ih kan
Ġs atunya
il is
ĠA t
I N
ak ter
emb angkan
Ġhad ir
ri p
ĠPer t
ĠS ed
an k
g g
Ġin v
Ġind ah
ip takan
and ung
i wa
Ġdan a
Ġc erita
ungkin an
Ġmen ya
erh ana
it if
at ih
d ung
adah al
Ġl ihat
Ġsek s
i cara
Ġdik etahui
Ġdapat kan
e y
Ġdib andingkan
og le
Ġmeny ebut
ant inya
ah aya
in e
ĠD ari
is an
Ġdok ter
Ġmen ikmati
Ġn omor
Ġk l
Ġ ab
Ġl agu
Ġp opul
aw arkan
ĠI tu
Ġse baik
Ġb atu
Ġtu gas
Ġmem akai
Ġbel akang
Ġberk embang
erb al
Ġmemb angun
ĠK ita
Ġmem er
Ġban tu
Ġju al
g us
Ġp agi
Ġker as
at uran
amp ilan
ĠM al
at nya
Ġs martphone
it al
iver s
Ġberd asarkan
ĠS et
ĠM aka
ena ga
in ar
Ġs ang
uk ul
k ah
Ġla z
Ġterd iri
ĠJep ang
Ġper ubahan
Ġ angka
as inya
Ġsem uanya
Ġb ek
amp il
Ġstr ateg
Ġl ewat
etah uan
ĠS h
Ġh it
es ai
Ġmem inta
amp aikan
Ġterk enal
amb ahkan
j i
ĠE n
ĠO r
Ġber f
A p
Ġt urun
Ġseh ari
ang nya
ĠB arat
Ġfak tor
im an
Ġper angkat
Ġr ak
âĢĿ .
p ada
ant an
c k
ok oh
Ġm ew
K ami
eluar kan
Ġber upa
Ġr ibu
ut i
Ġas al
Ġak ibat
Ġpenggun aan
Ġk amp
Ġs upaya
ĠDes a
o si
Ġdis ini
Ġsej umlah
Ġk aki
Ġk antor
Ġprof esi
Ġp ed
Ġf asilitas
Ġjar ingan
Ġek onomi
Ġti ba
es u
Ġkeku atan
Ġperk embangan
ĠJ angan
at uh
Ġ olahraga
1 0
ew an
Ġke adaan
Ġp o
Ġpan as
Ġ1 00
Ġp art
if ikasi
Ġf orm
Ġbun ga
Ġter asa
Ġkomp uter
ul ang
is k
Ġ ide
A T
Ġbers ih
Ġb ang
ĠS u
t e
Ġh ak
ĠC ara
s u
Ġmod al
Ġsem entara
o a
Ġpel ayanan
Ġl upa
on a
Ġag ama
Ġkhusus nya
ab i
et a
ĠB el
ĠN ah
Ġ3 0
ti ga
ub lik
Ġkem ungkinan
Ġs y
Ġbur uk
Ġbak al
ac e
r am
ĠA c
utus an
it y
Ġin s
wa b
Ġc inta
Ġpeng g
Ġay am
Ġberh arap
ĠB anyak
ĠOl eh
en ti
Ġitu lah
uk ai
imp an
ain ya
en angkan
Ġb oleh
ĠAm er
i e
it er
Ġm o
ba ga
ind ari
ĠM us
Ġber usaha
Ġproduk si
Ġs us
own load
em at
eg as
Ġmat eri
Ġtum buh
Ġmen u
en akan
Ġsed erhana
u at
r asi
Ġmemen uhi
Ġf ungsi
Ġ empat
alau pun
ej ala
Ġap apun
Ġpemb angunan
Ġj ad
en j
Ġr el
ĠP end
Ġsekali gus
Ġsem oga
da ft
g anya
ĠM esk
ul asi
v insi
ĠK om
ĠU m
E N
Ġd uduk
N amun
Ġdis k
as e
aks ana
ul au
h er
t o
and angan
ur usan
Ġkar akter
on us
Ġk and
ivers itas
Ġh otel
ob at
Ġkon tr
s ama
Ġpen ulis
ik si
Ġ201 6
ant as
Ġmenjadi kan
p ort
Ġsem p
h ari
tu s
K I
N ya
Ġak tivitas
ĠK es
uj ud
Ġl ay
a gaimana
S e
Ġas li
Ġpr omo
Ġ [
Ġdi har
Ġb utu
ab at
ib atkan
ĠSeh ingga
ĠTim ur
ok ok
ust ri
ĠK el
Ġbeb as
Ġr endah
Ġc oba
uk ur
Ġm ilik
un tu
Ġs ukses
Ġt ind
Ġ imp
Ġt e
Ġt o
ol l
Ġbang et
Ġmemper oleh
uk i
Ġs ar
Ġsel esai
Ġdip akai
ut ar
Ġb angsa
5 0
Ġ ?
al ian
em uan
Ġter h
Ġmeng atasi
Ġmer asakan
Ġpert anyaan
Ġlaz ada
ĠT etapi
Ġpelangg an
Ġp antai
l et
etu a
Ġkat anya
Ġmen entukan
a ih
ĠK amu
in al
Ġso al
Ġmus ik
at al
Ġs urat
i ah
R I
i ew
Ġwaj ib
Ġan tar
Ġn antinya
Ġh am
Ġpol itik
ik ap
us ak
Ġp at
ingin kan
Ġpeng etahuan
ĠAmer ika
ik u
Ġp usat
Ġmenj elaskan
s el
Ġdil ihat
ay an
Ġdi anggap
Ġh alaman
Ġtip s
Ġban k
Ġkons umen
Ġpem buatan
Ġr ep
ĠB i
ĠT ahun
Ġpeng unjung
ĠS ep
Ġdem i
ĠM an
Men urut
Ġmer ah
Ġberp ikir
Ġak ses
Ġdij ual
u asa
ib uran
ed ar
Ġl aki
Ġbern ama
um at
em ikian
ĠA S
Ġpr akt
Ġmet ode
engk api
Ġber ubah
Ġv er
ĠP l
Ġmen awarkan
Ġun ik
Ġtan aman
A S
jadi kan
ilih an
Ġin st
Ġber c
ak il
ĠT ak
Ġd ag
Ġ us
is me
ir ing
Ġ1 8
Ġmeny atakan
Ġsem pat
Ġbert anya
Ġr em
ingk atan
e ga
eg ah
y aran
Ġo f
u ah
hat ian
Ġm arket
t al
Ġpas tinya
Ġtamp il
t op
Ġl og
Ġt enaga
a ga
Ġmin yak
Ġsil ahkan
ĠP el
Ġkan ker
m ad
Ġsed angkan
Ġ ut
Ġ ah
Ġt ab
Ġm ain
es ter
Ġc uma
b ar
Ġ arah
ĠR e
im ak
Ġdiba wah
Ġberl angsung
Ġke j
ĠB r
Ġm ati
Ġd r
Ġkend araan
Ġh erbal
Ġr ut
Ġs aling
Ġpeny ebab
Ġ id
ok us
Ġd os
Ġdit emukan
1 2
Ġdi butuhkan
Ġsebaik nya
eb ook
et er
Ġmem ahami
f er
Ġingin kan
el anja
Ġpend apat
Ġmeng in
ti on
ju alan
Ġc antik
Ġm inggu
Ġp ad
A da
Ġm alah
ed iksi
Ġber ikan
Ġdi jadikan
Ġberk ata
ĠK eb
Ġr uangan
Ġtamb ahan
Ġkomp et
da f
ij akan
ep atan
ustr u
Ġk alah
ik ah
Ġga ya
ĠA b
Ġa ja
ĠBer ikut
ger ak
Ġg ad
aw atan
anjut kan
Ġ ...
Ġsen ang
Ġmen unggu
il angan
ĠSe perti
Ġp in
Ġberk ualitas
T er
ĠM el
A L
Ġdim iliki
Ġm aj
eg i
Ġpos itif
Ġ '
ic e
Ġbert emu
Ġbantu an
Ġpak et
ĠD a
Ġl ima
daf tar
Ġ im
Ġn asional
ent ar
om end
Ġc at
Ġke tiga
engar uhi
Ġc h
o da
il angkan
it an
ons el
Ġs ambil
or ong
Ġmengan dung
Ġsej arah
ĠâĢ ¦
Ġper hatian
angk au
ar ena
ol ong
itu s
Ġber gabung
Ġpem ilik
unc i
ĠK etika
uk aan
ub ungi
ta b
ac a
ĠP res
Ġt adi
Ġseb anyak
Ġtan da
Ġpel uang
si kan
ah asa
Ġs up
ud ul
Ġke amanan
Ġm eja
Ġn amanya
ew asa
tr uk
aw asan
Ġorgan isasi
Ġmenurun kan
ampil kan
ik s
Ġ1 6
ungkin kan
ĠSed angkan
Ġmesk ipun
Ġmen ambah
Ġke uangan
t ik
Ġs un
ĠA pa
Ġbu daya
Ġp ukul
Ġtrad isi
o kan
Ġdid apat
Ġla yak
Ġy akin
Ġp ah
ar akan
Ġmenj ual
ĠB andung
Ġla ut
amb at
eg ang
Ġtrans aksi
Ġseba ga
ot al
A K
Ġmer ek
at ar
Ġar ea
ur na
Ġber agam
aj ari
Ġkor ban
Ġkand ungan
u ari
Ġdiper lukan
l aki
Ġj er
os it
ent er
Ġga g
Ġad min
Ġk os
Ġpers en
ĠDP R
Ġk au
e x
utus kan
ej ak
ol ak
in er
Ġb angunan
Ġpemba yaran
Ġkons ep
anti kan
c i
Ġap alagi
An da
ad akan
Ġb al
Ġber ita
Ġsu ami
ĠM ad
S aat
Ġb r
Ġ1 4
Ġmeny enangkan
Ġpeng obatan
Ġtulis an
Ġmengur angi
Ġs ub
ĠT an
er it
g n
ĠK ed
es aikan
Ġmaks imal
Ġber tu
duk ung
ba ya
alis asi
Ġdid alam
ĠP ak
Ġm a
ĠKep ala
aks ud
ingin an
al ur
at us
ĠT he
ur us
A ku
tum buhan
Ġmenc iptakan
Ġ1 1
w i
Ġkh as
Ġsamp ing
etu l
ĠB eberapa
Ġw as
ĠB ali
istr ik
awat ir
eda an
Ġdim ulai
tu a
Ġefek tif
Ġo perasi
da g
ad inya
Ġver si
ati on
Ġb us
Ġk ayu
s er
el asan
Ġind ustri
Ġr ev
Ġprofesi onal
P K
Ġmem ulai
Ġla ga
u ali
Ġd uk
ur angan
Ġj ustru
Ġmend engar
ĠR es
Ġp ar
amp ing
ab r
Ġket ah
Ġmen ambahkan
Ġb onus
Ġb es
Ġb ro
Ġpot ensi
Ġkal angan
i at
Ġs ur
O M
Ġsebaga inya
Ġmeng enal
ar usnya
d er
en y
Ġf isik
Ġh i
e z
gun a
Ġ ener
ĠSel atan
ĠK etua
Ġmer aih
Ġmin im
3 0
Ġberb elanja
Ġmah al
ener asi
Ġpopul er
Ġhit am
Ġin t
Ġtak ut
A l
v e
Ġk o
ar ta
tu di
ĠMen urut
ul us
angg u
T idak
Ġmem ungkinkan
Ġl emb
Ġin ilah
Ġm ed
Ġ api
roduk si
ĠG un
ij au
Ġtekn ik
ik o
Ġterb esar
t as
ĠAnd roid
Ġn orm
asil an
A H
I ni
Ġ udah
ub ern
up ati
as itas
Ġk opi
r ah
int ang
Ġd ewasa
ist en
p ek
Ġdi ta
ubern ur
Ġber gerak
Ġpul ang
r et
ura baya
ĠY a
Ġmeng el
Ġmenjalan kan
ag e
ĠH arga
Ġmemas tikan
es ifikasi
Ġr ah
ĠPem erintah
Ġdihar apkan
Ġkh awatir
it i
ĠSem oga
Ġlok al
daft aran
P U
ĠK am
jadi an
us un
Ġmana j
Ġsem angat
or k
Ġlay ar
ik in
Ġ ayah
ah at
N ah
tim b
ĠD is
Ġpeng el
Ġ es
2 0
Ġp ay
Ġ201 5
Ġtamp ak
Ġ1 7
ĠM ungkin
it ung
ĠJ udi
Ġmod ern
ĠB agi
ĠAp akah
Ġm ur
isi p
d ul
Ġjad wal
D an
ĠSem ua
as is
h t
Ġmem anfaatkan
ac ebook
ĠD r
Ġ5 0
Ġp onsel
Ġstrateg i
e e
war e
ĠPres iden
Ġpen er
Ġsi fat
Ġmeng apa
eb at
H al
j ek
imp i
Ġj arang
Ġk ut
Ġrak yat
ĠAg us
Ġberd iri
ja ga
Ġg ejala
ar in
war na
b aru
Ġas ing
ĠKem udian
ĠR umah
ĠGo ogle
Ġag ak
ĠS am
Ġj atuh
Ġt au
Ġ2 4
C ara
Ġdi ak
Ġ1 3
Ġv ir
Ġ udara
b o
Ġduk ungan
Ġ er
Ġber si
Ġh ilang
Ġdil aksanakan
Ġmeninggal kan
Ġmeng eluarkan
Ġsep ak
Ġp ola
t eman
Ġtip e
uk tikan
h am
ĠKec amatan
ĠUn iversitas
Ġah li
Ġs in
aran kan
es anan
Ġdis ebabkan
Ġterb uka
j id
ad u
Ġti ap
Ġpro yek
s ia
Ġtind akan
ĠH anya
ob ati
et apkan
yar at
Ġr up
end ak
el engg
id ik
ĠK al
ah ari
Ġkeh ilangan
p on
Ġt angga
Ġdik atakan
ist ik
Ġkeb ijakan
Ġ upaya
si apkan
untu t
.. ..
ef er
Ġfil e
ĠB l
Ġj iwa
Ġan ti
Ġm iliki
engkap nya
res i
Ġb l
om a
Ġs olusi
Ġmem utuskan
Ġper tumbuhan
ĠP emb
uli ah
Ġsep anjang
t ah
Ġsen i
ĠA ir
ĠS i
o o
ik ahan
Ġind onesia
ĠA h
Ġk apan
ĠH ar
ĠI I
ait an
Ġpend erita
tar ik
ĠSeb agai
Ġpend ek
Ġh and
Ġmen imb
et ik
ĠM uh
ev el
Ġberl aku
uc i
Ġist ri
Ġmeng embangkan
Ġt amu
ag ia
Ġl istrik
Ġem as
as t
is nis
ĠS y
Ġul ang
Ġt okoh
Ġdiant aranya
Ġpakai an
Ġper awatan
Ġbanyak nya
ad e
f ikasi
Ġ19 9
ent asi
Ġdag ing
Ġ am
om ba
Ġterg antung
Ġener gi
a ir
ay ani
Ġmin um
Ġsemp urna
Ġketah ui
Ġpin tu
Ġkes el
Ġberikut nya
ĠP oker
on i
s ur
Ġt otal
Ġart inya
tu p
or it
ĠL alu
ĠG r
on o
uj an
1 9
oc k
Ġr ata
Ġkomun ikasi
Ġ ev
o ur
um b
erj akan
. "
Ġberh ubungan
Ġik lan
ungguh nya
Ġ uc
Ġ #
Ġinv estasi
Ġdalam nya
Ġmenc egah
ra v
M em
ul uh
isik o
Ġmeng unjungi
Ġk ul
angk ap
Ġc ari
er ang
Ġda un
Ġken apa
D ari
Ġdik ar
Ġ q
en ing
T A
Ġseh arusnya
Ġt emp
c e
Ġk ak
Ġpo in
Ġpenj ual
Ġ isi
Ġ2 5
Ġberb agi
tr a
ĠI bu
Ġrut in
Ġdari pada
Ġb in
Ġpul au
Ġlah ir
Ġpend uduk
d ang
yata an
aran si
Ġt ekan
ĠD in
l l
em i
ĠM in
ĠS D
ik sa
Ġdi ambil
Ġt ogel
Ġen ak
y o
alik nya
an si
Ġpikir an
aud ara
Ġkep utusan
Ġmemba yar
ir u
Ġj antung
Ġt as
Ġ ent
ĠNeg ara
Ġp ec
ĠU S
ol og
Ġ201 4
Ġdib eri
Ġb ib
ĠM ak
Ġber apa
Ġmel awan
ent ang
Ġk re
p or
Ġkarya wan
ro s
Ġtrad ing
Ġham il
ab ila
Ġkel ebihan
om atis
Ġr ingan
ĠB ar
Ġw is
Ġst andar
Ġpen jualan
Ġter buat
Ġmengh ilangkan
idak nya
Ġkam era
Ġper c
Ġpem impin
P S
Ġat uran
Ġter tarik
Ġmeng aku
os ok
ĠU tara
Ġ aj
erint ahan
amp ung
ĠS urabaya
h it
ay akan
buh kan
1 1
Ġberh enti
ab el
! !
Ġmenimb ulkan
Ġker j
Ġba ca
Ġtah ap
ĠIn tern
ew ati
Ġter m
Ġberb icara
Ġmem ainkan
Ġbutu h
uj i
adi ah
d ari
Ġterb ukti
Ġmembuat nya
Ġke inginan
Ġkel amin
Ġsi ang
un da
ĠK r
Ġtamp ilan
Ġmeng irim
Ġper j
f a
ili ar
il ing
Ġb andar
ĠSem entara
Ġb enda
Ġh ijau
es us
Ġz aman
Ġmemb ahas
Ġmeng ingat
Ġmenja wab
un y
Ġdip as
ĠI r
Ġmen utup
ok asi
Ġperb edaan
Ġba ju
us kan
as kan
Ġpen daftaran
Ġper ut
is ti
ind ah
Ġkes alahan
end iri
ĠO k
Ġt itik
Ġditer ima
s h
as ino
Ġb umi
ĠPro vinsi
Ġb ukti
Ġ |
el ar
aks a
N S
ĠI b
Ġk unci
Ġbukan lah
as ul
Ġj alur
Ġmenghad api
er t
Ġpert emuan
Ġmend atang
Ġn yata
Ġpern ikahan
ĠO bat
Ġp ublik
b ul
i gi
Ġterk ena
iri p
em a
Ġpem esanan
Ġh abis
ĠA kan
Ġg o
ĠN o
Ġsa yang
j uan
Ġp etu
ĠB ukan
Ġb ul
ï ¿
ed ung
ĠNeg eri
ir asi
Ġmel aksanakan
Ġmeny ampaikan
amp ang
Ġter tu
Ġmin uman
ï¿ ½
Ġb ilang
Ġm e
Ġber warna
ah u
Ġt he
ĠP i
Ġgun a
ore x
Ġmeng ubah
J adi
Ġp ohon
angg uan
Ġkeb anyakan
Ġpos ting
ĠAn ak
ut r
Ġmengh ar
Ġg enerasi
main kan
ĠOr ang
Ġlem baga
Ġper l
on tr
Ġnorm al
Ġl el
m er
anc ar
Ġdikar enakan
it is
Ġdi had
ĠB ank
Ġm al
Ġbur ung
Ġpr es
Ġuj ar
Ġem ail
Ġb e
Ġm andi
Ġf okus
iv id
udah an
at at
Ġk uliah
Ġke jadian
M eng
S alah
Ġter ima
Ġdita w
K arena
empat kan
ĠT NI
esu aikan
Ġka um
B agi
imp inan
Ġs ikap
Ġker ing
ĠT h
Ġjar ak
h l
P eng
ĠS en
tif ikasi
ĠM a
Ġintern asional
w w
Ġse per
Ġres ep
asi a
ind ing
ĠS ebab
Ġmemper t
Ġr encana
Ġm il
Ġmus lim
s ik
Ġdik irim
d us
d o
baik i
ĠSM A
angan i
ib ur
Ġd ap
Ġb and
al at
Ġbert ahan
Ġs usah
t on
Ġmel ayani
Ġdep osit
Ġ amb
ĠE k
Ġl awan
Ġsa y
âĢĿ ,
Ġper i
r at
udah kan
Ġpel aku
Ġsitu asi
har ga
Ġmen ikah
Ġseba gaimana
ĠL iga
or itas
ĠMuh am
Ġot omatis
ow er
ĠE ro
ĠD unia
Ġdil engkapi
er d
ic k
ĠAp alagi
Ġmemer lukan
Ġpeng embangan
ateg ori
s ihkan
t h
Ġr um
Ġp asi
ĠP ara
Sem entara
A B
ĠT engah
ĠP ulau
Ġk aya
mas alahan
n o
Ġpenj elasan
Ġseks ual
int ai
amp ai
Ġsep atu
ĠH ari
S ek
am kan
ore a
Ġh ujan
Ġk adang
Ġbel anja
ĠM isalnya
ĠAg en
Ġs eng
Ġmak in
Ġdi mainkan
Ġpemb er
Ġditaw arkan
Ġ amp
Ġr asanya
Ġr eg
Ġb ing
uran si
Ġk isah
en uh
Ġper p
Ġl antai
Ġbersi fat
Ġber guna
Ġhar apan
ĠS E
Ġay at
ĠB at
ungk apkan
e ad
l at
Ġs ingkat
I B
Ġpembel ajaran
Ġpen ingkatan
i asaan
ip s
d an
ĠEro pa
Ġg l
Ġkap asitas
Ġker eta
it ra
Ġpel aksana
ĠUm um
w isata
Ġf r
Ġc ab
Ġper an
Ġhasil nya
Ġin ter
Ġmeng atur
Ġar ti
b i
Ġper asaan
Ġtradisi onal
og raf
Ġun gk
P T
an ian
ur ang
ep on
Ġkomun itas
om er
pl ace
Ġberf ungsi
as ah
as ana
Ġberk aitan
wa j
o ol
eg al
ĠP al
O N
Ġ201 3
aj i
Ġmemp engaruhi
Ġb ab
ĠAc eh
Ġ x
Ġot ak
Ġber ani
Ġtar get
Ġl um
Ġmat ahari
m b
Ġmesk i
Ġj angka
Ġmet er
Ġt op
Ġn asi
Ġkep ad
ĠL a
Ġkec epatan
Ġ ingat
Ġl ink
Ġd er
ul lah
K alau
Ġul asan
Ġ Ð
yak arta
ĠN ov
unj uk
Ġ usah
Ġinf eksi
Ġmeng erti
ĠDin as
tor an
ĠM akan
Ġked uanya
Ġmemen angkan
Ġkal o
D I
ĠM es
as s
ur uan
s ek
AN G
I tu
as nya
Ġ ok
und ang
ĠY esus
r en
ĠPend idikan
isti wa
efer ensi
ĠY og
Ġlap oran
Ġ amat
g en
ĠK h
Seb elum
ind ahan
Ġand roid
Ġkek urangan
m ent
ta f
ulit an
Ġinf o
Ġs imp
Ġg angguan
Ġd ingin
Ġind ivid
ĠN asional
Ġtah an
Ġsu per
Ġmel ainkan
eb r
el ajari
Ġber akhir
w it
ĠP adahal
ĠD ep
Ġber usia
Ġs obat
Ġrem aja
Ġk in
ĠD ir
ĠMesk ipun
Ġg igi
Ġun it
n y
P em
ir ikan
dag angan
Ġh ewan
Ġpen erb
Ġkur si
em ar
Ġlem ak
Ġpen ampilan
Ġsem b
Ġum at
Ġdim aksud
tern atif
Ġmeng isi
os an
Ġ ali
Ġw alaupun
ek tur
av orit
Ġb alik
eg an
Ġh adiah
Ġmarket place
Ġseri us
Ġrev iew
ĠB upati
ti ba
ai m
Ġdisk on
Ġmem udahkan
un ikasi
w as
as ama
ak aan
ap nya
u f
Ġkap al
Ġterj adinya
ĠT i
ip ta
Ġman is
unj ungan
tiv asi
ĠS ab
engar uh
Ġger akan
ĠSet iap
ut kan
o u
Ġlap angan
Ġv ari
il aku
Ġs l
isip asi
ent ingan
alah kan
Ġh id
Ġr o
T I
Ġsu asana
m at
eg ara
Ġmemb entuk
Ġmeng aj
Ġmenyebut kan
O S
i al
irim an
ĠPen y
Ġmenyel esaikan
abis kan
ab atan
Ġpembel ian
Ġb ikin
istr asi
Ġm om
as h
ent al
Ġmemper hatikan
Ġf or
Ġg ue
s e
Ġkl ub
Ġterj angkau
l y
ent ing
ĠDa erah
el ang
Ġpem erintahan
Ġl iburan
ek tr
Ġh endak
Ġr isiko
Ġmel anjutkan
Ġk ok
ĠR I
d ate
ĠI m
Ġsah abat
un uh
en ya
ĠAgus tus
Ġmen emp
Ġkes ulitan
Ġl atihan
ĠP ut
Ġper g
ed akan
ĠB agaimana
Ġper masalahan
ĠG ubernur
Ġsp esi
r ata
Ġtem a
Ġkr edit
at er
Ġun gg
Ġterb atas
Ġbert ambah
ĠSeb elum
e al
Ġram ah
Ġlap top
K etika
aw aran
Ġpen is
Ġt eb
Ġd ll
Ġl ahan
ega w
o x
Ġberb ahaya
Ġop tim
ĠAt au
Ġgag al
Ġtangg ung
n er
k e
os t
ikir an
ov asi
us akan
am akan
ĠB ila
im ia
Ġperi ode
E S
Ġkem arin
s inya
Ġp ri
asi un
Ġpart ai
Ġrup iah
Ġkut il
Ġkont en
Seb agai
anda i
abr ik
Ġpem er
Ġsp esifikasi
Ġg aris
id ah
Ġs adar
Ġsel amat
Ġse gi
P P
Ġs c
it amin
ind ungi
Ġbing ung
egi atan
Ġdig ital
Ġgad is
Ġ $
Ġmen ampilkan
ol an
Ġtekan an
Ġt enang
Ġdip ilih
and uan
Ġsus u
r id
Ġsep eda
Ġmes ti
ĠR asul
Ġangg aran
Ġwis at
Ġd ini
Ġt ambah
ð Ł
f i
Ġm irip
M esk
eb aran
al atan
Ġkons umsi
int as
Ġr usak
Ġ )
ow i
Ġmengh indari
Ġhar ganya
Ġpel ajaran
Ġpasi en
um ur
Ġmeny impan
Ġk un
er ai
Ġt es
amb ung
Ġmin imal
Ġju ara
Ġmanaj emen
Ġaw alnya
ĠB isa
Ġn as
ĠAs ia
Ġk ategori
Ġ ang
b ah
utu r
iv e
Ġmel ewati
Ġb atas
ent unya
unt ungkan
it s
ĠJ an
ro p
? ?
" .
ĠS il
entu an
Ġber isi
inta an
and iri
Ġmul ut
ĠT entu
Ġmelakukan nya
ĠO p
ĠYog yakarta
Y ang
Ġm iliar
Se perti
ĠR am
rav el
Ġt ek
Ġseb elah
insi p
Ġh utan
Ġdiper oleh
ĠC ontoh
Ġd ownload
ĠT ekn
Ġber per
r il
it asi
ĠH asil
Ġc em
ĠJ er
at ian
Ġk anan
t is
1 5
ul l
Ġdi am
im u
tu si
Ġs yarat
Ġdis ediakan
ĠK er
ĠN abi
Ġhal nya
P en
Ġt eks
a iran
Ġanak nya
ĠM at
il itas
A d
ĠM ed
Ġseg ar
angg il
Ġum ur
iks aan
w ak
K ita
k i
in kan
Ġal ternatif
ĠG er
n as
Ġk enc
Ġmenjalan i
Ġist ilah
Ġd ampak
Ġk awasan
Ġke per
Ġr agu
Ġs tudi
Ġsek edar
B anyak
Ġterk adang
Ġ ambil
ĠE l
Ġsem acam
or asi
Ġt emb
Ġkon f
Ġ angk
Ġbak teri
im at
ĠH P
Ġb intang
Ġset idaknya
ob er
ok owi
Ġsah am
ol d
Ġun d
Ġcat atan
Ġvir us
ĠM od
Ġo per
Ġf avorit
Ġjawa ban
Ġters endiri
ĠPro duk
angk it
on da
ĠSM P
ad ilan
8 8
Ġg am
s ung
ĠKes ehatan
Ġkep entingan
l ihat
ump ulkan
percaya an
Ġtel ur
omend asikan
Ġmenya dari
Ġan alis
Ġterl etak
I M
Ġ engg
Ġkeb iasaan
imb ang
ĠN ew
Ġc ek
ir m
ba b
Ġak si
Ġali as
ot ak
Ġbaik nya
Ġser v
a ing
Ġg ampang
ei en
at inya
Ġ4 0
Ġdom ino
Ġdib angun
ol i
r al
il m
Ġkin erja
l us
Ġbek as
j o
ĠK on
Ġwisat awan
ĠB P
on en
or kan
Ġper buatan
ec t
Ġpas tikan
I D
Ġsangat lah
ing atkan
om i
Ġse c
Ġmemb uktikan
Ġdet ail
Ġm ar
Ġj udul
Ġj ari
or o
Ġp uas
Ġs ungguh
on is
Ġd inding
c ak
ar e
ĠDes ember
U S
Ġpetu gas
Ġc ender
or is
201 8
E T
ow s
Ġh ebat
ĠB ola
Ġl uka
ĠMal ang
k ar
Ġm is
ĠK ap
ĠS itus
k ata
ar ing
Ġmemp r
Ġo ut
U M
Ġ2 1
un a
ahan kan
ant angan
Ġser angan
urun an
Ġmeng obati
Ġmeng ajak
ĠS ul
ĠU s
Ġmend orong
Ġindivid u
Ġg en
os is
Ġcender ung
Ġmem bu
ĠK orea
ĠP K
Ġas am
Ġd eh
Ġn on
âĢ¦ ]
an ah
ft ware
g e
Ġp ap
akai an
et an
Ġpemba ca
h ati
ĠB ahasa
ĠT el
ah aman
Ġmeny ukai
E M
co in
Ġberk unjung
n ah
Ġmengh abiskan
Ġas uransi
ag ram
Ġk ode
Ġtim bul
likasi kan
id a
Ġz at
ĠB aru
ay ang
Ġas pek
c el
Ġk unjungan
ĠS atu
Ġb uka
ĠF ak
os a
P ro
Ġper dagangan
el ih
K em
P A
ikir kan
asi at
Ġset empat
Ġn af
Ġmaj u
sp irasi
ĠM ei
Ġbert anggung
ol is
Ġmel ip
d asarkan
Ġp al
Ġkab ar
Ġuj arnya
n et
erti an
i arkan
ĠS ing
Ġk las
Ġsamp ah
eda g
ek u
j ak
ĠW IB
B M
Ġmengk onsumsi
Ġper aturan
Ġken y
Ġberb asis
Ġp ac
Ġb uk
Ġk abupaten
Ġgun ung
l em
Ġkem atian
Ġt h
et es
uas ai
ĠS ur
b eda
Ġsa b
Ġpeng aruh
ud ang
ujud kan
ik nya
ĠBi asanya
t ober
Ġo ff
Ġid ent
ĠU l
ĠM o
y u
Ġp or
Ġib adah
elit i
Ġper alatan
en aran
amp ur
Ġmeng ungkapkan
ot ong
T api
Ġsar ana
Ġe x
ĠBel anda
Ġk lik
Ġs audara
D ia
res s
Ġsek tor
Ġmeng untungkan
ant o
Ġper istiwa
Ġdasar nya
Ġh angat
as hi
Ġkec uali
B eberapa
it coin
os ting
rib usi
o ot
Ġp ekan
s atunya
Ġsal uran
Ġdiba wa
Ġker usakan
Ġk otor
Ġf l
ub ang
p ro
Ġmener apkan
Ġp ajak
k a
harga an
aj uan
lin d
Ġmen daftar
Ġmeng anggap
ĠP P
Ġpay udara
ĠSe cara
ĠT V
Ġp adahal
ĠI l
Ġk enal
ap us
1 6
Ġlum ayan
Ġjer awat
waj ib
ev isi
Ġpelaksana an
A k
em buhkan
ĠS al
al anya
Ġg atal
ĠW akil
Ġl ip
Ġdi et
ĠK et
ĠR i
ĠAm b
Ġmemas uki
E L
Ġan eh
Ġses ungguhnya
Ġpem ilihan
Ġem osi
Ġ[ âĢ¦]
Ġt egas
Ġn o
au an
Ġres iko
ep an
ul ar
ting gi
Ġm impi
Ġt omb
Ġlemb ut
Ġc ap
ĠT ogel
Ġr ekan
Ġberb entuk
Ġke percayaan
Ġd o
Ġmeny us
angg ih
ind ows
Ġpem uda
ak kan
Ġseng aja
Ġmeng ec
ari kan
ĠP art
Ġd ek
Ġt eh
Ġkomp l
ama an
Ġun sur
Ġl evel
Ġmengg anggu
ĠK en
Ġseb aliknya
p e
Ġp il
ĠPi ala
omp et
ju angan
hir nya
ud ut
Ġset engah
Ġsun gai
Ġneg atif
Ġsep enuh
edag ang
Ġp sik
Ġb angun
ĠD KI
Ġk iri
ĠDPR D
Ġel ektr
t ama
ad ing
Ġseper tinya
z a
Ġ2 2
art emen
Ġk ari
Ġm antan
Ġt aman
ĠJ uli
ar uhan
ĠJ okowi
Ġberk om
ĠH otel
Ġbertu juan
Ġc iri
las h
Ġuj ung
al ang
Sel engkapnya
ĠJ uni
ku at
Ġmeng inginkan
ĠPro gram
Ġmin ta
ĠM ent
Ġpel atihan
Ġs ol
Ġalam at
erit akan
ump ang
I S
aw al
Ġter ang
Ġdidapat kan
Ð ¾
ingk ali
int ah
Ġmen s
Ġpen urunan
ĠMar et
Ġdi inginkan
lah an
ĠMesk i
ĠS umat
Ġd el
um kan
Ġ ðŁ
Ġbib ir
Ġg ula
Ġkom entar
Ġs ip
ĠUn it
Ġwas ir
Ġdib uka
anj i
ant ara
ob i
Ġk ain
port asi
Ġ201 2
ĠS um
Ġmengak ibatkan
Ġmengh ubungi
ĠSek arang
j ikan
Ġmeng ej
in ter
Ġst atus
al ih
1 3
teri or
ĠB adan
O R
ĠPer usahaan
ĠN omor
Ġmeny i
Ġpem andangan
Ġdiper k
o od
el an
Ġkompet isi
Ġdap ur
ir akan
Ð °
Ġmenyer ang
ĠF acebook
Ġr at
ari f
Ġtel epon
aya an
ĠB egitu
Ġg edung
2 00
Ġpeng iriman
ob al
up si
anc ang
ol aan
Ġkont ak
ob et
? âĢĿ
Ġb ud
Ġmemb agi
ĠâĢ Ŀ
ol ahan
Ġmemper k
Ġhar inya
ĠW ar
Ġ ur
eb ak
os isi
I I
ĠSer ikat
ĠL e
K M
Ġpem ula
Ġmeng adakan
q u
ub ung
U N
Ð µ
Ġmen ekan
ac h
em ahan
eh e
Ġdis t
ja b
ĠS un
il lah
Ġker tas
ĠAp abila
Ġk imia
Ġku e
utr isi
uda ya
Ġdit ambah
u aran
b ola
Ġh eran
ind ak
ih atan
Ġl ancar
ĠM obil
Ġg aransi
Ġpem as
Ġtem ukan
truk si
am ar
ĠMuham mad
Ġen am
Ġr angka
Ber ikut
Ġres toran
Ġdi ab
Ġdet ik
Ġmel indungi
Ġsk or
g o
Ġmemper baiki
Ġbes erta
Ġdiant ara
rib ut
Ġv itamin
ing atan
Ġdi ikuti
Ġber angkat
Ġdib agi
it or
Ġp las
anc is
Ġkol am
Ġdib anding
z in
Ġc anggih
o perasi
Ġmeng us
ungg ulan
Ġkomp onen
ac ara
us e
Ġc o
dus en
Ġdisebut kan
em ui
Ġ urusan
ĠJ alan
Ġkamp us
Ġmas jid
est inasi
Ġmen onton
aj ah
ĠE x
ĠOk tober
Ġsekitar nya
si p
Ġdit etapkan
Ġp edagang
Ġt uk
Ġkontr ak
egaw ai
Ġ2 3
Ġper ilaku
Ġ era
Ġp arah
Ġmaks ud
Ġp andangan
Ġpen dukung
Ġbah agia
ur uhan
Ġm on
Ġmeng al
Ġfak ta
uru f
Ġp abrik
Ġmember sihkan
S M
Ġc aranya
il u
Ġkre atif
Ġprakt is
ĠF r
in f
p s
ep ak
ĠM ah
2 5
y al
ĠP antai
en anya
Ġc ust
int ar
og or
Ġsen s
Ġpet ani
tor e
Ġgr up
amb ang
Ġpenerb angan
t ung
Ġsi gn
ari wisata
Ġditu lis
Ġhal us
Ġperm ukaan
ĠAn gk
ĠB andar
it e
Ġpun cak
Ġba wa
uc ing
gun aan
Ġpas aran
un ga
Ġs is
Ġminim alis
ĠJan uari
Ġrek ening
" ,
or a
b ak
Ġdis ampaikan
Ġketer angan
Ġberl ebihan
Ġpemer iksaan
ĠR ep
on ik
Ġb eda
Ġl epas
Ġper d
ult as
Ġket idak
ap p
t ember
ĠMus lim
w aktu
uas kan
Ġdim anfaatkan
ashi on
Ġn i
Ġpol isi
Ġl ampu
ĠAn gg
Ġmemp elajari
ontr ol
Ġl ebar
, ,
Ġpr estasi
Ġs ib
om e
k adang
ĠE m
Ġmen olak
entu h
Ġt anya
enter ian
b obet
Ġs udut
p r
ang it
Ġkeny amanan
1 8
s et
Ġmenyi apkan
at angan
Ġperm intaan
Ġsep utar
Ġterl ibat
ĠGun ung
end apat
am ilan
o alan
Ġot ot
Ġdiper hatikan
l and
angk aian
en tikan
re am
od oh
Ġf orex
Ġdiper caya
angg up
Ġper ang
Ġpeny edia
ah asan
au di
emb atan
ĠSam sung
Ġp ingg
Ġped uli
n g
ab ar
Ġt uan
Ġtomb ol
Ġpah am
Ġob jek
Ġpromo si
is ahkan
ir ian
t t
ĠNov ember
w ord
ĠP an
U R
uc u
x y
ad o
it men
Ġkon v
ahan an
Ġpem enang
Ġs osok
Ġker en
s ed
Ġh any
S et
ump ulan
Ġpeng usaha
Ġkas ino
ir man
Ġdi dukung
Ġhidup nya
ĠC ity
Ġpel atih
Ġbi cara
ĠL ebih
atu an
Ġl eg
is h
um bu
Ġef isi
Ġbeb an
Ġpengh asilan
Ġc ahaya
Ġterm urah
ad em
Ġker ap
ĠIn formasi
al in
Ġamp uh
Ġpem ahaman
d e
Ġpenc arian
I a
Ġmen ak
Ġmem akan
er ing
Ġk ira
Ġtrans fer
Ġsepenuh nya
Ġlap ak
Ġblog ger
ĠPer s
Ġpeng hargaan
u y
Ġkep em
Ġp inj
P B
Ġt antangan
Ġmen ilai
o f
Ġlem ah
ir ahat
Ġposting an
tim ewa
Ġs har
Ġd oa
M er
ĠH onda
Ġtrans portasi
eja bat
Ġ =
Ġ0 8
v asi
Ġter tinggi
ot an
ĠM ulai
Ġdok umen
Ġc asino
it h
in ga
Ġmemas ang
ĠB ek
Ġr aja
ĠP ap
ĠAp ril
Ġmend erita
Ġkem udahan
Ġv ag
ĠMent eri
uh u
Ġb ulu
Ġdit entukan
ah ter
ĠA C
Ġc el
Ġd estinasi
Ġkeber adaan
Ġmel ah
Ġkesel uruhan
ĠJer man
ĠIn s
ograf i
Ġmelip uti
ĠM i
n e
Ġpemb eli
lind ungan
Ġr eferensi
Ġdis el
Ġmed is
Ġke indahan
Ġket ingg
l ing
ĠRasul ullah
ol at
ĠMed an
j ian
Ġgel ar
tu al
4 5
ĠSumat era
Ġkeb enaran
eng arkan
Ġn et
ĠP es
Ġmew ah
Ġm ay
ob ot
ok ter
any e
ĠK ons
Ġberp eng
ĠD emikian
Ø §
er o
Ġg ar
uh kan
i ar
Ġbat erai
Ġka os
ĠW eb
ĠSem arang
r on
Ġsib uk
ikm at
Ġpl at
ĠSek olah
ĠMem ang
Ġso ftware
ĠAr ab
Ġre al
ĠJ am
p en
ĠS udah
per t
l ain
yar atan
Ġberp engaruh
ah l
K e
Ġperj udian
Ġmem esan
Ġdi jalan
ir inya
ĠK ali
el s
en uhi
ef in
Ġrel atif
Ġt urut
Ġuj ian
ĠN g
t ahun
ell y
1 7
Ġt ulang
D emikian
h asilan
Ġs uku
Ġke g
ap ura
ĠB apak
P r
aw as
ĠB ay
ĠIn st
Ġh orm
Ġpendapat an
Ġmem uaskan
Ġkal imat
l uan
J angan
ĠC l
Ġpeny el
Ġmak na
end ara
Ġ6 0
Ġdipas tikan
Ġang in
Ġper form
Ġ it
Ġpen asaran
ĠSep tember
Ġal iran
Ġper timb
Ġmeng angkat
ĠCh ina
Ġser upa
ĠU U
ĠM ari
ĠM et
Ġb etul
Ġaj ang
hl uk
y angkan
ĠAp likasi
ĠE d
Ġ engk
Ġmel ibatkan
ĠT empat
st em
Ġt ata
Ġmemper siapkan
Ġj aman
si apan
v ari
Ġma af
Ġbeli au
ĠS k
i u
Ġhany alah
1 4
ug ian
Ġdos a
Ġs ore
es ain
Ġp angg
ĠY o
ĠP usat
Ġcer d
Ġs ir
Ġram ai
Ġmend ek
A pa
anc h
Ġh uruf
re en
ĠN us
ã ģ
Ġdis ana
Ġt ep
Ġt engg
Ġstr uk
P I
Ġdih asilkan
Ġk m
enal kan
Ġper ingkat
ow ongan
ja wab
6 0
Ġkes an
Ġkeper luan
T ak
ic u
/ /
uc apkan
Ġmempert ahankan
A D
at au
k ota
Ġpul sa
Ġd ar
Ġber as
Ġmengak ses
Ġb ot
ĠIn f
Ġbab ak
Ġb esi
Ġd e
A r
al ia
m m
ĠPro f
Ap akah
Ġpr insip
Ġpot ongan
ĠMad rid
ĠKed ua
T M
Ġb akar
Ġditer apkan
Ġc ok
9 9
ik ul
unc urkan
Ġmen ahan
up an
Ġmeng erjakan
ak uan
angk al
Ġl ulus
Ġkul iner
ĠS es
j ah
Ġk ucing
Ġs anggup
ĠT a
M as
Ġk il
ĠM ic
Ġi alah
Ġwaj ar
Ġbi ar
O L
anc e
ori al
ur asi
b it
Ġpihak nya
Ġengk au
Ġdik onsumsi
8 0
Ġser u
Ġmenc etak
ĠP C
ham dul
Ġdik el
perti mb
Ġmelah irkan
ĠB ogor
Ġn utrisi
ut aan
Ġk otak
ti c
k es
ek tor
aw i
Ġkeb aikan
Ġkom b
ĠC ar
Ġser ingkali
Ġ @
Ġber ak
l ebih
olog is
o per
ĠSeb uah
ĠPen yakit
af e
Ġmer usak
ap orkan
Ġ ir
Ġt un
r ol
en om
Ġbu atan
Ġket entuan
uj uh
ĠD aftar
, -
Ġse olah
ĠR aja
g in
P R
amb arkan
Ġs at
Ġj abatan
ud d
S i
Ġdik embangkan
Ġ2 7
Ġpen ip
eny um
Ġtr ik
ĠC o
am atkan
Ġpeny imp
ĠY ah
Ġtepat nya
Ġl ho
Ġrah asia
etu lan
Ġpem asaran
Ġg raf
b e
at anya
it ia
Ġber buat
Ġpemb ahasan
ĠPert ama
ut asi
K ep
Ġmen tal
Ġpember ian
Ġc airan
Ġ: )
Ġrat usan
aj at
Ġdim as
Ġmemb el
M ungkin
or eng
ar m
Ġpul uhan
Ġmateri al
Ġdim in
Ġi P
irm asi
Ġr apat
ĠP il
Itu lah
iz i
a a
d r
g ar
S ed
Ġ Â
U L
id ana
Ġkek alahan
Ġmeng uasai
Ġmur id
p ut
ĠL ap
alu asi
ĠS ej
Ġb en
pertimb angkan
Ġter atur
ali kan
Ġmel epas
e ar
wak ilan
T P
aw ar
Ġtel evisi
Ġent ah
Ġmemper c
engk apan
Ġp uasa
ĠB atu
emb uny
Ġm i
Ġmem in
ĠPart ai
Ġk irim
Ġb ed
Ġ ed
Ġs tab
or l
ĠK an
ĠB uk
li en
Ġbar at
Ġl ar
Ġsem buh
re e
Ġgel ap
aj in
Ġba ck
Ġ201 0
Ġpers oalan
Ġm uka
ub ur
ĠAd apun
Ġeks p
Ġak r
Ġengg ak
Ġpr ediksi
og ja
Ġtidak lah
any i
Ġke unggulan
Ġstruk tur
Ġi zin
asan nya
Ġke had
Ġsek ian
K amu
Ġser ver
imak asih
Ġm u
any ol
Ġak urat
ĠD om
ot ik
omend asi
ĠJ asa
ump ul
Ġgo ogle
Ġt a
Ġpro dusen
Ġl omba
Ġm arah
G B
j ur
Ù İ
Ġintern al
ĠTer baik
ĠTer percaya
Ġsign if
Ġpl ay
Ġl un
Ġpro vinsi
Ġmeng ingatkan
u w
Ġmemp roduksi
ĠK ris
Ġdib ilang
Ġp i
Ġper intah
Ġp us
Ġt utup
Ġse wa
Ġc m
: //
Ġt eg
Ġdom ain
ungg al
eluar ga
Ġke wajib
ja ya
Ġper juangan
ĠK erja
Ġ201 1
Ġsl ot
k om
p o
m ar
ĠW anita
ĠG am
am en
Ġberper an
Ġte ori
embali kan
Ġ2 8
amp i
Ġr is
Ġpres iden
Ġpas ir
Ġmen empatkan
Ġkos ong
ĠB arang
r an
y am
Ġmeng ab
Ġperb aikan
Ġs ant
Ġw akil
ĠTer n
Ġmengak ui
Ġp anduan
Ġkr im
Ġcerd as
ĠKam is
Ġdos en
Ġpengel olaan
Ġp okok
ĠR usia
y an
Ġpec inta
Ġmak hluk
aj u
Ġpert anian
l a
Ġpas ang
ad er
Ġhar ta
Ġk aca
Ġs amb
ĠD apat
ĠP ur
ĠPr ia
Ġsignif ikan
Y a
Ġmem ikirkan
s b
Ġcust omer
Ġg as
Ġpinj aman
Ġdig elar
Ġc amp
Ġplas tik
truk tur
Ġ +
is inya
an am
Ġseb er
Ġker ugian
ot ensi
Ġpen umpang
e um
ĠS tr
Ġs aran
Ġribu an
Ġmer awat
Ġr adi
Ġpengg emar
ak aran
Ġab ad
% .
ada i
Ġaktif itas
Ġp ip
ir ah
egas kan
ĠB log
is s
Ġpern yataan
M el
ĠKom isi
im e
Ġmemb unuh
Ġberk el
ĠRe al
Ġper hatikan
ĠTer baru
I K
Ġbay ar
ĠTan pa
id i
ĠM inggu
ili un
Ġdi alami
Ġtubuh nya
unt ung
ek ali
Ġsu am
Ġmem at
Ġket at
ot e
âĢ ĵ
Ġmeng umpulkan
ĠB al
r ang
ĠPer mainan
ĠJ umat
Ġper oleh
Ġul ama
Ġs taf
ĠM ahasiswa
Ġp engan
Ġl o
Ġkec antikan
entu han
ĠK omp
Ġkomb inasi
Ġpers yaratan
Ġmeny embuhkan
Ġpem ikiran
ebr uari
ĠU N
Ġup date
Ġbet tor
ĠR abu
Ġr aya
j en
Ġv ia
ĠP ar
ĠAg ar
Ġdik eluarkan
ĠSen in
hit ungan
Ġper lindungan
Ġdi adakan
Ġh emat
Ġgl obal
Ġp ejabat
Ġinv es
am ai
Ġ et
Ġp ark
ak et
em as
Ġcab ang
ĠJ uga
b el
wit ter
utu h
Ġc ita
Ġkem ajuan
ut ip
Ġsekali pun
w anya
l aim
el is
ĠB o
akt unya
2 4
Ġp intar
ĠP h
Ġt ujuh
Ġk elah
inar y
Ġkar na
il e
Ġj ag
Ġh p
Ġperk ara
Ġbr and
ĠKem enterian
Ġmas akan
Ġeks tr
un tuk
ark oba
Ġt ut
ec h
ĠP S
Ġbers aing
ĠK ur
ĠA ustr
Ġdi aj
ribut or
uk ah
aj ikan
Ð ¸
Ġg itu
ata an
Ġkons ult
Ġkeh amilan
on y
ĠUnit ed
Ġpet unjuk
Ġpenting nya
Ġbutu hkan
- -
2 1
Ġga ji
Ġk i
ill a
ua ca
um umkan
Ġt ravel
Ġg amb
w ang
ti an
ĠI D
Ġp egawai
anj ian
E D
Ġdis ert
Ġmeng ajar
on j
Ġm isi
Ġterj un
Ġt unggu
Ġamb eien
omb ang
Ġbet apa
Ġseb ut
rip si
Ġmenc intai
Ġny eri
Ġper siapan
ĠR ak
ĠK as
Ġp am
ul usan
od i
Ġpeny elengg
ĠS uk
Ġstrateg is
Ġb iru
Ġad ik
Ġmengel ola
ĠJ u
ĠP asal
y ukur
Ġkal inya
ĠTr ans
id at
Ġtim ur
Ġmenc eritakan
Ġst asiun
e am
ad angan
hamdul illah
Ġdiab etes
Ġt ur
ap likasikan
Ġsh alat
Ġ201 9
Ġmengirim kan
om an
ĠSel ama
ĠS istem
ir o
Ġberh arga
m udah
Ġmer k
Ġsen j
Ġc ac
Ġmengin ap
was ta
Ġtip is
ĠT ujuan
Ġorang tua
Ġident itas
ĠS w
Ġjadi kan
m ana
Ġs api
Ġpes ta
Ġs isa
ĠW indows
u asan
2 3
ia omi
ol os
r as
ag ar
Ġterb entuk
ok rasi
Ġpal su
Ġs imak
b um
Ġmem egang
Ġh iburan
Ġkepad anya
ingg ris
em uk
Ġs uhu
Ġt angk
Ġmin at
A P
ant ang
ur ahan
Ġw aktunya
Ġpeng ertian
ay angnya
ĠSel asa
ul er
ad aran
Ġt arik
Ġba c
Ġberpeng alaman
ag n
Ġsur v
on or
ĠPap ua
Ġn iat
Ġp indah
P roduk
ol ar
Ġsel aku
i akan
ĠT entunya
Ġdir asakan
A W
ĠR o
M I
ĠR ed
ĠW ah
ĠK PU
um ahan
Ġberd ua
Ġkerj asama
Ġpen onton
angk ut
Ġm ainkan
ar ahan
anj ung
Ġl ubang
ĠS ub
ĠPas alnya
Ġn ih
Ġ5 00
ĠS ang
Ġl intas
Ġmenj amin
In d
Ġkol om
ĠBek asi
Ġjam inan
Ġmo tivasi
am ah
Ġmengan t
ay sia
Ġ200 9
âĢ Ķ
Ġ2 6
Ġrumah nya
Ġm atang
Ġse si
n egara
Ġpem an
Ġlap isan
ak up
em ent
ent rasi
Ġs m
Ġas et
Ġk unjungi
ĠAp p
Ġf ot
ar ak
ĠM ul
Ġm alu
ĠN ur
t an
Ġt utur
Ġkel apa
ak e
Set iap
Ġ urut
Ġdisert ai
ĠW alaupun
Ġk awan
ara f
ĠIl mu
ec k
eh er
Ġh tt
al as
Ġide al
ew ek
imp ulan
Ġp apan
Ġ inggris
Ġters enyum
ĠMas yarakat
Ġb encana
Ġantar anya
al o
Ġm adu
el ek
Ġpen awaran
ĠSab tu
ti p
s on
Ġpertimb angan
Ġs inar
Ġk atakan
ĠK a
âĢ¦ .
Ġkek er
ĠA bu
Ġp is
Ġkewajib an
Ġmengg anti
Ġl angit
Ġdin y
at angkan
K P
Ġke tua
Ġger eja
ĠN ama
enc anakan
Ġbat ik
ri g
angk utan
ĠAk hirnya
H arga
f r
ind ar
Ġmo tif
ĠH y
Ġpem akaian
itu al
Ġr oda
Ġ8 0
Ġsenj ata
Ġw ah
ĠB e
Ġketer ampilan
p ot
Ġund angan
Ġber edar
Ġn ov
Ġditu tup
Ñ Ĥ
Ġber vari
angg ar
ĠS eg
Ġkor upsi
ĠSp anyol
ĠB et
Ġmember it
ĠInd ia
Ġdis esuaikan
ug ikan
Ġplat form
Ġev ent
Ġdij elaskan
Ġungg ul
Ġk lien
Ġgol ongan
te in
Ù Ħ
ĠK ol
d apat
Ġdin ilai
Ġme yak
Ġk ala
ut ang
Ġtr iliun
Ġres pon
ĠB esar
emat ika
ĠIntern et
ĠSel anjutnya
ĠA ri
Ġk ac
Ġmeny esuaikan
Ġso si
Ġmen egaskan
ĠP a
ĠBl ack
Ġken aikan
O bat
Ġper lahan
Ġf ashion
s al
ul ah
mas alah
hat s
Ġmen yak
ilai an
Ġdik unjungi
ĠH am
Ġber ukuran
Ġl etak
as iswa
ĠS eri
Ġp antas
ĠD e
ad han
er al
ĠB aik
el akaan
Ġmenang is
ĠR ah
Ġb apak
ĠD ik
k ita
b arang
Ġart is
2 2
Ġseti a
Ġc uaca
n u
Ġis u
Ġmem andang
Ġop si
ĠJ aya
Ġkar enanya
er gi
ĠFak ultas
t en
O l
Ġses ama
ala xy
elah an
Ġperform a
Ġn ak
ti tusi
enc e
ĠI tal
udaya an
ga g
Ġkon eksi
ir ik
Ġs antai
ĠI k
Ġke tur
Ġpenyimp anan
Ġpro p
ĠTern yata
ï¿½ ï¿½
ĠP o
ac u
s ihan
Ġjelas nya
C A
omb ok
Ġter daftar
Ġr enang
od y
c aman
z i
ĠR aya
Ġmenggunakan nya
ro up
Ġbersama an
ĠG uru
ĠL em
Ġsampai kan
Ġb atang
Ġmend engarkan
Ġh a
Ġl atar
ĠS ar
Ġpat ut
id an
Ġg izi
yak inan
Ġvag ina
t anya
inj al
I T
Ġin terior
Ġkons isten
Ġgad get
p roduk
Ġber min
Ġ *
ĠL i
o ut
sed ur
Ġuj i
od o
Ġkec ewa
Ġb uang
ĠAl l
up uk
os e
Ġm or
Ġterd ekat
ow o
ek ar
ĠS ampai
ĠRep ublik
P ara
ĠH ukum
ant au
Ġdim inta
en i
Ġterb ilang
Ġkelah iran
Ġelektr onik
isk in
Ġterd engar
ĠF ebruari
Ġpenip uan
S D
aja an
Ġkamp ung
. ,
Ġserv ice
at im
Ġseber apa
Ġse tu
encana an
ĠTekn ik
Ġmeng alahkan
b esar
ĠSeb agian
ah atan
Ġdis er
Ġf acebook
Ġmemas ukkan
Ġmeny ebar
ĠT as
lihat kan
Ġsek alian
ĠU p
Ġf lash
Ġl ambat
Ġmenghad irkan
ĠK or
ĠD ata
ĠP EN
elengg arakan
ulau an
os s
et akan
ĠSeb enarnya
4 0
inc i
Ġmom en
ant aran
aw esi
Ġkel ihatan
Ġse iring
angk u
ĠTer ima
tr ans
Ġd u
end ela
Ġsej auh
ĠB isnis
Ġkehad iran
Ġkamp anye
Ġdid uga
Ġberj uang
Ġak al
Ġbi ji
Ġk adar
5 00
Ġsa bar
Ġj utaan
Ġmeng er
Ġtek nis
ĠIn ilah
Ġmengen akan
anti asa
Ġberj udul
Ġk ag
Ġd at
Ġ ikuti
ĠD imana
Ġkol eksi
ah abat
anch ester
Ġanalis is
es a
ĠS at
P as
Ġj urusan
emp a
Ġmen etapkan
ĠB BM
Ġpro perti
Ġterp ilih
s us
em buhan
Ġbro w
aj ian
Ġ9 0
ĠH er
on er
ĠK ata
Ġb au
ah nya
Ġdid ik
Ġform at
Ġked alam
Ġterp enting
ang erang
Ġdidalam nya
Sem ua
Ġh obi
Ġg w
im antan
ĠT inggi
s c
ĠSel amat
um e
ap t
Ġbot ol
Ġd eb
s ul
es ta
Ġpul uh
Ġput ri
ĠPl ay
Ġpen eliti
ĠSu per
ĠItal ia
Ġkun ing
Ġan j
Ġbert aruh
Ġis timewa
anc urkan
Ġmemas ak
Ġmak e
Ġrek omendasi
ir anya
Ġar us
ĠS W
ok s
ĠK u
ĠT oko
Ġterj amin
Ġin ovasi
Ġak adem
Ġters angka
Ġl eher
resi asi
Ġf it
eka an
Ġmas sa
ĠM aj
Ġr asakan
Ġj embatan
Ġp impinan
Ġterg olong
ig ht
imb ol
Ġsen antiasa
Ġmengaj ukan
amb ahan
ut ihan
unj ukkan
Ġsel atan
Ġmem ori
Ġkh asiat
ez at
Ġpel ajar
Ġkeku asaan
. [
ĠMal aysia
Ġters ebar
anj ar
Ġoptim al
Ġr i
Ġmen engah
ĠD I
ĠItu lah
Ġterb ang
l emen
ĠAustr alia
ĠP et
Ġdic ari
Ġm andiri
al og
Ġ19 7
Ġmenc akup
Ġt and
ĠI T
is ikan
Ġr api
Ġper hitungan
ĠB as
Ġjam ur
Ġsu ci
ĠT aman
Ġdisk usi
cel ona
ĠF or
Ġdid irikan
ĠW id
l akukan
Ġdir ilis
er ahan
Ġv arian
on f
ĠB ag
m eng
Ġteb al
ĠM otor
ah agia
t idak
Ġdi ar
ĠB and
ĠK ab
Ġis tr
Ġs aksi
Ġan t
n ing
it anya
Ġter jaga
Ġsepak bola
anti an
Ġmeny ambut
s tr
urn al
y i
Ġmemer iksa
D is
Ġs entuhan
Ġkes adaran
ul ir
Ġka yak
ukses an
U D
y pe
Ġcamp uran
Ġberk urang
Ol eh
Ð ½
Ġdis elenggarakan
Ġp ariwisata
Ġmen angani
if t
om od
U H
al angan
e ed
Ġlun ak
Ġib unya
v en
Ġkeluar ganya
ig h
ĠP L
ĠT ur
Ġ7 0
im aan
ĠM ana
Ġdil anjutkan
ĠG ame
Ġefisi en
Ġkec elakaan
ĠD en
anj ikan
and u
Ġ ep
ĠInst agram
Ġg injal
Ġdis arankan
Ġdi atur
ump ai
Ġpemb icara
ĠW isata
Ġmem impin
Ġke y
Ġberc erita
Ġl idah
Ġmil iter
Ġat ap
Ġmeny arankan
ĠAl i
Ġ om
j ar
Ġkeber hasilan
Ġan caman
Ġstab il
Ġpes anan
K ed
Ġinves tor
ĠSE O
Ġmeng ucapkan
Ġdr ama
Y A
ĠIs ra
Ġj ep
amp aknya
h y
P NS
ord inasi
Ġbers angkutan
Ġkab el
ro ses
ub ungkan
Ġberk at
Ġkari r
Ġmenya jikan
Ġ19 8
Ġsay uran
ĠF l
ĠKen apa
Mesk ipun
ĠMeng apa
Ġsem ata
s o
Ġsh olat
Ġsen y
Ġat let
Ġgamb aran
ĠJ enis
Ġpeng en
Ġpemas angan
Ġ2 9
s en
ĠM anchester
ĠE r
Ġsetu ju
i asa
Ġw alau
as ir
K es
Kem udian
Â Ń
Ġperg uruan
mi ah
ĠiP hone
Ġp ub
w alnya
anc ing
Ġl ucu
Ġmen ular
Ġmengal ir
el ompok
k ada
ĠSul awesi
Ġs ing
Ġv isi
m ail
Ġ ajaran
ĠSing apura
B agaimana
ĠT ok
Ġdis ajikan
Ġsin yal
ol es
Ġs op
ass ar
at ap
ĠJ o
es if
et ap
b ahan
Ġtel inga
enom ena
ĠB u
Ġt ol
Ġput ra
Ġb angga
p an
Ġtut orial
ĠW aktu
y anya
ĠG alaxy
ĠS eorang
Ġb asah
M aka
ĠAg ung
Ġketur unan
Ñ Ģ
il as
Ġsiap apun
. (
ak tif
o uc
angan an
ĠKe uangan
Ġmer es
ĠJ ogja
op y
Ġbers yukur
ĠG B
Ġju jur
om m
Ġtop ik
Ġmemper mudah
eg r
P el
Ġberd ampak
am aha
Ġmen el
ay at
Ġpangg ilan
ĠX iaomi
Ġmus uh
t empat
Ġm itra
Ġbert indak
Ġb engk
ans ir
Ġr u
ud ukan
Ġper ek
antu m
Ġs asaran
orl d
Ġl elah
Ġcel ana
g ian
Ġm iskin
Ġmew ujudkan
Ġl ezat
Ġsel era
Ġsip ilis
Ġkom itmen
Ġp eg
Ġmem aks
edia an
O B
Ġp andang
Ġberh ati
elih ara
Ġv ol
ikat or
ĠPro ses
Ġmenyak sikan
ek i
ad is
C OM
Ġmeng onsumsi
ĠT aruhan
Ġb o
Ġungk ap
Ġk andang
eri fikasi
ĠM P
id er
ad ari
Ġsar apan
ĠL akukan
ĠAr tinya
ĠK egiatan
Ġ â
ad ik
N E
y m
Mesk i
Ġpro tein
ĠS angat
Ġayah nya
Ġpeng aturan
Ġb eg
Ġsy stem
Ġpendek atan
ĠS ip
ĠT u
is ar
bat asan
Ġdiny atakan
ĠR S
ĠRi au
Ġn ampak
ban kan
anc ur
ta wa
k ali
Ġkonv ensi
ĠS ya
atur e
oy ota
O P
Ġtr end
ek tif
ĠS ejak
Ġkej ahatan
uj ian
Ġmemb edakan
Ġtamp aknya
ĠSM S
ĠB ant
ĠD ua
Ġv is
Ġimp ian
U T
ay angan
Ġke w
ut o
Ġmeny es
Ġ200 8
anda inya
Ġdit ampilkan
Ġy ah
Ġg anti
s is
Ġlel aki
Sed angkan
ind ahkan
en ek
Ġpro sedur
ic h
ĠU M
Ġ3 5
Ġw ww
Ġc erah
Ġmemb iarkan
itu re
l er
Ġf in
Ġdiper t
ĠM urah
Ġper ingatan
ĠP asar
Ġset ahun
Mer eka
Ġpeng in
ba ca
Ġun iversitas
ag ukan
ik e
Ġsuam inya
Ġpark ir
Ġr angkaian
Ġf urn
ĠA SI
Ġpas al
Ġberd oa
Ġtertu tup
Ġmembagi kan
ĠP D
ĠB itcoin
Ġk is
l asi
Ġnov el
Ġ3 2
Ġker ajaan
ed era
Ġad at
Ġdijalan kan
Ġm ohon
Ġsem inggu
ir aan
Ġf inal
ak angan
Ġmenj elang
iter ia
ĠSem akin
et ail
ĠD em
ĠSM K
Ġkec amatan
Ġs wasta
ĠKal imantan
Ġkeber sihan
ĠTan ah
ĠPem ilihan
M A
ger akan
Ġber in
Ġberkom unikasi
os k
Ġdic iptakan
ĠT engg
angk atan
alik ota
Ġmen untut
I V
ĠAh mad
ĠP at
ĠI st
Ġdik erjakan
Ġberh ak
ĠS up
Ġ ongk
Ġn ikmat
Ġpad at
ĠKh usus
b et
m acam
end am
ind u
Ġh ubungi
ic arakan
ob alah
Sebelum nya
Ġpro t
Ġdiba yar
Ġbah aya
Ġp e
ĠB agian
p eng
Ġdis ukai
ĠL ombok
ĠD ewan
Ġdip enuhi
Ġkak ak
âĢĻ .
Ġbro ker
aw ali
Ġtum buhan
Ġsed ih
Ġ Ø
rip sikan
Ġlayak nya
ĠI S
Ġj endela
Ġdik enakan
Ġel emen
ur uk
ĠK i
wa y
ĠK antor
ati onal
ar y
Ġkita b
Ġpen ilaian
Ġn arkoba
am bu
ĠB uat
eb asan
Ġmemb ah
ĠII I
Ġ ori
Ġt aj
B ila
ust akaan
Ġt unggal
Ġt arif
olis ian
p em
Ġm ekan
Ġal bum
ungg ung
ec il
aw anan
ĠJ oh
Ġk ian
Ġh atinya
Ġkel uhan
Ġhar ap
Ñ ģ
Ġc ar
Ġ emp
Ġsup port
ĠR AM
Ġkon d
l inya
Ġc ewek
Seb enarnya
in s
ah ap
Ġterp isah
Ġdib eli
ej ahter
l es
Ġtangan nya
Ġkeb etulan
r ut
ĠS olo
Ġan us
Ġpemb uluh
Ġdengan nya
Ġterk esan
b ing
em e
Ġdir ancang
ig n
daft arkan
Ġmen angkap
Ġtr en
Ġdip roduksi
eb arkan
wan cara
Ġmem ec
Ġsej enis
Ġdel apan
ar get
Ġstr es
j ub
Ġsel eksi
ĠBar celona
or y
Ġdiak ses
Ġberm acam
Ġb inary
Ġd ong
Ġdi v
Ġakr ab
Ġuc apan
Ġpes at
Ġdi f
ĠPol res
ĠSW T
Ġmas k
tif ikat
iden tifikasi
Ġc r
Ġl aman
am ina
Ġl oh
O K
j am
Ġmengh itung
esk ripsikan
ent eng
ahl ian
ender al
Ġkes uksesan
Ġman ual
ongk ok
Ġg ug
bo ard
ur ian
Ġkep uasan
end alikan
Ġpad anya
l ar
Sek arang
Ġr okok
Ġtertu lis
ĠKr isten
Ġm ari
ĠDom ino
Ġke yakinan
ĠD it
Ġhand phone
v an
Ġmembu ang
erj asama
Ġb ook
Ġterc atat
Ġkonf lik
ĠMas ih
ew atkan
ĠT angerang
ĠC ina
ĠAb dul
Ġel egan
2 8
E K
Ġmengh apus
Ġbin atang
Ġl olos
Ġspesi al
Ġmemb andingkan
Ġhari an
ĠAn g
Ġadmin istrasi
ba wa
Ġbah as
ĠJ elly
Ġmal as
Ġkesel amatan
Ġmembel inya
or gan
Ġut amanya
Ġmem pertimbangkan
ĠP ang
ikul um
ĠK ini
Ġ15 0
Ġis lam
Ġan eka
O rang
Ġmer ugikan
ĠBer dasarkan
ĠS B
ĠS l
Ġs ak
unj ukan
ĠG ol
Ġ !
Ġj ah
Ġbervari asi
ĠPer k
ĠIsra el
ã ĥ
Ġmenc er
l ak
em ari
L alu
as ang
K eb
Ġpas s
om eter
Ġ3 1
S udah
ĠS a
Ġkek ayaan
Ġmeny entuh
Ġkonvensi onal
Ġmem anggil
S es
Ġber untung
um uman
Ġsaat nya
Ġr agam
al lah
Ġhorm on
ĠP R
Ġk ant
Ġc edera
Ġoff line
l on
ĠW i
Ġjumlah nya
Ġpen utup
Ġus ai
Ġmen anyakan
Ġm ut
ĠMem buat
ĠG amat
A s
ĠKris tus
ĠS urat
Ġmeng ar
Ġp u
i am
Ġdiperk irakan
ĠL ampung
ĠS T
ĠA z
Ġter api
Ġst at
Ġin tim
Ġken yataan
ĠMak assar
ĠT anjung
ak ili
ĠB aca
Ġkenc ing
anjut an
o ft
Ġm ag
v estasi
ĠSil ahkan
Ġk up
Ġmengan d
Ġj as
h asil
st al
ĠPer aturan
s an
anj akan
Ġmengg ambarkan
Ġut ara
ro w
Ġg emb
Ġil miah
h awat
ĠH o
Ġp utus
Ġdit empat
2 7
Ġl iga
etak kan
ut h
ohon an
Ġpem buat
Ġmen emb
ĠK PK
Ġ4 5
Ġke empat
untut an
Ġs bobet
ĠC ap
ak er
Ġc l
Ġdip ahami
ens e
ew s
ow ok
Ġs uk
utu be
Ġkotor an
eg ahan
Ġmuncul nya
v a
Ġmengaj arkan
Se cara
Ġrah im
Ġber ga
amb atan
Ġl antaran
p res
Ġdit andai
ĠS c
Ġhal al
Ġs ia
Ġdil uar
a ingan
Sel anjutnya
Ġb osan
est inya
Ġpeng emb
l ok
Ġklas ik
imb ing
Ġt urn
s aya
Ġc ur
Ġkend ala
A I
Ġpen anganan
Ġt ag
ĠSep atu
Ġkar b
Ġd ada
Ġw adah
ĠSi apa
Ġkompl eks
Ġpr emi
Ġsalah nya
eku ensi
on c
Ġmenyel amatkan
Ġkeker asan
Ġterb iasa
Sem oga
Q ur
Ġg imana
ain an
Ġpenc ari
Ġmerek omendasikan
ĠG ar
Ġmend atangkan
ik ro
Ġdiak ui
ĠGam es
Ġl iter
imal kan
ĠContoh nya
Ġterb ar
Ġdis ek
C O
ĠH ak
ĠM andiri
Ġdin as
ak tor
p ol
Ġsp ort
ĠH an
ĠPen elitian
es tiv
ĠMakan an
Ġ edit
Ġsy ari
ĠUs aha
ant ap
Ġp ungk
Ġbaw ang
Ġmeny imp
i q
Ġmobil e
Ġdep annya
ret aris
Ġp unggung
Ġpers aingan
ĠF itur
Ġsed iakan
Ġband ara
y akan
J akarta
z ah
Ġmemperc epat
af s
Ġshar e
Ġmener us
ĠK at
Ġin spirasi
os o
Ġper ih
Ġkontr ol
atur al
U K
Ġmem icu
Ġg udang
Ġb aku
Ġmemper lihatkan
ĠS tudi
Ġmeng am
Ġl antas
Ġmeny usun
ek atan
ĠP adang
Ġmer ubah
b y
ĠJ umlah
Ġvari asi
Ġbe asiswa
Ġd uga
els ea
lah raga
Ġk g
Ġprakt ek
ĠMen y
ĠH ingga
om inasi
ĠR oh
Ġdimin ati
alis me
ingkat kan
Ġp idana
ep si
estiv al
Ap abila
ĠUn dang
Ġmengh entikan
Ġmendek ati
Ġdiba ca
Ġd engar
Ð¾ Ð
Ġr oh
ĠMakan ya
j ukan
Ġfor um
ut nya
ant ren
s eb
Ġper wakilan
t el
6 5
I P
Ġmen olong
Ġk ud
Ġdit emp
Ġtah apan
n anya
Ġhi jab
Ġdib entuk
Ġd olar
Ġmenghar apkan
iwa yat
h iri
w ujud
Ġris et
ĠB ur
ah am
p et
ĠC ari
2 9
Ġper encanaan
Ġv al
Ġg oreng
Ġpas ukan
ĠP B
ic a
ĠF ilm
Ġist irahat
e et
ĠP enc
j ir
Ġwar ung
tern al
Ġmenghar gai
Ġt ump
Ġber operasi
L ebih
li g
Ġgar am
Ġn onton
Ġberg antung
p ool
ĠM aha
ilik inya
ĠMas alah
Ġj ahat
n ilai
Ġp ant
Ġtrad er
Ber dasarkan
Ġhukum an
Ġmew akili
k ira
Ġad il
Ġtind ak
is al
Ġ usus
ĠB ah
Ġn ah
Ġmemper kuat
Ġp angan
ĠK ut
Ġg e
ĠDir ektur
Ġal um
Ġke ahlian
id o
Ġcem e
Ġmelihat nya
Ġdihad iri
ri c
Ġt on
ĠT oyota
3 3
Ġc hat
ĠApp le
u x
ĠðŁ ĺ
Ġdir ek
E G
Ġmas ukan
Ġse waktu
Ġsp ir
ĠPol ri
Ġ3 00
ĠPer lu
Ġmeng undang
Ġhar d
Ġp lan
im er
Ġtet angga
en an
ĠBer bagai
Ġcontoh nya
ac un
Ġun tung
ĠMes in
Ġc or
Ġbesar nya
i es
Ġbi jak
Ġg empa
Ġ audi
201 7
Ġl ab
g ing
s ih
Ġr om
angs ing
l angkah
Ġm aya
Ġmel atih
ĠK eh
erd ekaan
Ġpenj ara
U I
Ġput aran
m em
ĠK o
ĠTengg ara
Ġb ut
ĠRam adhan
Ġmel ebih
Ġpelangg aran
ai b
osi asi
Ġhtt p
Ġbagi kan
h u
enj olan
ĠS us
Ġk us
Ġse akan
Mem ang
Ġdi angkat
Ġses udah
ĠG e
ĠS ri
ĠB uku
Ġc etak
O T
Ġkarakter istik
ĠO S
Ġl ari
ĠG l
2 6
bit kan
as k
Ġmengand alkan
ĠU ang
aw ah
amb angan
Ġber ulang
m adi
Ġkem asan
Ġv s
Ġpen si
Ġk emb
uj ung
r ik
Ġmay oritas
ĠPas tikan
ĠY amaha
Ġmur ni
ih i
Ġmeng embalikan
f oto
ĠC PNS
aks asa
Ġpac ar
Ġsep uluh
Ġpan itia
Ġre aksi
Ġi ya
art o
Ġlip at
Ġl ive
w asan
Ġmend irikan
ĠE f
ĠIm am
Ġkam bing
ab ah
i o
Ġmengh emat
omod asi
Ġrep utasi
Ġt awaran
Ġr ec
is e
ĠM emb
ĠAngg ota
Ġp h
gag alan
Ġpengel uaran
Ġinst an
ĠM udah
H ari
Ġdid eskripsikan
Ġr ed
ak wa
ĠAr t
ĠC ukup
oleh kan
Ġkem ana
ĠI N
Ġek or
k as
ungk ap
Ġh aji
ĠM edia
er at
Ġmeng u
ĠB anjar
Ġurut an
Ġpem in
eb alan
Ġmeng ul
ĠK emen
ĠC or
ã Ĥ
as y
Ġj an
etul nya
Ġus er
ĠMana j
alis is
Ġhad its
Ġd ri
Ġb umbu
Ġmel aporkan
Ġ Ù
Ġdic apai
em ani
Ġsur ga
T V
Ġsk ala
epak atan
Ġpri oritas
Ġcok lat
Ġmengh ancurkan
Ġm utu
Ġoper ator
etu r
Ġmel engkapi
ad ak
ĠM ag
tusi as
omo sikan
el at
d alam
Ġsay ur
ĠB unga
Ġf ull
Ġmenunj ukan
Ġar sit
Ġkons entrasi
Ġdik utip
ĠP ay
Ġdi isi
Ġkel emahan
ĠDes ain
Ġl ulusan
Ġpeng olahan
Ġmanaj er
un kan
Ġt ingg
i et
omb ongan
Ġt enda
Ġmenunj ang
Ġro ti
udd in
Ġtahun an
amp au
ĠM u
Ġdib ahas
Ġkel ak
d y
Ġh osting
Ġkep utihan
Ġs imbol
J S
Ġinst ansi
ya wa
Ġkr iteria
p es
emp ro
ban yak
S u
alu an
ĠS tore
ĠS ayangnya
efin isi
Ġpak e
ja an
Ġp ower
Ġber alih
A C
ov e
Ġpener imaan
ĠB en
ĠD ian
Ġnaf su
ala ikat
ĠKar tu
Ġbertu gas
ejahter aan
Ġdip impin
ĠPl us
si an
Ġterl epas
Ġc uci
3 5
Ġpengin apan
ĠS umber
ond ok
A h
i um
ĠU k
Ġistr inya
Sel ama
Ġperl engkapan
ĠB elum
et apan
ĠCh elsea
Ġp ort
ĠB ahan
Ġmenc atat
v entu
Ġmengej ar
ind o
B ahkan
ĠP NS
Ġr en
Ġpeng urus
Ġpers on
ĠM on
w at
Ġbus ana
Ġkepem impinan
Ġdi ingat
Seb uah
Ġser agam
Ġf ase
unt ansi
kita b
Ġkas ar
Ġpers is
ab le
K B
h usus
ĠB any
as tra
Ġber umur
Ġmemperk enalkan
k arena
ester ol
Ġb andingkan
Ġban jir
ĠA yah
ejak ulasi
ĠB us
ul unya
Ġditu jukan
Ġmel anggar
ĠT I
Ġrum it
Ġob yek
Ġdit inggal
Ġdit anya
Ġ iman
ĠJ oko
Ġpengemb alian
Ġmem adai
Ġtaj am
Ġap artemen
Ġ ..
Ġdes k
Ġ200 7
imb ah
Ġb end
ros oft
Ġin ti
ĠB lu
Ġr ef
ribadi an
Ġperj anjian
Ġmenemp el
ĠB umi
Ġper umahan
Ġdipas ang
Ġ olah
ĠBat am
ĠV al
Ġmul ia
Ġor der
Ġtempat nya
Ġham ba
P M
ĠMan usia
IN G
eb us
ĠR os
Ġsek adar
Ġdip r
Ġdikel ola
Ġmor al
ur o
AR TA
Ġf enomena
Ġder ajat
Ġkeb un
Ġin form
us ikan
ro h
S atu
Ġoper asional
Ġc omp
eg o
Ġser at
Ġmen aik
erja an
Ġas linya
Ġterh indar
ahagia an
timb ang
Ġdin am
Ġklas emen
ew i
Ġsil akan
Ġkac ang
Ġr upa
ĠS an
onom ian
m ur
ĠIntern asional
ell a
em angat
es si
Ġuc ap
ĠTekn ologi
Ġer at
Ġmelebih i
Ġlain ya
t in
Ġber encana
ĠC ont
Ġmen emui
Ġrut e
Ġdir umah
Ġform al
Ġterp aksa
Ġmod e
bu ang
Ġbert ahun
Ġterh ubung
Ġmen and
Ġke ju
Ġseb utan
Ġmeng und
ĠSebelum nya
ir us
Ġked atangan
ĠPert anyaan
ĠJ enderal
im alis
Ġb akat
kan dung
esu ai
Ġpeng ec
Ġre z
amping i
ĠAl at
ouc her
at in
Ġpem ilih
ik i
Ġbers ikap
ĠP or
ib er
Ġtuk ang
ta wan
Ġseb entar
Ġnasi b
Ġm m
Ġkompet ensi
Ġ ejakulasi
iver pool
esif ik
adi um
ĠN as
Ġkons truksi
Ġper gerakan
Ġb oc
Ġ2 000
ol ok
Ġl iar
eh ehe
et eksi
Ġmenj auh
jub kan
ĠF il
Ġterg anggu
ĠP ri
ĠB ab
ern aan
ĠKon disi
Ġw ith
Ġg ur
Ġt ali
Ġl urus
7 7
Ġup acara
c am
Ġak ar
ĠH D
Ġr ajin
Ġv ital
ver si
it o
Ġmenyer ahkan
ori um
is ir
Ġn enek
ail and
n ey
Ġs im
Ġmeng umumkan
ĠP ark
Ġr ela
! âĢĿ
Ġj anji
ĠB UM
Ġproduk tif
Ġku ota
eal er
1 00
Ġr ent
imb angan
Ġn er
Ġand alan
Ġm ac
Ġmelepas kan
yata annya
Ġfurn iture
s y
or g
ud ik
s ungguh
Ġke gagalan
at atan
ĠB ak
Ġberp endapat
at ik
t em
ĠRak yat
apai an
on an
Ġterbar unya
Ġm ula
Ġt awarkan
ĠBant en
Ġt ra
Ġber i
uk is
Ġg an
ĠO b
Ġmat anya
Ġmarket ing
Ġek onom
us inya
Ġc ream
T etapi
Ġlog o
Ġdim ensi
Ġsi apkan
ĠKep ulauan
ari a
Ġgr am
Ġmeng eks
ingk ungan
Ġkes impulan
Ġdi sip
ĠCh ampi
Ġmen daftarkan
Ġmenja bat
oy al
Ġr aksasa
Ġram uan
y e
Ġkek asih
ĠT ab
Ġan tusias
D A
ĠKap ol
Ġmenj anjikan
ĠPal embang
if i
Ġrep ot
Ġhad apan
Ġt at
Ġku da
Ġber olahraga
Ġdit emui
Ġter tawa
B ukan
ind er
Ġsen sit
ĠNus antara
uan sa
erd asan
Ġt untutan
Ġterk ej
Ġn ot
emp urn
Ġsem inar
Ġo ver
it r
Ġketingg alan
ult an
Ġs am
al apak
Ġp anggung
angs ang
Ġg elas
us uf
ĠPur w
r im
ĠAg ama
ĠAk ibat
ĠEn tah
es aran
ĠT ips
Ġdi ajak
ĠY un
Ġ ala
ungk us
Ad apun
ew akan
Ġwa wasan
ĠPr ab
ĠS ama
en e
r ak
Ġt unt
ĠK l
omo tif
aman kan
Ġbentuk nya
Ġjer uk
Ġl ibur
ĠS akit
edit asi
ar ch
Ġmenulis kan
Ġkant ong
ĠWar na
Ġdisip lin
j ana
Ġ end
Ġn anah
Ġg ua
? "
ĠS K
Ġas upan
Ġal ergi
ĠC inta
Ġungk apnya
5 5
ap er
Ġmenak jubkan
Ġmeny erah
Ġmanfaat nya
h h
aj ang
ack pot
ĠU d
z uki
T entunya
Ġpemb entukan
Ġit em
Ġh ead
amb i
c ita
Ġkons er
Ġk ena
el e
Ġpenc ernaan
al k
T E
etu j
Ġpass word
Ġwar tawan
Ġind ikator
Ġkeber untungan
Ġpo int
Ġbib it
Ġmas ker
ĠK ej
Ġgraf is
ĠðŁ Ļ
Ġl owongan
A SI
ĠB iaya
ati v
ĠMas jid
ĠN T
ĠP anc
U AN
Ġkes epakatan
Ġsp esifik
ĠB angun
Ġgel ombang
ĠH a
enc an
Ġdil arang
Ġbek erjasama
Ġse ter
Ġb angkit
AK ARTA
e an
Ġkeb akaran
ĠSp esifikasi
Ġs w
Ġb itcoin
Ġl engan
ĠE s
Ġs per
ib ah
Ġ eng
Ġtab el
Ġmen yakit
Ġis inya
ĠDep ok
Ġbel akangan
Ġpem ilu
7 0
Ġj ajaran
Ġdi us
ĠA cara
ung sinya
Ġmenc uri
ĠSt asiun
ik kan
k o
ĠSer v
al ap
ras truktur
Ġg ubernur
ont ok
Ġk lin
ĠO lahraga
Ġc owok
Ġh at
Ġdist ributor
T S
ĠW hats
inf eksi
ĠGer eja
B erb
S ejak
Ġmenyus ui
Ġmengur us
Ġke timbang
ni at
Ġvol ume
Ġ u
Ġr iwayat
Ġdir imu
Ġdi ra
Ġker ana
Ġdis impan
ĠPak et
Ġev aluasi
Ġmenutup i
ĠA yam
ĠB eli
Ġkeb udayaan
Ġer eksi
ĠTer lebih
Ġin duk
Ġ3 6
ĠPr ancis
Ġpeng u
ĠI P
Ġberl ibur
Ġmat ematika
Ġbi arkan
Ġmemb esar
Ġberl ari
Ġseny um
ĠKar ya
ĠMod el
Ġpert ahanan
Ġpenulis an
Ġberk ons
le y
Ġagen da
Ġpeng awasan
ub uk
Ġn an
Ġkeb ahagiaan
Ġkenc ang
Ġturn amen
Ġv oucher
im asi
G A
t anda
ent angan
Ġbet ting
in aan
Ġtu anya
ĠL ayanan
d ing
I L
n am
Ġy uk
ĠTi ongkok
Ġf ans
Ġdig anti
Ġduga an
Ġso fa
ĠD ar
el ajah
ag en
Ġberf ikir
Ġj ati
Ġtahun nya
s il
Ġset ara
onj ol
Ġla ba
ĠAd min
Ġmend alam
Ġwa wancara
Ġberp otensi
Ġsen yawa
Ġtab let
Ġber es
fa atan
Ġsk ill
b ungan
az ada
Ġmemat ikan
ĠâĢ Ķ
Ġkont eks
Ġsab un
ati ve
n ai
Ked ua
Ġm ic
Ġkes ejahteraan
ĠL iverpool
ar ung
ĠA M
ĠIn ter
Ġs ik
Ġpet a
um as
Ġpensi un
Ġpis ang
P eny
ar as
m etik
Ġketingg ian
Ġmin eral
Ġdij amin
madi yah
S eorang
Ġtent ara
Ġbel as
ĠMa x
ant is
Ġsens asi
Ġket emu
ĠS ak
Ġb ad
Ġberk as
Ġg anda
Ġdit angani
Ġmengk laim
Ġser ba
Ġkem an
Ġprof it
Ġbermin at
ĠS AW
Ġc ak
it am
Ġsem ester
Ġmembah ayakan
Ġwajah nya
ĠJ l
Ġdip engaruhi
Ġh un
Ġbud get
k y
Ġrel ev
Ġmer okok
embuny i
Ġkun o
Ġd ef
Ġh el
Ġlog in
Ġlem ari
ord in
ia an
ec uali
apt asi
iaya an
Ġl ambung
ba ck
Ġres olusi
Ġb uj
q ue
lis h
Ġdihad api
Ġpengg anti
ĠDapat kan
Ġdit ambahkan
K egiatan
Ġtun ai
Ġl ine
Ġl aku
Ġb uruh
si on
Ġmengg elar
ro ke
ĠMel alui
Ġbag inya
ĠS H
ĠTh ailand
Ġar oma
enc i
Ġberk umpul
en ak
Ind onesia
ag ama
re asi
ba yar
aw ang
Ġkur ir
Ġbuk it
Ġradi o
S eh
Ġprakt ik
Ġpeny embuhan
Ġpl us
y le
ir e
Ġber enang
ĠChampi ons
aran nya
ĠW orld
Ġplay er
ĠJ ual
ol der
g u
Ġtern ama
Ġsayang nya
or okan
B C
um pa
Ġsend irian
ti b
ad z
Ġmenc uci
id aya
Ġh er
ĠP ul
Ġdit empatkan
Ġres p
es in
sit y
Ġte am
K u
Ġm ini
Ġsatu an
ag er
T r
ĠJep ara
Ġkep ribadian
and er
eng er
Ġdin ikmati
Ġdan au
Ġz ona
Ġberl alu
Ġl ong
Ġterkej ut
Ġtem en
Ġker am
ob rol
ol e
ensi f
Ġkal ori
ĠP us
s em
eng ahan
S o
Ġbook ing
up un
Ġdem okrasi
e ur
ĠAr s
Ġ19 6
ĠI d
amb ilan
Ġmengg antikan
es er
ama ah
ĠRe ad
j ect
Ġber niat
Ġger ak
ĠH idup
ot er
asi o
op edia
r or
Ġk ub
ist ensi
Ġmis teri
Ġb ir
Ġt uh
Ġj akarta
ĠM end
Ġberl anjut
Menurut nya
ĠP os
d engan
ĠM ay
Ġbers edia
Ġperek onomian
Ġproduk nya
ĠIb nu
Per tama
r ama
bu kan
Ġkol esterol
Ġmas ak
id asi
ah i
Ġn abi
ĠT K
ad apan
is is
ali f
iman apun
ĠT witter
ind ung
ĠAs li
l ate
ar itas
Ġt est
Ġberl atih
ĠPr emi
s atu
Ġjalan an
Ġng ga
Ã ¢
ik h
Ġanj ing
etuj ui
O G
ap e
ĠPem ain
Ġn ada
Ġd gn
il bab
Ġpemb ukaan
ĠC S
ent asikan
ot anya
ĠðŁĻ Ĥ
angg api
il ainya
und er
ĠPem ilu
l ay
ĠA PB
ĠV ideo
Ġseter usnya
n um
4 8
ĠS ch
ĠC asino
Ġba ja
sh op
ĠD o
Ġmaj alah
es is
ik er
Ġket ak
gabung kan
P emb
ĠK end
Ġm ikro
ur it
Ġl egal
at orium
ĠD il
ĠWid odo
Ġpenc egahan
ĠPut ih
Ġlog am
H asil
Ġterl ambat
ĠC aranya
Ġsosi alisasi
Ġmempr omosikan
Ġkeb ebasan
ĠB engk
el uk
Ġ imbang
Ġl ebaran
â Ī
Ġp akar
ek or
end aknya
Ġdit angkap
m ata
em ah
ĠM il
Ġberb ahan
Ġb ener
Ġhid ung
Ġsem ula
l ang
Ġmenghad iri
ol ongan
ĠTer dapat
Ġmel uncurkan
Ġteks tur
ed e
Ġun dang
Ġti ada
Ġpemb agian
Ġjawab annya
ĠM ilan
min al
ĠP aling
Ġungg ulan
angan nya
Ġdip andang
ĠBer main
ĠMes ir
Ġmem f
Ġpemb ers
d uc
Ġmeny ewa
ĠK ud
Ġas p
etah u
ĠA L
p h
omp a
Ġsimp le
Ġkonsult asi
eb unan
und ur
aik nya
ĠWeb site
Ġser tifikat
si b
Ġbu y
Ġmem uat
el d
adi on
Ġeks tra
ag o
Ġmend ownload
Ġter infeksi
m udahan
Ġtem annya
n el
ak wah
Ġeks ternal
ĠS and
Ġr obot
Ġdira ih
Ġbeg ini
ik alau
O D
Ġinst al
ĠKam ar
on ore
Ġters isa
Ġsifat nya
Ġmengh ubungkan
or n
Ġsec epat
ĠAngk a
ĠF orex
eh an
Ġr aga
Ġdi anj
en am
is ian
T he
p u
ĠP ember
v al
Ġsel amanya
oh ol
s un
Ġam al
Ġ200 6
ĠB idang
Ġp upuk
ĠBer k
Ġw ujud
Ġdiper b
Ġsemp it
ĠA sian
b uku
en sa
Ġmengec ek
angg al
Ġpener ima
ĠBP JS
Ġperb andingan
ĠSo sial
ĠS IM
per gian
ĠK ak
Ġmeny al
ul ian
unc ulan
B i
Ġbes ok
Ġman apun
S ej
Ġinf rastruktur
ĠM ac
w akan
Ġr etur
Ġdianj urkan
P N
S t
Ġhand al
Ġr ib
ĠM anfaat
Ġkom isi
lu as
las s
Ġberg anti
ĠSun gai
Ġdi aplikasikan
3 7
ĠT our
us h
Ġmeng atas
uj ur
Ġl imbah
j in
Ġj us
Ġs idang
* *
Ġtengg orokan
ĠG ambar
es ak
Ġb enjolan
ĠH indari
Ã ©
aw asi
Ġtim e
art isipasi
ĠB ulan
Ġmenj alin
Ġakses oris
Ġvis ual
ww w
Ġber upaya
Ġal ih
man en
p asar
Ġanalis a
Ġl ist
ĠW alikota
ĠKel ebihan
ĠLem baga
Ġbrow ser
ĠO ff
Ġmeng olah
Ġpas ca
Ġmengus ung
ĠP in
Ġinter aksi
ant e
Ġpus ing
ĠT ravel
Ġt ik
Ġmeng arah
ĠPo int
Kep ala
Ġkem erdekaan
ĠMic rosoft
ĠPemb angunan
Ġdir agukan
Seb agian
ĠL o
ia ga
U P
G P
Ġtemb ak
Ġkar et
Ġdik asih
Ġmen atap
ĠPr ediksi
Ġpel a
ĠBer b
ab ut
n ama
Ġdem am
ĠC D
Ġberh adapan
Ġsebab nya
R A
M asih
Ġpam eran
ĠH ad
sp ot
y un
ĠMem iliki
ĠM A
e o
Ġkec erdasan
fr ika
Per t
imp ah
res h
Ġdimas ukkan
eg rasi
ĠB RI
Ġterb agi
âĪ ŀ
Ġberk ar
l ic
Ġped as
Ġsend irinya
Ġke tu
Ġk umpulan
t ak
in da
Ġut ang
9 0
Ġmendatang i
Ġmeng ontrol
Ġt ok
Ġmeyak inkan
K N
Ġrup anya
âĪŀ âĪŀ
H R
usi anya
Ġmeng endalikan
Ġto ur
Ġl i
ĠPer ancis
orm ati
Ġhar apkan
ekn ik
p ress
ĠE v
Ġm ark
Ġs alam
Ġorgan ik
Ġimp or
Ġperp ustakaan
ĠTer b
Ġberj umlah
Ġpenyelengg araan
B I
un itas
ent r
Ġmain an
Ġtan am
Ġsper ma
Ġk embang
ĠC r
era jaan
Ġk ader
Ġd urasi
asil a
ativ itas
us a
o tivasi
l awan
ir nya
ti tu
pl ay
Ġpan en
Ġke ti
ur e
D ik
Ġpeng umuman
tur ut
t s
ekerja an
Ġ %
ĠP ilih
Ġ est
Ġseni or
Ġsurv ei
ack ing
t y
Ġperih al
ain ing
Ġmer ilis
Ġ utuh
inter aksi
ĠK un
Ġb y
ĠK y
Ġd amai
up ai
Ġsej ati
engg arakan
angk ok
Ġnas kah
Ġpenggun anya
ter a
Ġketak utan
en ai
Ġmenghad ap
Ġc on
AR A
Ġn ikmati
ap as
b al
Ġked epan
el ing
ĠUn iver
Ġtangg uh
c ess
Ġ9 9
Ġak tor
ĠB ul
Ġkurang nya
Ġpembicara an
ĠT ri
Ġkerj anya
un ungan
ab ang
ĠM y
Ġem ang
Ġop tion
Ġform ulir
ad uan
ah aha
ĠQ n
Ġkag et
Ġbat uk
ĠB udi
Ġhid angan
Ġcer itanya
Ġik h
ĠK eluarga
Ġkonf irmasi
Ġberb ahasa
Ġm it
co unt
ĠPrab owo
z e
ĠL agu
Ġdisek itar
b ud
Ġmed an
Ġeks ek
Ġter kandung
i as
Ġ200 4
Ġh e
Ġmenemp ati
ĠN a
Ġsep i
tum buh
ara b
3 6
inan sial
ĠRes ep
Si apa
ĠPem uda
Ġkur sus
ir annya
lin k
oh ong
Ġmer ata
ic o
Ġseg alanya
Ġmen onjol
ĠM erah
ro und
ĠU tama
Ġs ya
Ġy o
ar jo
Ġa f
ĠTer l
ĠSeb aliknya
ĠTur ki
Ġj aket
op a
ay ar
ĠO h
gk au
Ap p
Ġgag asan
Ġju alan
Ġp eb
ĠH erbal
enj ang
Ġl ini
n ik
ĠKut il
akan nya
Ġkep olisian
ĠPem k
ak apan
ti ap
Ġmemb ant
one y
ĠL ihat
uk ota
anj angan
utu t
war d
ĠK au
Ġbat asan
Ġdil uncurkan
ar inya
em ahkan
ĠR a
à ¸
ĠA man
ĠK elas
Ġru gi
ĠEk onomi
Ġt ype
Ġ2 50
arget kan
ah uan
Ġs arankan
oh an
Ġko perasi
Ġvari abel
K et
Ġberp artisipasi
Ġag an
Ġba ga
ent ral
ĠK lik
Ġp andai
Ġso alnya
sama an
Ġpec ah
Ġh ancur
ĠUS D
Ġmend idik
Ġc ipta
ĠC ir
ĠY ou
Ġl and
ĠIng at
I F
Ġs and
Ġkil ometer
ĠW on
Ġpen ya
Ġn om
ĠMan ado
alis asikan
anj ur
aman annya
P D
Ġp ep
R T
ew as
i on
Ġbul at
op tim
ĠM enc
Ġbet on
Ġmem elihara
Ġtujuan nya
ĠB a
Ġd on
Ġpen ambahan
ĠT emukan
Ġber interaksi
Ġsed emikian
Ġrum us
Ġmenyer ap
Ġp anc
Ġpers onal
Ġsa jikan
Ġreg istrasi
Ġdek orasi
Ġangg ap
ĠR ob
Ġsensit if
Ġr ap
Ġmemec ahkan
ĠMenurut nya
ĠJoh n
ĠD av
Ġc om
ab ung
iling i
okter an
ep annya
ep end
Ġl iat
Ġdib antu
ĠSo ekar
ventu s
M a
ĠLa ut
it akan
' s
Ġf am
ĠAmb eien
w in
Ġs n
Ġ angkat
p el
Ġpeny anyi
Ġpeng ambilan
ĠB in
Ġv erifikasi
Ġseb etulnya
bu ahan
Ġf ungsinya
eb el
Ġmekan isme
ĠArs enal
l ima
Ġac uan
Ġmel arang
Ġpener apan
Ġdih itung
Ġdib iarkan
ump ut
ist is
ing nya
Ġmem aksa
Ġl abel
K en
end or
Ġh ip
Ġmengen ali
ĠEn g
B egitu
Ġprof il
Ġb on
Ġjan in
ĠV er
ut amakan
Ġpert engahan
ay angkan
ell er
ĠW asir
Ġkerj akan
Ġdip anggil
ĠS mart
Ġbe pergian
!! !
Ġdi ubah
ĠG roup
Ġj urnal
Ġberk isar
Ġp op
Ġmem otong
Ġkl aim
Ġr ombongan
Ġdi olah
m o
M u
Ġjangan lah
is l
Ġ3 3
ĠD ownload
ĠF C
em udi
ĠW ord
ĠY uk
C D
K el
ĠYah udi
Ġrent an
ĠEf ek
ĠAl am
Ġber jualan
Ġmend adak
ĠR oma
Ġmendapatkan nya
ic ip
ĠN ilai
ol ik
ĠM ore
Ġs ambut
Ġmenemp uh
ĠBand ara
anc arkan
ĠC oba
Ġpenjual nya
Ġtim nya
u asi
ĠD ip
ĠU r
ros ir
A gen
Ġmeng ag
s or
ĠD asar
Ġb ox
Ġse imbang
Ġbac aan
Ġj itu
anc angan
Ġwas pada
B A
Ġsens or
om at
Ġpem egang
Ġmemb akar
c anya
is ika
Ġp agar
um nya
Ġkr itis
Ġsup lemen
i i
Ġkr isis
ĠOn e
os h
ĠG old
or atorium
ĠMuham madiyah
ag on
emp ut
il ikan
Ġint ens
Ġsm s
âĢĻ ,
Ġmel upakan
Ġn ikah
Ġterc inta
aks o
uk isan
ab orasi
et te
t iket
ĠL angkah
ĠOr gan
Ġmask apai
Ġterb it
w ork
imb ingan
Ġmen antang
Ġpel ajari
ĠP ER
ĠI V
ah ulu
ĠF orm
og en
Ġdib uktikan
ĠK amp
ĠT e
ĠR asa
Ġmem unc
em uka
h ak
b etul
Ġins tr
Ġb upati
aj urit
Ġpen jaga
T entu
y ik
k el
Ġh ehe
ĠC el
ak na
Ġpopul asi
Ġmen ampung
ongk ong
Ġf inansial
Ġaw et
oll ar
ĠP M
Ġgemb ira
encan anya
Ġsa jian
ĠD ana
ĠR up
Ġkur ikulum
ait kan
ĠA D
W ah
Ġnaf as
Ġber ist
Ġpenyebab nya
Ġn atural
Ġp ej
ĠPut ri
Ġm ore
ĠM T
ĠP ekan
Ġc air
Ġg itar
Ġdit untut
Ġdim an
ĠPil kada
Ġmeng up
ĠMen jadi
Ġmenekan kan
ump ah
at h
ĠM ata
ĠH IV
Ġberp r
ingk ah
Ġdi tur
enar kan
Ġak omodasi
Ġpor si
Ġk okoh
Ġga wang
Ġber an
Ġm alaikat
ara i
p ura
if e
Ġmemb icarakan
Ĩ Ĵ
Ġmemba yangkan
ĠG edung
is ter
ĠK ek
ĠG aransi
oll ow
Ġl amanya
ĠI kan
_ _
ac ak
Ġtunt as
B S
p anjang
Ġsal do
oles kan
Ġb os
Ġ1 000
K ar
Ġstr ess
ej o
d ata
d ian
A kan
Ġn el
b log
Ġper bankan
Ġ200 5
aj inan
ĠA frika
Ġd arat
Ġa q
as tian
Ġmeny angkut
eb as
Ġjalan nya
ĠUniver sity
ĠS martphone
j uk
Ġsing le
% ,
Ġb ody
Ġeks por
Ġdi siapkan
ĠR ev
ĠA N
Ġr ilis
ingg ung
uj uk
Ġch ip
Ġb or
ĠM bak
Ġmen eg
ĠSek ali
Ġbar is
Ġc obalah
and an
ĠN et
ĠR T
Ġpremi um
Ġs ukai
Ġsik lus
ĠB uah
Ġsp ek
ic al
Ġtem ui
Ġpert aruhan
Ġberl okasi
Ġken yataannya
op si
ota an
ad anya
Ġsel engkapnya
im um
ĠKel urahan
Ġmengej utkan
ĠS P
ah ukan
el ai
Ġh utang
um buh
ungg ah
Ġst ok
Ġim buh
Ġkom od
Ù Ĩ
Ġmenyer upai
Ġp akan
isk inan
Ġdisel esaikan
Ġhun ian
Ġberl ebih
uduk i
ada annya
Ġproses or
an aman
lus if
Ġpip a
Ġtrans p
onf irmasi
K ota
Ġst roke
ĠW il
ĠSu zuki
iz en
Ġkos metik
ĠAh ok
Ġtab ungan
ĠManaj emen
Ġ olahan
uc h
l agi
Ġmengg er
ĠS ud
ad ukan
Ġman c
ada ban
Ġset ting
Ġdiaj arkan
Ġsus unan
Ġsant ri
Ġm undur
An ak
Ġba gai
Ġsil at
ĠJ a
Ġkis aran
Ġkur un
Ġmemaks imalkan
Ġberd arah
ĠB unda
Ġut k
Ġekonom is
ĠUS B
in asikan
Ġengg an
ab ase
ĠM au
Ġber masalah
ĠS iswa
Ġpah lawan
p ing
ĠKud us
ĠS erta
Ġmeny ebarkan
Ġtep i
Al lah
ip at
Ð »
Ġseb ulan
Ġk ajian
Ġber iman
eh at
oot h
Ġbern ilai
Ġpet ern
Ġkeuntungan nya
ĠM ur
ĠD okter
Ġdiaj ukan
j il
Ġsil am
Ġbers emangat
eh kan
Ġtangk as
Ġmemb atasi
ĠI M
Ġper manen
Ġspesi es
ĠDis ini
Ġdos is
Ġmem ul
Ġkar ang
im en
Ġku asa
ĠB ro
na f
ĠPK S
Ġt ewas
Ġs ul
Ġident ik
y ono
i x
ĠAl kitab
anak nya
anj ak
al il
Ġn ilainya
Ġt ri
Ġsel a
ĠNus a
ĠPer b
ongk ar
ĠSek retaris
E O
Ġmeny uruh
ĠS audi
emuk akan
Ġpos t
Ġkomp osisi
Ġap arat
Ġr acun
Ġak tiv
ĠTer masuk
Ġpemain nya
Ġdim akan
Ġke amanannya
Ġpingg ir
ewa an
d eka
ari o
Ġmen imp
Ġmus eum
int anya
ĠBUM N
ĠT ingkat
Un dang
Ġsen ilai
Ġketer l
Ġperm ohonan
Ġtr uk
Ġtert inggal
Ġmen aruh
Ġg ila
uh ur
Ġrelev an
Ġpengel ola
B AB
Ġ >
Ġrom antis
ut if
Ġk unjung
z z
Ġj ackpot
Ġl eb
Ġtel iti
un ikan
om unikasi
Ġh endaknya
ens inya
Ġtim nas
Ġpel ayan
ungk iri
ĠD im
Ġs or
fer ensi
is ensi
r it
Ġmemb ela
Ġdi yak
ĠK ong
Ġtern ak
Ġdirek omendasikan
Ġdes ign
Ġkont ribusi
ĠTer utama
Ġâ ĨĴ
Ġdu it
Ġbun da
Ġperk iraan
Ġsemb ilan
q q
Ġa ut
Ġper ayaan
inc ian
Ġap resiasi
ĠR uang
Ġdeb u
Ġk utu
Ġakadem ik
ĠB or
Ġmengan cam
Ġw ork
Ġpeng embang
Ġk ad
Ġmen elan
Ġmilik nya
Ġok num
ut y
ĠEn gkau
ok ia
Ġbl ack
Ġhak im
Ġse andainya
ikm atan
Ġbend era
ĠPem buatan
Ġilmu wan
Ġsel f
ub e
g ia
ec tor
Ġal k
Ġmeng ukur
Ġcem as
ĠT ai
Ġso ci
il y
ukup i
oba an
Ġharus lah
d ik
Ġsa w
Ġsus un
Ap likasi
Ak hirnya
rip t
SI S
P ern
Ġmem ak
ĠQn C
ek tar
Ġbun uh
ant ungan
Ġfl eksi
H P
ĠP ajak
Ġm bak
Ġtambah nya
Ġkualitas nya
Ġw ali
si apa
ĠK erajaan
Ġdir iku
Ġbuj et
Ġp aru
ent ak
ĠS taf
ĠW at
ĠKom unikasi
Ġdibagi kan
orm atan
ĠJu ventus
ĠQ u
Ġdis usun
Ġkr itik
Ġd own
Ġk af
Ġpro b
k eb
B uat
ah it
il et
Ġh as
Ġukuran nya
et as
Ġmem ohon
7 5
Ġpert unjukan
ĠP ed
Ġdir asa
Ġnas abah
Ġter or
Ġtamb ang
Ġdis aat
Ġot omotif
Ġr a
Ġber angg
Ġap el
ali fikasi
Ġad egan
as ari
Ġmeny ed
ĠA walnya
s ter
Ġkes ibu
Ġset an
Ġj aga
ĠB entuk
Ġpes antren
idat o
embuny ikan
3 1
Ġd efinisi
ent ase
enc y
A cara
Ġan ime
Ġmengam ati
Ġdiar tikan
en ov
G M
ĠU KM
Ġsem bar
Ġpela buhan
Ġmengar ahkan
ĠF oto
Ġmem utar
Ġberist irahat
ĠF ir
ĠAl hamdulillah
Ġsembar angan
Ġhar am
Ġdil ansir
ĠSp ort
end aki
ĠM art
gr asi
Ġr et
k ait
K etua
Ġterc apai
ok i
Ġangg ur
Ġdic oba
ti ck
Ġdi al
ĠAl ex
ĠR onal
ĠB ang
ĠH p
Ġter in
Ġa bu
C ontoh
inc in
teri ak
Ġlanjut an
c l
f ungsi
ĠS bobet
eb on
Ġ imb
Ġk ental
Ġ7 5
Sel amat
ĠJ i
ĠB enar
Ġtemb ok
ĠB AB
Ġkem aluan
Ġmenurut nya
ip an
Ġin tinya
ĠT op
T ips
Ġter wujud
Ġgam es
ĠD etail
ĠAl ami
s ense
Ġmengh ilang
inf o
s ing
ek ah
and ungan
ont ak
se perti
Ġhi as
Ġmanfaat kan
ĠUl asan
Ġq u
Ġf ree
Ġlap ar
ul angan
Ġper adangan
Ġsp ot
Ġsh op
angk as
Ġberp indah
ĠL ingkungan
ĠK adang
ua ya
Ġins titusi
Ġ4 00
Ġmeng ap
ĠK art
Ġtutur nya
Ġdid asarkan
ber ry
s af
ĠAkibat nya
Ġmer encanakan
ĠC on
Ġperk ebunan
ĠKec il
Ġmemper s
enj ak
Ġmel angkah
ĠT epat
ĠGun akan
Ġmen tah
Ġmen anam
Ġker ingat
Ġh indari
ĠM asa
4 4
ĠD el
at angani
ĠS in
ĠTel kom
Ġtemp uh
oh id
ĠL okasi
ĠK im
ek al
end ang
etu juan
ĠO m
Ġhubungan nya
in ho
b uk
201 6
uk asi
Ġch eck
Ġper anan
Ġmenyel enggarakan
Ġdimaksud kan
ĠPeng gunaan
S itus
Ġdik ab
Ġseh arga
Ġsol id
v isi
Ġj aj
emb ah
Ġb odoh
ĠA TM
Ġbur sa
Ġmempr ediksi
L angkah
ro f
unj ang
ĠD ewi
inj au
ĠN U
Ġinst agram
H anya
Ġs tar
Ġdi atasi
um buhkan
allah u
ĠYa itu
elih araan
Ġga bungan
tif kan
oy o
Ġn yar
Ġbers alah
o und
ĠB ima
Ġditur unkan
ĠInd ustri
un uhan
og o
al inan
M akan
l um
Ġpres entasi
Ġpri v
Ġp adi
asil itasi
ĠH and
Ġbi j
Ġtamb ahkan
ĠF it
Ġken angan
S er
Ġmemberit ahu
' .
Ġplan et
Ġbers umber
ĠS amp
esu aian
o id
Ġl ensa
iti on
ĠPanc asila
Ġpemb erit
Ġmengh al
Ġmengant isipasi
r umah
Ġberk endara
r ia
er asi
angk ali
Ġd ewan
Ġp ew
ĠB onus
ult asi
Ġter tera
Ġs an
ĠQ ur
Ġper ahu
Ġl angka
ti g
ĠJ ambi
angkit kan
Ġan imasi
agu e
Ġdib idang
ĠP ower
ĠC omp
Ġd ewa
Ġser tifikasi
Ġko ordinasi
b le
abis an
antum kan
Ġsop an
Ġmut lak
tu re
Ġt ir
Ġdi awali
ĠPas ti
Ġkel uaran
unc h
ĠGol kar
Ġpenyelengg ara
Ġmengh ambat
Ġtingg inya
Ġm edi
Ġmod ifikasi
ac ker
Ġpengan tin
Ġd ompet
Ġmeng uji
Ġmel ekat
Ġmeng aplikasikan
Ġbert anding
ip is
Ġdit unjukkan
Ġpeny ebaran
Ġsub ur
Ġk afe
g inal
Ġpemberit ahuan
ud in
Ġterb akar
Ġberp utar
Ġpat ung
Ġpr as
ond on
Ġaudi o
Ġm uk
os ter
ĠS tar
Ġmemb alas
Ġusah akan
Ġan e
n es
ĠM arket
es m
ĠK eber
Ġkr onis
acam ata
b agian
Ġken ikmatan
Ġpsik ologis
ĠÂ »
ĠK B
ĠDi g
ĠG us
E n
Per mainan
Ġmul ti
ĠBer beda
Ġd ealer
3 2
R es
Ġemosi onal
ahter a
ank si
e on
uh annya
Ġmenyes al
Ġbar eng
Ġ ;
S ampai
Ġmengh ibur
Ġlaz im
ed ak
ĠK ari
ĠP DI
Ġsimp el
ab aran
S ep
p t
Ġg erb
T empat
T ahun
Ġsep akat
Ġpeng akuan
ĠR ek
Ġpeng end
ĠAt as
Ġdid esain
E B
ĠAd am
Ġdig emari
Ġas ap
ĠFl or
aw annya
un akan
Ġdin amakan
t engah
ĠMet ode
lam asi
ĠL ED
Ġketer batasan
ĠA f
Ġber wisata
Ġwar nanya
Ġk n
Ġterk emuka
U s
b ur
ĠSh op
at ukan
Ġdi jaga
ĠW ali
Ġr adik
Ġg il
in ess
ing ungan
ĠSem uanya
erit anya
Ġs umb
us uk
Ġmul us
ot is
Ġmen emani
ohid rat
I A
il in
s alam
Ġpes aing
Ġpem akai
Ġmengak hiri
at asan
k s
ep ot
essi onal
Ġmen ump
Ġg al
y anto
Ġner aka
Ġmen awan
Ġc adangan
Ġekstr ak
Ġpungk asnya
ĠSu atu
is ode
en ta
Ġkem iskinan
Ġpeman faatan
Ġm ie
Ġk um
Ġangk atan
K on
Ġangk utan
Ġmengg el
Ġusah anya
ĠH itam
ĠC enter
ĠJ atim
Ġked epannya
ĠL in
t api
Ġbay angkan
Ġpenc apaian
Ġkes ayangan
Ġg ul
3 9
Bi asanya
Ġsem esta
Ġcac at
kes mas
ĠPer g
ĠS im
m el
Ġalasan nya
g y
Ġsend i
d ua
en alan
Ġpeng adilan
ĠG el
Ġmenemb us
Ġpen ja
Ġpeg unungan
Ġs araf
Ġmer angk
Ġmenc ob
Ġdiber sihkan
ok rat
Ġjelas kan
ĠW al
Ġ uk
ĠC il
Ġl ag
ĠKeb anyakan
k ala
Ġbl ok
Ġimp ikan
Ġak untansi
Ġpem ak
Ġmer ebut
Ð º
ĠMel ihat
Ġterk ini
at alkan
Ġterc ipta
Ġmer ayakan
as uh
Ġs astra
ĠK ulit
ĠP A
ĠM r
E P
Ġt olong
ĠG reen
in ue
o ver
per tinya
enov o
Ġsem estinya
ĠT angan
l ama
Ġdist ribusi
Ġber agama
aksana an
ĠH id
oper asikan
Ġcok elat
3 8
ĠM e
Ġkar pet
Ġberk ali
m y
Ġdis et
emp uran
Ġsaya p
Ġpr inter
Ġbul anan
ĠC alon
ĠS n
ĠO t
on ic
int ik
ĠMeng h
Ġg em
er m
Ġbert ahap
ĠInf o
Ġdiyak ini
Ġuc apnya
Ġpi ala
ub likasikan
Ġlemb ar
Ġpeny us
ĠN y
e imbangan
Ġditemp uh
Ġsej uk
Ġpeny er
Ġmengab aikan
Ġpeng uasa
alis a
ä ¸
ent ina
ĠSD M
Ġkre ativitas
Ġdip elajari
ĠD aya
opul er
Ġkemampuan nya
ĠAngk atan
end idikan
l uk
Ġmeng gi
Ġter imakasih
Ġc ampur
ĠR om
Ġber awal
Ġke da
ĠC epat
ĠSeg era
Ġmem ancing
Ġpot ong
ustr asi
est ina
ĠW alau
ap asitas
Ġber w
Ġkes al
Ġberan eka
Ù ħ
ay asan
Ġmeng acu
ĠDr s
âĢ¦ âĢ¦
Ġdiper gunakan
Ġnya wa
omp at
Ġsip il
ar uan
ti ons
Ġt witter
Ġke ag
Ġditinggal kan
Ġbal ita
gr ade
ĠT eman
Ġ usianya
Ġn uansa
ĠJ ad
ĠB antu
ib adah
F i
c m
ĠMeng gunakan
) ;
Ġpen eg
ĠK alian
rah im
Ġtidak nya
Ġmembuat ku
usia an
Ġj enjang
ĠSoekar no
enj ar
Ġmem ain
Ġmen utur
uny i
ali b
Ġik atan
ot ret
Ġdih indari
Ġbert entangan
ĠG u
Ġmengel uh
Ġkepad amu
Ġy ou
ĠJawa b
ĠUn tung
Ġberk h
ĠF re
ĠDen pasar
Ġmem an
Ġber daya
Ġt ingkatan
or si
b uru
ĠPeng adilan
aru da
ĠS ol
ah abatan
Ġjag ung
Ġ200 3
o an
I bu
M an
uri ah
Ġper ed
Ġdep resi
es ona
Ġdib ekali
S h
Ġmeng ira
Ġstat istik
Per lu
om ong
Demikian lah
ĠKel ompok
el iling
Ġhukum nya
Ġj ej
ĠV iv
ĠInd ah
Ġhit ungan
Ġsem i
Ġkep alanya
Ġsambut annya
ĠBeli au
4 6
ĠBer sama
Ġmenutur kan
Ġf antas
Ġterj ebak
hit ungkan
j ika
Ġto ol
Ġkeb ingungan
Ġterh itung
âĢ ¢
Ġin ci
ĠH asan
Ġker ajinan
Ġkas ur
Ġsoci al
Ġst and
res if
in y
Ġf irman
Ġpan el
Ġdi an
Ġberp uasa
IN E
us ul
ĠL eg
Ġditer bitkan
Ġnel ayan
sh ip
d ir
Ġperd ana
ĠSeh at
ĠL u
Ġkand idat
ĠT o
Ġb etah
ĠH ampir
ap arkan
ĠY usuf
Ġsy ukur
ĠM or
Ġl ukisan
Ġas yik
ĠG ejala
re a
Ġpat ah
Ġdi w
Ġm ampir
A gar
Ġv endor
Ġk andung
Ġpert amanya
ym p
Ġdat abase
Ġaw am
Ġtep ung
j ual
ĠC an
ĠC uma
T ern
ulis an
Ġdis amping
ĠYun ani
ĠHar us
ĠH e
Ġg onore
ĠUmum nya
Ġh ektar
Ġkes eh
Q Q
Ġmen umbuhkan
Ġw ujudkan
ip ang
empro v
I C
ĠT ah
tem annya
Ġberj arak
ak unya
af t
Ġsek elompok
? .
ok e
g raf
4 9
ait un
ĠR iz
Ġkeh endak
inj am
ĠB h
s ebut
Ġmas ter
Ù Ĳ
Ġw all
Ġspir itual
ed o
Ġdip ungkiri
Ġh ambatan
st all
Ġkesibu kan
ur t
ec ah
Ġlok asinya
Ġrib et
S P
am aian
af al
Ġpeng isian
ump ur
Ġdi obati
Ġm ad
ĠS ony
ĠBel ajar
O C
ĠRes mi
Ġpemb unuhan
Ġl es
ĠX L
K A
ĠD ist
al eg
Ġberb isnis
eam ing
Ġj ilbab
Ġpsik ologi
ĠJ in
Ġbawa an
ec tion
N A
Ġter as
Ġpotensi al
Ġr ental
er y
ad aptasi
Ġpro v
Ġshar ing
c arat
ĠTer kadang
r om
engk akan
j auh
Ġ19 45
ĠPL N
ĠK ang
Ġk it
Ġm udik
Ġpeng adaan
Ġmenjadi kannya
ĠPeny ebab
Ġ ub
z an
M D
ĠC har
ju angkan
ir d
ĠD AN
Ġdi in
Ġsamp e
m on
T C
Ġr eli
Ġpers egi
ĠH ong
r ing
em ia
Ġdi lah
ok a
C h
Ġf ac
J A
ĠH u
Ġb asis
Ġtum or
iz inkan
U B
Ġmend uduki
Ġdim ilikinya
Ġlingk aran
ro t
Ġdil aporkan
T R
ĠC eme
b ilitas
al asan
Ġkepem ilikan
Ġalum ni
Ġdit ingkatkan
emp ah
Ġl as
Ġpr ajurit
Ġmen teri
daya an
D AH
Ġn ga
I s
Ġharus nya
ar ungan
ĠW ilayah
ĠAr g
Ġr umput
a q
ĠO ut
angg anan
ap is
ij at
Ġper adaban
Ġatas nya
ĠL as
Ġmeng awasi
ingg alan
ĠF ull
b isa
Ġb ambu
eku atan
Ġarsit ektur
ĠF in
Ġperk ataan
ar na
Ġ- -
ĠSel uruh
el apan
Ġber ter
Ġpemb iayaan
Ġlar angan
Ġ urat
ĠL uar
em asan
Ġperc akapan
Ġbukan nya
Tern yata
eg oro
Ġeks k
Ġbud idaya
Ġb angku
Ġongk ir
m isi
T ujuan
Ġ19 5
Ġberkel anjutan
aw inan
Ġr uk
Ġform asi
T im
Ġmen un
Ġj e
Ġku alifikasi
Ġmemain kannya
Ġmeng gabungkan
Ġb ea
6 6
Ġgraf ik
b k
ĠB ung
tr uasi
Ġdib alik
all a
il at
Ġkom er
r asah
Ġper main
ang e
Ġsend ok
Ġbat in
j enis
Ġdi alog
Ġsamb utan
ampil annya
and alkan
osk op
Ġt v
Ġsek si
v is
Ġfot ografi
ol akan
Ġkeber angkatan
Ġm ama
Ġf re
d ak
at ing
Ġketer s
ĠGr atis
Ġmengh idup
Ġseb atas
Ġs impan
Ġsa wah
ĠL um
ut ra
uw angi
ad es
D il
dr aw
Ġik lim
ĠHasil nya
Ġmengund uh
Ġr itual
sp ek
os al
Ġberm akna
Ġkey board
Ġcap sa
Ġhad api
Ġberkar ya
Ġ aud
Ġdiser ahkan
ĠZ en
Ġmendapat i
isk usi
Ġdil epas
ĠUm ar
Ġk ait
ĠT etap
Ġdilakukan nya
re ad
Q uran
ĠRonal do
ĠB I
Ġl am
is ih
Ġterp enuhi
Ġbek al
ip e
Ġdom inan
Ġp ur
ĠL ondon
Ġfin ish
Ġmem ukul
Ġmem indahkan
ĠL agi
Ġok e
ing ati
Ġbuy er
ĠT ar
emb ak
ba wah
Ġrez eki
Ġt en
Ġbersi ap
han nel
Ġpen emuan
Ġr as
Ġl aris
m ener
Ġmasuk kan
Ġ ~
ĠL ive
ĠGr and
Ġim am
m us
emp ar
Ġdag ang
Ġse x
icip i
Ġmengant arkan
ĠR eg
Ġ3 4
ĠB M
il kan
Ġbay angan
ip ina
Ġmengatas inya
N ama
ateg i
Ġb akso
Ġdap et
K ata
m arket
ĠOp po
Ġalk ohol
ĠPr omo
ul ator
EN G
oker to
K om
Ġto ilet
E C
Ġkes enangan
Ġmemper luas
ap ol
Ġmem eluk
p uk
ĠP ariwisata
H ar
ĠK ara
Pro gram
Ġp rib
Ġori ginal
es aian
ĠIntern ational
k ing
b ag
ĠPeng el
ĠAn t
Ġmem antau
Ġkel ima
Ġdit arik
Ġberj anji
ĠBah wa
Ġdiperb olehkan
ĠT ex
Ġh eb
Ġkes eimbangan
Ġkarb ohidrat
b ook
Ġpert arungan
ĠR ad
ĠC C
ĠPer empuan
land ia
Ġdiman apun
ĠMobil e
Ġb om
um entasi
Ø§ ÙĦ
Ġpers etujuan
ĠC V
P ol
us uri
ro gen
Ġnom inal
r ap
bi otik
å ¤
c iri
Ġseri al
ĠWhats App
Ġinstal asi
omb inasikan
yak nya
l ess
Ġs anksi
Ġmel etakkan
Ġkompet itif
Ġsol usinya
ĠK TP
ebut kan
Ġefisi ensi
ur angi
ĠPal estina
Ġint elek
ĠY ayasan
Ġtimbul nya
l azada
Ġ6 4
Ġ emb
ĠN okia
Ġmic ro
ĠIS O
ĠCir ebon
ĠS ir
Ġberak ibat
am er
Ġb uta
Ġkari er
Ġmeningkat nya
ĠKel amin
Ġeks im
eb o
ĠP on
S L
oks idan
D aftar
Ø ±
Ġpenc ipta
M od
r ek
Ġse ekor
ĠAm in
S A
ĠUk uran
Ġb elah
ĠKep utusan
Ġped oman
Ġal ur
Ġdi andalkan
et ron
Ġsek iranya
Ġd sb
ĠPr am
Ġ3 8
Ġsuk ar
Ġb imbingan
Ġseg men
eb askan
Ġter gabung
Ġwah ana
âĢ ĺ
ĠKed uanya
ĠS ant
Ġl anjutnya
ĠM ark
Ġval id
f ik
ĠGr up
ch i
Ġmeng ed
Ġdiper iksa
ven ir
Ġc u
ap oran
Ġdis ambut
at ah
ad uk
o i
Ġmenc ukupi
ĠK ampung
angk angan
ĠLe ague
Ġsel uas
Ġpelangg annya
ĠM oto
Ġmemunc ulkan
Ġmens truasi
or angan
ej arah
Ġdip roses
d is
Ġmenger ikan
Ġng eb
ĠMus eum
Ġber teriak
ĠH ab
Ġterakhir nya
eb atan
k at
0 5
Ġrep ut
Ġrutin itas
ir is
Ġz akat
Ġum pan
ĠCont inue
0 8
ĠY ork
Ġsed ap
ad isi
Ġhadir nya
Pro ses
Ġm p
Ġmend asar
m ark
Ġ asa
Ġinstr umen
Ġp iring
In formasi
Ġkonv eksi
ĠG at
ĠH el
Ġm um
Ġpekerja annya
ĠBay i
ĠT iga
ĠD ib
Ġj ejak
Ġtur is
Ġpem eliharaan
Ġs mart
Ġtemp late
J ual
Ġd evel
AN D
t le
Ġdar urat
s aat
Ġl utut
Ġkel iling
Ġ ï
ĠB B
ĠOl ymp
Ġked udukan
Ġse umur
Ġf lu
ri end
Ġmeng amankan
Ġw indows
Ġmemper l
etahu inya
Ġjep ang
ag ing
ĠPB B
ĠB ambang
ĠB ud
unt ah
abr ikan
p in
E SI
ĠB NI
Ġmenimp a
itr aan
et is
ab ol
Ġul ar
Ġongk os
Ġpeng amatan
Ġj elek
ĠS uriah
Ġtemp o
* )
7 8
av a
Ġnyar is
am uk
si gen
ĠMal uku
ĠPert amina
K ini
In ilah
Ġg et
est ik
ain s
Ġb uaya
Ġar ena
Ġt ingkah
DAH UL
Ġair nya
Ġat asan
Ġmencob anya
j ib
W aktu
ec ahan
ĠC at
al s
Ġmen ebak
ub le
ĠKet iga
ĠD id
Ġmengu atkan
Ġsyari ah
ĠP ihak
Ġj amaah
Ġbun yi
akt anya
ĠD ay
Ġs ari
Ġdiper baiki
DAHUL UAN
Ġ 01
Ġsa wit
Ġdis itu
Ġreput asinya
Ġsej enak
per usahaan
uj ukan
Ġfantas tis
ĠH i
Ġmenyebut nya
em on
Ġmaksud nya
UH AN
Ġad onan
Ġterl engkap
ĠS oc
ĠPert anian
ĠH at
ili asi
Ġpel an
omb ong
ap aran
Ġga irah
Ġdit olak
ĠPes erta
Ġst adium
Ġke unikan
Pen yakit
3 4
Ġdinam is
ĠT ata
Ġmend esak
on egoro
ikasi kan
Ġsal e
Ġkep ed
Ġberpr estasi
m l
Ġmaks imum
ĠS alam
Ġkek ebalan
ĠBany uwangi
Ġtem uan
Ġc itra
afs ir
Ġg ara
ĠK ul
utr ad
Ġmenj elajah
z o
Ġh y
optim alkan
i asi
Ġkomer sial
Ġmeyak ini
Ġdit unggu
ĠKed iri
Ġind epend
y n
Ġpeng erjaan
e ek
Ġmon itor
Ġd ulunya
Ġpemb inaan
ĠMari a
Ġmenunj uk
Ġkar t
ĠB ed
Ġr ok
Ġd or
Ġtentu kan
ĠDan au
Ġmeng identifikasi
Ġpr imer
Ġl u
ĠPremi er
Ġpol os
ĠQ Q
el am
eran kan
Ġdik ala
ers ey
Ġhi asan
ĠN ote
Ġpen angk
Ġha id
Ġb id
al em
Ġwar isan
Ġg ig
ĠBer ita
Ù Ĵ
Ġz aitun
g ara
Ġm all
Ġspesi alis
Ġlab oratorium
Ġsen iman
ul ukan
ĠA y
s itus
ĠP ilihan
bo x
erint ahkan
Ġdetail nya
ong g
hawat iran
aktu r
Ġser angga
hawat irkan
ĠSip ilis
Ġj odoh
Ġmus tah
Ġput r
Ġprof essional
Ġn a
ev aluasi
Ġkes atuan
Ġrek aman
ĠTim nas
do or
Ġ etika
Ġsi aran
ap or
Ġkes abaran
Ġbers antai
up date
Ġdilah irkan
f um
Ġpen etapan
Ġmemin um
W alaupun
unt un
Ġbon eka
Ġterb anyak
ol or
Ġkompl it
Ġter minal
ĠC ek
ĠPEN DAHULUAN
id ap
M in
ĠBuk it
Ġl al
Ġh om
Ġsamp el
Ġdib agian
Ġmem isahkan
az a
Ġ otor
ek nya
Ġyo utube
ĠJ ar
Ġber ibadah
Ġmen enangkan
ĠSeb aiknya
Ġmenaik kan
Ġc incin
Ses ungguhnya
ĠK os
Ġdiak ibatkan
Ġlem on
ĠTok yo
Ġeng ine
Ġberk es
Ġberk apasitas
Ġketers ediaan
an kan
m ah
Ġr asio
Ġmenand akan
ĠR em
Ñ ĥ
ĠT un
Ġmengh ormati
Ġperc obaan
Ġdi timb
Ġdil alui
Ġkor an
Ġj ikalau
ĠN ature
ĠMas ter
efin isikan
Ġter apkan
li er
Ġb elahan
is ahan
D it
Ġn ampaknya
atuh kan
ingk irkan
Ġt onton
Ġberb au
Ġpenggunaan nya
Ġd en
Ġdem o
ĠH ati
ag an
Ġfr ekuensi
ĠDav id
Ġberin vestasi
ĠP ekerjaan
amin an
Ġpart isipasi
Ġj in
Ġke adilan
al e
Ġg uy
Ġul as
Ġmit os
ĠK H
Ġdic ampur
Ġ3 9
Ġp angkal
Ġmer eferensi
Ġjalan kan
Ġd akwah
Ġc ard
ĠS aw
Ġvir tual
orm al
Ġkel enjar
Ġsemb ari
Ġikh las
o us
Ġbers er
Ġbert arung
ĠKal o
ĠE ver
ĠR atu
Ġsem enjak
A t
ĠBlog ger
Ġkeman usiaan
ĠS ungguh
uk iman
Ġpemb engkakan
ĠPol da
ĠPer p
Ġberc inta
Ġterc antum
ĠT or
eran si
Ġkab in
ĠBr asil
ĠNg gak
K ali
p al
Ġ ip
ĠT enaga
Ġti ang
mener us
ĠH AM
Ġb ok
os en
ab da
Ġh ist
Ġal l
Ġkomod itas
K S
en ap
per s
Ġco ver
M P
ĠPro p
ev er
b ol
Ġmengg ali
ĠPen daftaran
Ġkab ur
Ġsp e
Ġtangg apan
lo ud
ĠL atar
ist an
ikan an
ot ot
ond en
ĠPl akat
Ġmem erintahkan
Ġl e
ĠL ama
Ġtan yakan
Ġac count
engg am
ya i
Ġdi umumkan
em aat
Ġc elah
ĠT entang
Ġn ew
k em
Ġq iu
p ar
Ġpos isinya
Ġs ambung
Ġw ater
ĠF ungsi
ĠBP OM
z er
ĠTI X
b r
Ġd ev
Ġpers ahabatan
ĠBukan kah
Ġm ang
uk e
Ġdir awat
Ġjad inya
unc uran
ĠI Q
d u
anc am
angk ir
Ġpasangan nya
ĠL enovo
Ġs uar
egr itas
ast is
Ġmenghar uskan
eg angan
es aan
ap annya
Ġj antan
ĠPen er
Ġpert olongan
M anfaat
Ġkait annya
ĠB an
C om
Ġd atar
Ġs aud
ĠDep artemen
Ġlel uasa
ro k
P G
ĠIr an
Ġh awa
Ġminim um
Ġc har
Ġkak inya
ĠB angsa
Ġb as
Ġpr ed
ĠM is
Ġd ollar
Ġse jalan
ĠR is
Ġangg otanya
Ġku ant
Ġpengh uni
eng si
ug uhkan
adi o
Ġters embunyi
Ġ iri
ĠB CA
ĠS ultan
Ġsen am
A G
ĠN atal
Ġ12 0
Ġh ehehe
inc ang
unc ak
ĠMad ura
Ġses ekali
Ġdis imp
Ġtab ung
Ġmembuktikan nya
m un
an amkan
Ġpert ambangan
ĠPut ra
ĠO perasi
ĠB ac
Ġpemin at
aft arkan
ĠC ik
ĠP aris
ĠH ot
mas in
k k
Ġpikir kan
ĠTu buh
Ġse arch
c c
Ġbengk ak
ekn ologi
ĠE S
Ġdit unjuk
ĠOrgan isasi
Ġkeluar kan
Ġm antap
Ġdatang nya
201 5
ĠH end
en ian
et y
ĠM ir
Ġmengec ewakan
pl orasi
Ġc andi
Ġb andung
uc ian
Ġt it
P L
Ġtugas nya
Ġdir encanakan
Ġk entang
in ja
Ġpers epsi
r ong
Ġbak alan
Ġmer angsang
Ġr eb
ĠSes ungguhnya
Ġher pes
Ġpeng endara
Ġt ro
Ġmener angkan
Ġimp lem
es itas
h ot
Ġpr a
ĠR EG
ĠP emprov
ĠK ing
Ter ima
Ġbal apan
R L
ĠAs us
ĠC ard
Ġmem anjakan
ĠO per
omb ak
p as
Ġl ans
Ġ5 5
r u
Ġmak am
Ġmel arikan
ĠLap top
Ġrep roduksi
J awa
ĠB oy
ĠC omm
ĠC ream
Ġkond isinya
w o
ĠPekan baru
Ġrek or
Ġprob lem
d ar
Ġmeng or
ĠOp tion
Ġmer iah
ut ih
Ġsek eliling
Ġseluruh nya
Ġdiper siapkan
o in
Ġdri ver
ic ial
Ġmeny ala
Ġpem ul
Ġmemas arkan
Ġk aw
Ġdi ungkapkan
ond ong
Ġmin us
Ġper ab
J enis
4 7
ĠUn i
Ġmenyel uruh
Ġterk ecuali
ĠServ ice
ĠG al
Ġlingk up
en uhan
ĠS esuai
entu m
Ù Ĭ
ul uan
Ġlog ika
ĠL ain
Ġ ).
ĠSip il
Mem iliki
Ġw at
Ġpu isi
ay anya
Ġed isi
im anya
Ġ udang
Ġpel indung
Ġpeb isnis
Ġper ak
Ġdip isahkan
B el
ĠG aruda
Ġ3 7
ĠAngg aran
Ġdesain er
ĠM ini
Ĥ ¬
Ġok sigen
Ġmis al
ã Ģ
Ġbuk unya
atar am
Ġmustah il
in ah
ap s
ĠL ee
Ġinst all
p i
u el
j emahkan
Ġg rosir
Ġb lu
Ġw al
D ua
Ġrek omendasikan
Ġr angk
Ken apa
Ġ ingatan
ul in
Ġkom ik
Ġpol it
ĠUd ara
ĠD ewa
ĠB udaya
Ġh igh
man i
t il
up ang
ĠR asanya
ih ar
Ġib ukota
Ġtel apak
Ġk uk
Ġk op
endapat kan
r ist
int egrasi
Ġpeng ajaran
Ġpend idik
ĠT inggal
Ġsk ripsi
ĠPer ang
Ġpenyel esaian
Ġt rop
Ġsurv ey
Ġters el
im i
ĠIns ya
Ġil egal
m os
Ġam alan
Ġmenyakit kan
tor y
ĠDP D
pun i
ap ore
ĠMus a
Ġs umur
e el
Ġdik aitkan
Ġkap sul
ac etan
Ġ200 2
Ġkem as
Ġsem en
Ġc ont
duc t
Ġal is
ĠD usun
Ġletak nya
y c
Ġakhir at
Ġditimb ulkan
h ab
al ar
ĠJ um
ĠT emp
ĠG a
Ġbet ina
da erah
Ġker ag
ist rib
ĠTu gas
ĠM om
m asa
ut e
Ġter endah
ektor at
Ġpemilik nya
Ġdik emas
Ġg emuk
Ġeksp resi
ĠM un
Ġpem bu
etu s
Ġad u
et h
ikm ah
iet nam
j angan
Ġbert empat
E F
abol isme
saf at
Ġpeng ikut
Ġreg ulasi
ĠF asilitas
inj ak
Ġ ukur
tuk ar
b ulan
Ġin isi
ag ement
Ġed ukasi
B isa
Ġaman ah
Ġmemb ikin
ĠS uci
ĠJ ati
umb ang
Ġroh ani
ĠR af
ul ette
l ami
Ġmed ali
Ġungk apan
angg an
Ġklin ik
In f
ern ih
Ġmeny embunyikan
Ġke gunaan
Ġmereferensi kannya
Ġmemb angkitkan
Ġmemper besar
ang d
ot h
ĠK arang
Ġban tal
ekan an
Ġmasalah nya
Ù ĩ
Ġnet izen
Ġs yah
angg akan
Ġm ult
is ap
any ikan
ĠS ari
ĠM I
ĠT ER
Ġmenyimp ulkan
ver s
tu g
Ġmeny is
ĠL antas
h ubungan
Ġkel ainan
n nya
k on
Ġi jin
ĠPel ayanan
ahas is
Ġdipr ediksi
l ihatan
Ġberm unculan
ĠM UI
ĠAp i
ĠA v
Ġ6 5
idup annya
ĠPer ubahan
ian a
Ġgerb ang
Ġ199 9
il er
Ġpered aran
ĠM alam
en o
ĠW A
uti ara
ĠSen i
d ah
Ġq q
app y
ĠF estival
Ġp idato
ĠSet idaknya
h el
ĠD j
ĠTr ade
r ay
Ġkont es
ĠBel akang
Ġir itasi
Ġtag ihan
Ġintelek tual
Ġmeng utamakan
Ġses aat
Mel ihat
Ġt ari
ug erah
W A
ĠS yah
Ġt end
t oko
Ġ <
Ġpend iri
Ġp ujian
Ġdar inya
Ġcer mat
ĠTer us
angga an
ĠDig ital
Ġbers ahabat
Ġng obrol
imb au
Ġhand uk
s yat
Pem erintah
Ġpeng er
Ġmerek am
urah mi
Ġst art
mer ce
ĠL og
Ġdit ak
UN G
Meng apa
ĠFil ipina
Ġp ori
ĠBat ik
Ġ ego
ĠM ataram
Ġberak tivitas
Ġp a
emb ahkan
ĠPer j
as ing
amp ingan
Ġlem bab
ĠYo ung
per imen
ĠC erita
Ġdom estik
ĠP am
ĠPol isi
Ġik on
ĠW is
Ġfleksi bel
Ġb obot
Ġkeber samaan
ĠYo utube
an egara
ĠBuk alapak
Ġkem ih
Ġmenc ium
Ġas alkan
uru g
Ġre ading
Ġinter v
S p
ĠBengk ulu
Ġkes ana
atan nya
Ġanti oksidan
ĠM all
ĠW ajah
ind akan
ĠMes si
b ang
p aper
Ġan tr
Ġser ibu
Ġmel u
ĠSo al
ĠPer angkat
ĠM ain
Ġkaf ir
Ġter oris
ungg ul
Ġdisimp ulkan
Ġseb utkan
EM B
Ġperk awinan
Ġr ontok
hit e
ĠTujuan nya
af kan
R umah
Ġp abrikan
Ġdik uasai
m ada
ĠB ad
es e
ĠL ab
ĠS unda
Ġberm utu
g round
ug aran
ĠAmb il
formasi kan
Ġstr eaming
ĠB PK
Ġl im
akt ek
Ġmus ibah
Ġ4 8
Ġdikab arkan
Ġperl akuan
Ġpel angsing
Ġterp asang
Ġberangg apan
Ġbah u
Ġakibat nya
P ress
Ġserv iks
Ġmenj angkau
Ġoptim is
Ġpah ala
Ġ199 8
p ay
Ġkej utan
Ġbers abda
Ġket ahanan
w e
ĠU jian
Ġdik embalikan
Ġmen unda
s k
Ġdij umpai
Ġd eng
k alau
Ġpenj udi
R E
ĠQ uran
Ġn ulis
Ġbah w
ĠR id
r ed
wal itas
ĠðŁĺ Ģ
AS A
da y
Ġsp ons
Ġmemba wanya
k ulasi
ad y
Ġmuslim ah
Ġbad annya
Ġi OS
ans el
ĠFak tor
Ġl isensi
il d
Ġta utan
Ġop ini
Ġmus isi
Ġk acamata
Ġter angnya
Ġdor ongan
Ġmenyus ul
Ġterl uka
ingan kan
Ġhad is
Ġperoleh an
Ġp ahami
Ġbal ap
ebut an
Ġsin ga
Ġradik al
Ġmeng etahuinya
ik lan
Ġh em
ĠIb rahim
Ġmemper caya
Ġberkons ultasi
ĠIns titu
Ġkel em
Ġpah it
et ing
Ġdikirim kan
ĠMeng ingat
M S
ub an
Ġpenj uru
Ġs int
l ai
Ġbul annya
pert ensi
Ġg or
Ġpas okan
ĠTer s
Ġc an
Ġpel ih
Ġpembers ih
Ġdip otong
ĠS imp
Ġproduk tivitas
aj ukan
Ġdiperk enalkan
ĠTr ump
ĠPeng guna
og ram
Ġpenyel idikan
ind ra
J AKARTA
J K
per k
imalis ir
er vasi
Ġt al
Ġj enuh
Ġberk ah
Ġmengan tar
Ġm ual
epak ati
Ġkomp likasi
ĠArt ikel
ĠSy ari
Ġpert empuran
Ġg roup
ĠM oh
Ġpetu alangan
Ġmengul as
ad at
Ġpemb alap
d isk
ĠGer akan
Ġk ip
Ġso ft
l ift
ĠSel alu
OB ET
6 9
Ġ6 00
is u
s idi
Ġpis au
V D
ĠTer imakasih
Ġkeag amaan
ep eda
ung utan
ĠPem erintahan
Ġterb angun
us ahan
Ġter ingat
Ġser angkaian
Ġhar m
Ġs ta
v es
Ġist ana
ĠK od
h ip
Ù ı
ig asi
b agi
Ġ0 9
Ġj angkau
Ġg ener
ĠSel engkapnya
n ess
tip u
ĠPer wakilan
ĠS ec
Ġr antai
Ġj ernih
ĠAd alah
Ġsek ilas
ĠKita b
Ġuc apkan
Ġg emar
ab il
ĠDan i
ad opsi
ĠPer m
Pr ediksi
o or
Ġmemba canya
m et
ĠL G
Ġ ol
ĠMet ro
Ġker abat
Ġsecepat nya
w ood
Ġv aks
ĠRed mi
Ġku bu
Ġsupport nya
Ġr incian
ĠPul sa
Ġpilih lah
min kan
Ġseh arian
Ġpan ik
Ġin c
Ġdib atasi
ĠI C
Ġters impan
Ġbeb ek
ĠAm p
E A
ĠS har
ewa jib
19 9
Ġmen anggapi
ih ad
Ġkel elahan
Ġsub jek
Ġkeh idupannya
Ġc ash
ĠR ambut
oc oran
pro gram
Ġmeny angka
or ter
Ġtransp aran
Ġrel awan
ĠPan itia
ond asi
om as
ĠMat ahari
ĠY ud
ĠArg entina
osan kan
Ġjah e
ĠPerg uruan
Ġkontrak tor
ampau i
Ġmakan ya
unc ur
ompet isi
ĠM ember
Ġsa bung
Ġb ung
ont ribusi
Ġkapan pun
ĠAk hir
ian to
Ġr adang
W S
ĠPer n
Ġtengg elam
aks aan
b ara
Ġum roh
Ġm untah
it ed
Ġfil ter
agn osis
Mas alah
O h
empurn aan
us her
Ġdid ampingi
ĠJ ack
ĠL owongan
Ġdit anam
ro gr
3 00
ĠA B
ĠHak im
olog y
Ġmum puni
ĠD ulu
Ġr entang
ĠM U
Ġny atanya
Ġpay ung
Ġar ahan
Ġk aku
Ġn oda
Ġim un
Ġmac et
Ġkes ed
Ġpen arikan
Ġp aha
ug u
Ġter ob
al isi
M emb
Ġpert anda
ag ak
op ang
Ġr encananya
in ian
Ġpad aku
uc k
Ġpen al
Ġf estival
Ġb ali
ĠS U
d k
Ġkem acetan
ĠP ac
Ġpri vasi
ender ungan
Ġkab arnya
Ġsa f
endara i
Ġt ulus
Ġb ening
Ġber isiko
Ġpeng ajar
Ġin ov
ĠW arga
d in
Ġc ic
Ġlengkap nya
int is
Ġap lik
ĠIn tel
ĠL ok
Ġ Ġ
Ġkeber anian
Ġberm ula
B uku
id ul
od ifikasi
Ġbermin yak
ĠC andi
Ġbar ulah
ĠK asih
ĠK L
Ġked okteran
Ġb ubuk
ĠC ust
isl atif
Ġbengk el
P oker
Ġkew enangan
ĠV an
oc h
Ġ0 7
Ġkel urahan
apat an
Ġdit engah
Ġdid ominasi
imp un
Ġp ompa
ot ongan
Ġsel angkangan
ĠT bk
Ġt ang
ork lift
ik al
ĠPeng obatan
Ġs andi
ĠB ea
Ġberga ya
akit an
Ġpengend alian
Ġl irik
Ġdis adari
and o
Ġr anjang
Ġter ikat
ĠR us
Ġtr aining
Ġt am
Ġc all
Ġl ek
Ġjej aring
ĠDem okrat
ĠL am
ĠG or
Ġdis uruh
Ġmemb osankan
ing s
p ad
Ġh onor
Ġbers t
Ġpet ir
Ġdiper s
Ġor gas
Ġmengin spirasi
Ġpeng lihatan
Ġsej atinya
es or
ot ek
ĠM ohon
ĠMaj elis
Ġkel engkapan
ĠSu ara
Ġsel isih
ĠL uk
f ord
F C
Ġd aftarkan
1 50
Ġintens itas
Ġf atal
Ġmener uskan
Ġp ir
f aktor
Ġterd uga
ĠPol sek
Ġdi pertimbangkan
ĠU I
ĠMin yak
Ġup ah
H ingga
ĠS m
] .
M us
b l
Ġk uku
ĠF lash
In g
ĠAn di
Ġmenyal urkan
ĠPer jalanan
Ġdic atat
ĠC amp
K er
S il
uk ulan
ĠT UHAN
hl ak
ho a
Ġmasuk nya
ĠPeng embangan
Ġh ero
ĠAl asan
c ap
Ġters erang
Ġpend amping
b eli
Ġal angkah
Ġmen argetkan
Ù Ī
ĠS uh
Ġmenc icipi
ĠAn ti
ĠV ietnam
Ġc c
k l
ĠNT B
Ġer ror
M isalnya
s ak
ĠTr ading
Ġmet abolisme
Ġpeng ujian
ĠB aju
Ġcab ai
Ġimbuh nya
asar ana
our inho
Ġsep at
Ġep isode
Ġp ayah
Ġberk ep
k h
ĠH indu
Ġterj atuh
Ġt ongk
le x
Ġpenyus unan
ĠDit ambah
ĠBanjar masin
asi atnya
Ġmal ang
Ġmend uga
Ġdit ekan
Ġber ant
kar ya
Ġkar angan
ido arjo
Ġl uang
Ġmer ingankan
il o
Ġ200 1
Ġber bayar
ku ad
ak o
Ġpeng ukuran
Ġber trans
Ġberjalan nya
ĠM c
ons um
Ġpen ampilannya
Ġsek etika
ur angnya
Ġberkh asiat
S istem
ĠPor tug
ĠK andungan
ĠB is
Mel alui
tim asi
Ġeksk lusif
ĠPemk ab
Ġrev olusi
ol ek
it ing
ĠKomp uter
Ġar g
Ġmenak utkan
Ġper batasan
um uskan
Ġap ik
Ġst amina
w eb
ĠF ed
eal th
u venir
Ġsel uler
Ġb enang
lu gin
Ġpes ona
Ġh ot
e at
ĠIn jil
s ampai
ĠProf esi
Ġmudah nya
K RI
ik um
Ġpopul aritas
ĠAs s
Ġtert idur
P adahal
Ġterbaik nya
Ġtinggal kan
Ġp adang
Ġper airan
Ġtuk ar
Ġc le
Ġdi buang
Ġberkembang nya
az z
Ġh ab
Ġt omat
Ġsin etron
hi asan
rogr aman
ĠP G
Ġkeh abisan
ĠC B
ĠC ip
Ġdi are
Ġkem auan
Ġkeped ulian
ĠA di
Ġmem baik
Ġma x
Ġr efer
Ġkeb anggaan
Ġb eber
Ġb ata
Ġc opy
\ \
Ġsed er
Ġmake up
ĠK opi
Ġdi eks
Ġmencer minkan
ĠF er
Ġkr ed
ID S
av e
Ġindepend en
Ġresp onden
Ġterp engaruh
ant auan
A walnya
Ġbar unya
s s
ĠYou T
ĠAPB D
ĠAng el
ira usaha
Ġpingg ang
K AN
Ġind eks
ap likasi
S ama
Ġins ya
ev en
B isnis
ĠS id
Ġdic etak
ung ut
Ġmengak tifkan
m od
Ġbaga imanapun
ad am
ĠTer j
al itas
Ġmend eteksi
Ġs tu
Ġr otan
al ukan
Ġinf lasi
ĠAt let
ĠN at
eng erti
Ġperg antian
Ġt sb
ĠK us
Ġsk ema
ĠD ok
ac t
res iden
ad w
Ġp ik
angs ungan
Ñ ı
Ġt awar
ĠLap oran
ĠK M
ĠJ urusan
tu anya
Ġmengg oda
Ġdimas ak
Ġl up
Ġw ord
Ġn ol
Ġberk ala
ĠSeb agaimana
B aca
ĠSB OBET
ĠM uda
Ġfak ultas
Ġter ipang
x t
ĠA q
Ġproses nya
Ġmak alah
Ġ 00
ĠWord Press
Ġd rop
B arang
ub uran
Ġberkel iling
Ġsesu aikan
ĠIn t
Ġg amat
am al
ĠB anda
Ġberkom itmen
enc ing
ĠM AN
Ġmenc arinya
Ġbij aksana
Ġ ^
ĠP anjang
Ġsamb al
ĠPen j
il ir
ĠBel gia
Ġmend esain
ir l
Ġber ujung
ĠS ay
Ð° Ð
Ġtegas nya
Ġber anjak
tiv e
ĠBer s
ander ol
Ġkek hawatiran
si ap
ĠL ink
ĠBal ai
iner gi
Ġas ma
Ġs ob
ĠS af
j ok
ask et
I m
tim oni
ĠJ NE
lok ir
H z
D P
Ġmeng gun
Ã Ń
Ġpemb eri
Ġw ifi
ĠE mas
Ġdiar ahkan
ĠB ER
Ġs d
Ġpas ta
ĠB angka
N C
Ġn omer
alam inya
Ġmew ar
Ġseg enap
Ġny amuk
Ġkontr a
l it
Ġl ega
Ġberk ec
Ġ ajak
ĠTan aman
j ang
f il
i uman
ĠPer c
ĠUM KM
Ġpej uang
angd ut
Ġpac aran
Ġkep astian
Ġd ukung
Ġk uman
ĠMas ing
ĠLi on
at on
Ġasp irasi
Ġf older
ĠHar apan
at o
Al hamdulillah
ĠKom unitas
Ġ awan
ĠPer nah
Ġkol oni
Ber bagai
Ġreli gi
ĠTex as
Ġb abi
ia wan
PT N
Su atu
ĠB alik
ĠT es
ĠFor um
ed isi
Ġas alnya
Ġap otik
Ġpers entase
Ġpers atu
Ġp ag
ech n
Ġbers ejarah
ĠR ec
ĠP engg
Ġmem ilikinya
Ġla utan
Ġkonsult an
Ġind ikasi
Pern ah
k ep
K ons
am era
Ġy og
Ġjam u
um us
ons ter
ĠPang eran
Ġdim engerti
k et
Ġpemb akaran
b enda
ĠK A
oll y
Ġmark as
Ġd urian
Ġdik laim
Ġc afe
ĠSt andar
Ġberj udi
ja wa
Ġself ie
ek ad
Seh ingga
Ġsun nah
ap asan
Ġmenump uk
ut sal
l ek
Ġdip asarkan
Ġsh ow
Per k
N G
Ġmeny alahkan
Ġus ulan
Ġkeh ar
Ġnet ral
Ġberk esan
z al
Ġdib edakan
Ġterd akwa
6 8
ĠAn ies
Ġbers atu
Ġmer ujuk
ĠD ev
imp unan
Ġv an
ĠS is
ga ulan
Ġko in
ĠK ayu
ĠP AN
Ġrel asi
ĠKeb udayaan
Ġm iring
r eg
ĠS imak
Ġberd ekatan
ĠKec uali
ĠKr edit
Ġmemberit ahukan
ĠM aksud
ĠCl ub
Ġsis anya
Ġbisnis nya
Ġmom entum
ĠW in
Ġs ter
Ġpend irian
Ġpengh asil
ig ur
Ġpermain annya
ĠRup iah
os istem
ren eur
ĠJ elas
ĠK eter
Ġmem uji
j akan
Ġdib el
Ġpenc urian
Ġdit ahan
j elas
Ġt adinya
4 2
Ġob esitas
Ġl ib
ĠPer d
Ġker angka
Ġfam iliar
ĠD on
Ġmer ancang
Ġmel ewatkan
Ġrum ahan
ohan es
ĠS I
Ġkal ender
Ġ ....
ĠL et
us antara
ograf is
ĠL TE
si um
Ġdr astis
Ġf a
Ġtak tik
Ġpeng emudi
c s
Ġpeng angg
Ġpart ner
ĠBag us
c on
Ġpel uncuran
ĠA yu
ĠAdmin istrasi
ĠM ourinho
ag us
Ġber adaptasi
ĠT egal
Ġdi uji
ĠR at
Ġbers el
ĠKat olik
Ġdom ba
ĠW ir
Ġterin spirasi
ag anya
ti anak
uk ainya
Ġterk end
ĠS ap
at ika
Ġd alil
Ġdesk ripsi
Ġdig ambarkan
ĠTr adisi
ĠUl ama
Ġrek reasi
Ġr awan
Ġhit ung
Ġr ujukan
ĠJ ung
. )
ĠAb d
Ġl ic
ĠSy stem
ĠV ir
aman nya
ong hoa
ĠM M
Ġ199 0
Ġm y
ala ihi
Ġkak ek
ela buhan
ĠS ut
Ġmenu ai
201 4
Ġb b
Ġped ang
ĠMod al
v ia
Ġter per
Ġpr int
B erita
Ġmeng ungkap
l anjut
ĠB apa
angk alan
Ġperkembangan nya
Ġberf oto
Ġst op
r b
K T
M enc
ĠD ur
Ġpen amp
Ġmeng optimalkan
Ġked alaman
Ġkel iru
Ġwith draw
Ġya a
Ġj i
B aik
0 9
ĠSt adion
Ġmem aparkan
yar atkan
Ġsi f
p aru
Ġc ry
ĠL angsung
Ġst yle
Ġmenghal angi
Ġbi oskop
Ġkeber adaannya
Ġteg ak
in ilah
r us
Ġmeng ikat
Ġmengg ambar
v i
ĠMan ager
Ġse o
Ġkel ola
Ġtand asnya
Ġs arang
Ġdevel oper
lah ir
ser o
ĠS itu
apat kan
Ġmend ekat
j ung
il asi
l agu
Ġpen empatan
Ġuntuk nya
ĠT otal
Ġn ar
Ġmen anggung
ĠSej arah
Ġc intai
Ġdi ukur
Ġland asan
ĠTok opedia
iaya i
aw ei
Ġsem udah
12 3
ĠIN D
M ar
ukup nya
Ġsep asang
ĠAd anya
Ġmo od
ĠAri f
Ġkeluar nya
Ġal as
Ġk ang
ateg or
Ġh antu
ĠViv o
angsung kan
6 7
AR I
Ġform ula
Ġr ob
H ai
Ġg u
uk au
Ġng er
Ġtak si
ar eng
ena an
ĠU st
Ġmem otivasi
aj ai
ĠB angunan
Ġsp ec
trans fer
Ġmem ut
Ġt ayang
D ir
ĠA yo
Ġpro gr
Ġorgas me
z ikir
Ġpil kada
Ġmeres pon
om en
Ġag resif
Ġreal itas
Ġ elit
Ġdah syat
ons tr
ĠDis amping
ib atan
Ġnorm a
angg ang
E AN
Ġter atas
ĠG en
am ana
ĠSur ya
p lier
ĠJ ember
Ġlar ut
0 4
U p
ĠM ama
Ġmen etap
ĠJ at
Ġsar jana
Ġmel impah
Ġmemb enarkan
int asi
Ġberm aksud
l ian
Ġd erita
ug at
ĠBi ar
ĠYouT ube
k w
esi gn
S T
Ġimplem entasi
Ġm eg
Ġguy s
ĠB intang
Ġdip ublikasikan
Ġt opi
Ġas umsi
Ġpar fum
ĠAk un
ĠK it
Ġlam aran
ĠB udd
O W
Ñ ĭ
eg era
ku it
Ġmeng ikut
Ġterc epat
unj angan
ip kan
Ġprop osal
g ht
ser vasi
ant asan
b on
alam annya
es okan
Ġib arat
à ¤
r olan
Ġdil etakkan
und am
uk ar
Ġset inggi
Ġp utusan
gun ya
Ġbed anya
Ġsec ukupnya
Ġg and
Ġ Ã
Ġanti biotik
Ġpemb uka
urn alis
Ġm and
Ġf ood
Ġmel ampaui
Ġpers alinan
Ġ ec
ra z
ĠF ashion
Ġberk ontribusi
Ġkemb ar
Ġm ant
Ġr indu
Ġw angi
ĠSe iring
Ġb asket
Ġder as
ĠC om
as on
Ġmenghidup kan
?? ?
ens in
Ġpenderita an
ab atnya
Ġmemperk irakan
Ġpas alnya
Ġsep ele
uti on
Ġbers abar
Ġsepat utnya
ĠP ondok
Ġber ta
II I
Ġpr ima
Ġp ink
ĠKe untungan
ĠT idur
Ġsp eed
Ġtrans misi
Ġd am
si f
Ġkon ferensi
Ġn ota
ĠD uk
ap res
ari at
ĠS ayang
Ġperk otaan
ĠPeng ertian
Ġin put
re ak
Ġpeny esuaian
ĠP ad
Ġkec enderungan
c ana
Ġ8 8
Ġmen t
ĠA R
Ġsem alam
ĠPer sib
Ġmu atan
f itur
Ġkeb ugaran
Ġt aat
ĠAl asannya
Ġc enter
Ġkecil nya
Ġmeng angg
T ER
iring i
Ġindah nya
f or
Ġkeju araan
ĠH ubungan
Ġab adi
Ter l
all allahu
Ġki amat
ul at
Ġben ak
ĠCh i
Ġter integrasi
ĠTi ens
Ġekstr im
Ġperson el
Ġmeny atu
Ġpen inggalan
Ġpembuatan nya
Ġm ahasis
en ario
Ġmend ominasi
Ġkh asiatnya
d am
Ġkepad aku
Ġikut an
eh arto
ic on
ograf er
Ġdis etujui
) :
Ġsuar anya
c al
Ġotor itas
Ġpend arahan
oc al
Ġf resh
Ġin sp
Ġn apas
pek tif
Ġprot es
oy ong
Ġmen anti
aw ati
Ġkes er
tuk aran
h en
Ġ4 2
Ġsab lon
Men y
or er
Ġmengan alisis
Ġins truksi
Q S
D ownload
Ġdil ap
Per usahaan
D R
empurn akan
ĠP ok
Ġmend aki
ĠKeb ijakan
F ilm
Ġmeng awali
Ġdis embuhkan
Ġketer t
ĠPas tinya
Ġsetelah nya
Ġpas t
Ġmer en
' ,
Ter kait
ĠKem ampuan
ĠT om
Ġkes ukaan
Ġberb uka
Ġdius ung
Ġjenis nya
Ġdimin um
i ak
Ġpap aran
ta c
Ġkon on
ex t
tr is
Ġkulit nya
ros s
Ġdik umpulkan
Ġins iden
ĠB L
an o
Ġf ir
Ġdiv isi
ua an
Ġjalan i
Ġmem ajukan
ĠG R
Ġcer min
Ġtel pon
ĠL os
ĠKar enanya
Ġmen abung
Ġmeng etik
Ġ eh
ij rah
v est
Ġket enangan
ja ck
Ġmel ompat
Ġren ovasi
ĠN asi
N g
ĠPa ul
um u
s os
egi onal
Ġr un
Ġper jalan
Ġmenj atuhkan
ĠDi visi
0 7
Ġis teri
Ġl engk
Men jadi
ĠM L
ĠEk s
ah ir
P d
Ġmeny imak
Ġop en
r ep
g antungan
ĠPen ulis
ĠGer indra
ĠF irman
Ġs ingg
Ġter uji
N N
Ġpemb antu
S ayangnya
Ġpem rograman
Ket iga
Ġres m
ed ding
ĠTer k
ud ar
ĠKara wang
ĠK operasi
er min
Ġdihar uskan
Ġkup on
ĠI dul
et r
ris tian
erita an
Ġhak ikat
Ġtel at
Ġterb uru
Ġberes iko
Ġw ew
w aran
ĠAmp uh
Ġsa j
Ġ Ø§ÙĦ
Ġkag um
Ġmer deka
Ġh amp
ord er
K G
ĠJu ara
ĠP alu
Ġmenyer takan
Ġkeseh arian
ĠAmb on
S angat
Ġre formasi
Ġtravel ing
Ġm ebel
A b
ĠS L
Ġg ej
ij i
bar ui
Ġkarb on
baik nya
eri al
Ġpes isir
ĠSo alnya
Ġpel engkap
Ġkontr as
ĠMin imalis
! "
S c
Ġdid epan
Ġdib anderol
Ġtik us
5 9
ĠSing apore
Ġpro spek
Ġinov atif
omba an
ĠSek itar
Ġb anding
asa annya
Ġkre asi
Ġsop ir
Ġter ancam
ot t
Ġdek ade
ener nya
ĠE t
Ġk orea
Ġmemper panjang
Ġmengus ir
Ġpr asarana
z u
Ġban t
end ir
Ġmi x
am aku
k amah
Ġpemul ihan
ĠN ar
uny it
Ġc up
ĠH aji
Ġaktiv is
um ulasi
Ġper gaulan
ir at
uli ahan
wajib kan
ĠB ut
Ġd uka
aj inasi
ĠK ualitas
uj uran
ĠL uc
ib li
ĠA P
Ġmeny ingkirkan
all y
Ġger ai
ĠS iti
ri o
G o
ja zah
m ing
Ġmel ancarkan
Ġh or
-- --
Ġkul kas
u u
Ġmemf asilitasi
ĠAbdul lah
Ġpenangk apan
oa x
Ġberk e
c aan
Ġr atus
Ġbuk alapak
Ġp aruh
Ġteb ing
men y
Ġj umpai
organ isasi
Ġses ak
Ġma ag
and ia
Ġkey word
Ġkons ekuensi
Ä ģ
ĠDep osit
Ġper lukan
K U
or b
Ġkeber atan
lig ht
uas ana
Ġbers ihkan
Ġet nis
Ġfungsi onal
ĠFit ri
it ahu
ĠIng in
ĠR A
Ġkes i
Ġb ubur
Ġpr im
Ġberb uru
ĠIn tinya
ob e
Ġa z
Ġpen unjang
ĠPemb el
Ġmeny eg
Ġh ome
Ġjar um
Ġbal asan
Ġb oot
al ihan
Ġwork shop
ind arkan
ĠT ot
Ġad iknya
ĠPol itik
Ġbes aran
Ġr asional
ĠTelkom sel
Ġmem ikat
ind ukan
ĠT au
Ġout door
0 2
Ġmanc anegara
ur ukan
eb u
em in
ub is
ĠC abang
ĠI de
m urah
ĠKer eta
ĠN ap
o ordinasi
wi jaya
I R
Ġso uvenir
arm asi
it el
Ġmemin imalisir
Ġketi ak
Ġf iber
m akan
Ġs adari
Ġkeh ormatan
v el
c epat
ivers al
B L
aj ib
ĠW est
ĠSo o
is m
Ġp ang
Ġberkes empatan
Ġat r
Ġt rip
Ġgug ur
Ġmisteri us
um or
ĠF ar
Ġpers pektif
â Ĥ¬
Ġberkom entar
Ġh ama
Ġs yar
ip u
Ġk iat
tif itas
Ġv iew
Ġper awat
ĠP impinan
z at
ĠKan ker
Ġsek under
B elum
ed an
ĠIn form
Ġdid unia
ĠD ong
Ġdihar gai
Ġgen re
iq ah
k awan
Ġ8 00
ur r
Ġdi ucapkan
ĠIn vestasi
Ġpenjelasan nya
f ul
is ili
ĠSeg ala
Ġga jah
Ġmempercaya i
ĠH ongkong
ĠS ahabat
ak r
t okoh
Ġpers ediaan
angk itan
om ing
em aran
Ġkomp r
S esuai
Ġat a
ĠI ya
imb angi
ber g
Ġ ing
ut aran
Ġpengu asaan
di am
ĠP e
ĠSo eharto
Ġmemas ukan
Ġperson il
adi un
og n
Ġmeny etujui
Ġ os
Ġup load
Ġc hannel
ĠU t
Ġarsit ek
Ġberd iskusi
ĠSes eorang
Ġm ung
Ġpeng ajuan
Ġdi wajibkan
ĠL ip
Ġkur us
Ġdih ubungi
Ġmembuat mu
C C
Ġkayak nya
O H
Ġuang nya
p os
Ġped esaan
ĠPon tianak
Ġdip egang
re kan
eg et
ig er
Ġb ilangan
eh atkan
Ġr inci
s enang
Ġsin ilah
ak ta
Ġmend ampingi
Ġmemb atalkan
Ġan al
ĠS iap
Ġst y
Ġaud it
k ami
Ġorang nya
m ati
ĠB K
op o
Ġmener bitkan
Ġter tib
ĠUn d
m it
Ġmel aju
Ġsat elit
Ġjag o
Ġtrop is
Ġj ersey
ĠSe o
t asi
Ġv isa
Ġf an
Ġdis epakati
ana an
Ġcer pen
Ġf ollow
istrib usikan
Ġmembu ahkan
Ġfil safat
Ġber turut
Ġsej ahtera
ĠSur akarta
ĠP egawai
str ak
Ġac ak
est arikan
ĠPerb edaan
Ġdih apus
ev iew
âĪŀâĪŀ âĪŀâĪŀ
Ġm alahan
q uran
ĠB elit
Ġd ual
Ġbar angkali
ĠC EO
Ġdip esan
com e
Ġberj enis
Ġspons or
il le
Ġj emaat
Ġh ikmah
ĠG h
ul iaan
ĠGl obal
ĠH R
ĠD ap
m isalnya
et ooth
ĠTer p
Ġvag in
Ġtel anjang
Ġpenerb it
Ġide ologi
I ya
Ġdit anyakan
Ġjep ara
es erta
ĠP elabuhan
d iri
K as
Ġback link
Ġd endam
ĠM uk
k us
ĠF ree
Ġdib icarakan
Ġj uru
ens asi
ĠD ri
ordin ator
Ġkes enian
B D
Ġberf okus
em bab
Ġb asi
Ġberm impi
eng ok
Ġng omong
ya w
ĠB on
Ġd enda
uk l
ĠB atang
l m
ol eksi
Ġpip i
Ðµ Ð
ĠO s
ĠPh il
Ġmempert emukan
s yah
Kon disi
ĠPert andingan
A A
Ġhi pertensi
g l
id angan
okus kan
Ġdis eb
Ġn ipis
Ġs kuad
c akan
d en
Ġper iksa
ound ation
ag ihan
Ġhel m
Ġkont ro
ala ikum
ĠK isah
au kan
ĠCl ick
Ġmem engaruhi
Ġpap arkan
Ġmul anya
Ġm awar
Ġsamp ingan
Ġek osistem
ĠV ol
Ġga un
or ama
, .
Ġmembuat kan
Ġberk uasa
ch en
ĠSn ap
ĠPa ulus
Ġb est
Ġpembu angan
Ġkuant itas
ban k
E I
Ġr oll
epan kan
Ġap p
and uk
l eksi
o on
Ġpen olakan
ac ing
Ġb ensin
y yah
end i
ĠKan ada
ak n
ig o
ĠPerj anjian
Ġmem il
ain t
Ġdip aksa
is nya
al ut
g it
Ġwis uda
ĠTai wan
ar en
Ġr ancangan
ĠPerk embangan
Ġj umpa
sun ami
An gg
il mu
K eh
re at
Ġdik urangi
ĠH UT
Ġpengec ekan
Ġbal as
Ġn aga
ya di
Ġpers atuan
r in
Ġmembesar kan
ig urasi
Ġpen anaman
Ġdik au
Ġg es
c ar
ĠP U
ĠP asi
ek omunikasi
oter api
Ġkend ali
Ġint egritas
emb ahan
ï¿½ï¿½ ï¿½ï¿½
Ġout put
Ġmeng emukakan
utrad ara
Ġmengk lik
ut ri
Ġ arab
Ġterd ahulu
u it
ĠG PS
ĠMeng obati
Ġmenc olok
Ġangg apan
ĠB rig
amp iri
Ġmemp roses
Ġterl upakan
Ġpenyedia an
ej ar
k elompok
ĠC al
ain er
Ġg ini
Ġes ensi
Ġberl omba
Ġk lo
ĠK ro
Ġtampil kan
Ġmengap resiasi
Ġdig antikan
ĠIst ana
ĠE c
ĠLin ux
G ame
ĠR el
Ġj emp
ĠAs uransi
ĠSer ang
0 3
Ġes ok
5 7
Ġhorm at
Ġhtt ps
N L
Ġkek inian
d ia
Ġsur ya
Ġd adu
Ġb il
Ġd ay
Ġberb unyi
Ġj elly
Ġs tim
Ġg anj
Ġmod er
Ġr ew
Ġteror isme
Ġperl awanan
ob by
0 6
Ġdi undang
ĠK ont
Ġdar atan
ĠS upaya
Ġp ek
Ġmen entang
Ġmel amb
Ġmengenal kan
ĠA ward
ĠB int
Ġ ombak
Ġper hiasan
Ġkem eja
Ġmom ent
Berb eda
Ġpap arnya
Ġdid engar
um bat
Ġboc or
Ġberk er
r itik
ĠD aud
ĠAn tara
esan kan
Ġcap ek
Ġmemper lakukan
if at
Ġseg er
k up
Ġpeng amanan
m au
Ġspe aker
og an
g orit
Ġkar unia
res ik
Ġk iranya
ĠHP V
har d
Ġv ok
Ġkons ol
Ø§ Ø
elanja an
Ġmengger akkan
Makan an
Ġvir al
ĠBay angkan
y ani
ĠV is
S ebab
å ½
amp aian
Ġn usantara
ĠMem ilih
Ġob rolan
ĠR ektor
Ġbawah nya
ĠH umas
Ġpul ih
Ġid aman
Ġkes em
Ġbers inar
enc ian
ĠSe pertinya
Ġb ec
Ġperp aduan
Ġf isika
ant ar
ĠMen u
Ġresm inya
ihar apkan
Ġc uman
Ġil ustrasi
Ġmeng ulang
ĠS obat
ĠKons ep
ĠP angan
Ġsar ung
f ilm
i asakan
Ġt arian
ĠP osisi
ĠGar ut
ĠHu awei
A Y
iz za
ĠC os
Ġdid orong
Ġkes ep
ĠW ater
C erita
Ġs tore
x el
ĠL ebaran
j akarta
Ġkes amaan
Ġkap as
husus kan
ĠS idoarjo
ĠU GM
Ġins an
Ġkond om
ĠP ort
Ġmemper juangkan
Ġhat iku
es at
ul ing
Ġdim uat
r ajin
Ġt dk
Ġmen iru
ap al
ĠH ead
Ġpriv at
Per sero
etu gas
Ġbertrans aksi
Ġharm onis
Ġbern y
ob o
Ġsif ilis
ĠH us
ek t
Ġbers epeda
Ġgur ih
Ġleg enda
ĠTi onghoa
ĠN ik
Ġpers amaan
ĠIn n
Ġdis fungsi
p ori
ĠD h
A ir
Ġbut ir
ant ing
int ahkan
om et
isk usikan
b us
âĢ¦ ..
Ġpor no
Ġwall paper
enar ik
M end
Ġkon dus
ĠKeb umen
Ġr int
Ġsel agi
ini um
Ġor al
ri ck
hats app
adi kan
ob alisasi
Ġbu g
ĠNew s
Ġpemba wa
un ter
Ġhard ware
Ġs ate
el g
ong ga
Ġhilang nya
Ġsir kulasi
d ney
p emb
Ġemp uk
ĠB os
Ġmenel epon
Ġpolit isi
Ġmeng endarai
ati ons
Ġas ik
Ġf orklift
Ġs ingkatan
Ġmay at
Ġkehar usan
on line
ib ar
o e
Ġdi und
ĠB ack
Ġsuper market
emb ar
Ġ8 5
Ġberp akaian
Ġmember nya
Ġun gu
Ġsu g
si fat
Ġprop olis
Ġdesain nya
Ġke ta
up as
p oker
Ġberant akan
ha el
Ġkondus if
Ġleg end
ov a
Ġpener us
Ġt ud
Ġmulut nya
ĠL engkap
Ġmel intasi
Ġb iner
em atkan
ra ft
h il
ro b
ay asa
c us
ĠI t
y eksi
ĠPeng h
Ġjangkau an
Ġkis ta
amer kan
tik al
Ġmeng injak
4 3
f ren
ĠAS EAN
B K
Ġberg el
Ġtah anan
Ġmeny atukan
Ġpopul ar
il eks
" :
Ġkus am
Ġtek ad
Ġpro duct
por a
uc ap
or ak
Ġper tukaran
est ari
ic s
ĠB ox
ĠM S
Ġpengen alan
ic es
U U
Ġ12 5
Ġkom edo
Ġmengel ilingi
M at
Ġar sip
Ġ ust
4 00
ak ian
ab ad
Ġ ubah
ĠT anda
ĠL CD
Ġpengu atan
ategor ikan
ĠSer tifikasi
Ġberp isah
Ġkirim kan
Ġheb oh
F F
ri bu
Ġmemb imbing
al uran
Ġl adang
ĠPDI P
Ġmung il
Ġpel amar
uh yun
Ġmemaks akan
Ġkreatif itas
Ġbelakang nya
ĠD er
ab uk
ep et
Ġleg islatif
Ġr aih
Ġsedikit pun
Ġb imbang
Ġak ut
ĠBelit ung
ĠKar akter
ug h
adw alkan
M et
ĠM iss
and ra
Ġtemb akan
ĠW as
m ungkin
Ġmempert anyakan
en ial
Ġmenya d
und ry
ĠSer ing
idik i
ja jar
Ġt inta
Ġb angk
Ġvaks in
e aksi
ant asi
Ġpemb esar
Ġbuah nya
os at
Ġkam arnya
ed ah
Ġpem enuhan
Ġeksek utif
Ġmel intas
ĠH old
ĠBr omo
Ġcipta an
Ġmen eliti
el kan
aras umber
ĠT M
id in
ort h
m ed
on ia
Ġj uri
Ġpenutup an
Peny ebab
Ġtes timoni
Ġmengin stal
Ġkil ogram
Ġmeng esankan
Ġ0 6
Ġbay aran
Ġker ip
umb and
Ġs ind
Ġkel inci
Ġlanjut kan
Ġas isten
S tr
ĠKep olisian
Ġch ips
Ġmel acak
a ult
ell ing
Ġberter ima
ĠS S
Ġdic eritakan
ĠT R
Ġdibayar kan
ĠP sik
Ġt oh
Ġkol aborasi
ĠF ah
Ġtr ag
Ġpeng ungsi
umb angkan
ad iran
Ġb intik
Ap alagi
ĠJ embatan
Ġb angs
Ġp lugin
a ba
ĠL aki
Ġimp ort
' '
i or
Ġro ot
Ġkes embuhan
Ġbaw ahan
as angan
Ġsilat urahmi
h in
Ġtemb us
ĠPro t
ongk rong
ĠSil akan
o akan
Ġmen ata
ĠP lan
Ġbatu an
ĠPus kesmas
Ġlem as
ĠPer si
ĠY er
Ġsem asa
Ġhas rat
Ġketer gantungan
Ġpl akat
Ġdijalan i
Ġpem icu
K ec
tab le
ĠKapol res
Ġpol usi
Ġrah mat
Ġdic intai
Ġs ombong
B iar
Ġc ucu
ĠP H
p n
ĠK O
ĠT iket
Ġy oga
Ġund uh
ĠSM AN
Ġmeny ehatkan
e alisasikan
Ġbel aka
p ula
Ġl ebat
Ġstudi o
Ġr id
ĠKe y
Ġpeny erang
ĠKur si
ĠS C
Ġperl ombaan
Ġprov ider
G er
Ġser entak
Ġsim ulasi
ĠT uan
b and
Ġdihad apkan
Ġh ost
Ġpelih araan
Ġt ayangan
Ġkes et
Ġperb elanjaan
s umber
ch ing
ĠPer hatikan
Ġmas sal
Ġr empah
ĠV i
Ġsa ing
Ġpap ar
Ġres ervasi
Ġmeny et
Ġperbuatan nya
ĠMas uk
Ġbertambah nya
Ġrambut nya
Ġar mada
Ġk ado
ĠJ AKARTA
Ġcer ia
Ġgil iran
J NE
Ġga bung
ĠInd o
Ġl ot
ĠJ ab
y uk
ay ati
Ġb enteng
Ġdip indahkan
Ġdiber lakukan
Ġkek ec
8 5
ĠSy am
Ġbi as
Ġkec anduan
Ġindivid ual
Ġp uc
Ġbed ak
emp arkan
Ġberj umpa
D esain
ĠPer juangan
ot ika
Ġur aian
p m
Ġlag unya
ĠTel uk
Ġpro ject
ĠPel atihan
Ġal m
Ġp ura
tr en
4 1
ĠDa un
T ah
ĠAk ses
Ġad uan
Ġsumb angan
ĠSyari ah
usah akan
enya p
T T
Ġpetern akan
Ġterob osan
Ġfr ame
Ġmembant ah
i ya
am eter
n an
ĠMat ematika
enj ata
ĠT eb
Ġwa cana
Ġterj emahan
Ġh o
Ġmeng evaluasi
k g
awas lu
Pr ia
Ġmah ir
ĠZ ul
ĠPram uka
w ai
ab umi
em ur
s ep
ĠAtlet ico
Ġmel anda
ff ee
Ġmula ilah
em is
ul aran
b as
Ġl ilin
Ġdil indungi
Ġberc ampur
Seb agaimana
Ġdit anggung
ĠOp en
ĠB ulu
Ġm estinya
ĠJam es
ĠM and
ur ai
ĠC iri
sek olah
ab dian
ĠAl f
Ġ4 9
ĠL omba
ik api
ĠC ore
ĠG ak
el us
Ġorang tuanya
ap ar
aw et
e in
j uh
Ġkar yanya
Ġb uru
ĠTer besar
Ġ4 6
ĠM itra
Ġpengangg uran
ĠA G
Ġlingkungan nya
Ġtend angan
es el
Ġmemak ainya
n ia
T an
ĠMah kamah
Ġr ej
ĠN ot
ĠT eh
Ġn av
Ġpar as
st at
eng at
Ġ199 7
Ġmenc at
Ġmenya pa
y ong
P ER
ĠR encana
ĠA rea
Ġlup ut
Ġkep ulauan
Ġkeb encian
Ġkart un
Ġmen ari
D r
Ġsc an
ĠKeb utuhan
Ġp ukulan
Ġp ondok
ĠC up
ĠHab ib
Ġl isan
Ġmel uas
Ġmeng edit
Ġsem isal
Ġdij angkau
w on
Ġpeman asan
c er
Ġmeng unakan
ĠB est
ĠPer umahan
Ġm uj
ĠN e
ar n
Ġ0 2
Ġgam is
Ġdib unuh
H ad
Ġmem ukau
Ġor g
m emb
ĠM eja
Ġber asa
b arkan
Ġcust om
Ġpenal ti
Ġke ingin
ok asikan
Ġperm en
Ġt uhan
ĠKu ala
Ġberg egas
ĠT ek
ĠSeri bu
and el
Ġmengan alisa
Ġbagai kan
anc aran
impi ade
ikan nya
Ġberd asar
t ai
por si
Ġpen entuan
ĠH ard
Ġmem injam
w id
Ġk awat
g h
ĠMad inah
Ġdri ve
ĠBlu e
ĠPer dagangan
p apan
Ġtamp an
imp lem
Ġklin is
ul es
ĠB angkok
ĠP uncak
anya annya
Ġpokok nya
ori entasi
ac i
ĠNT T
Ġmemper ingati
Ġmel amar
onsum sinya
Ġund ian
ĠL ine
li am
Ġtim b
Ġnas ihat
Ġm ikir
ĠS ah
el ess
ĠAm az
Ġh ang
amb ungan
is timewa
TM L
Ġber gi
Ġkuat ir
Ġkrim inal
Ġpen angg
alo gi
ĠProduk si
t ensi
Ġberst atus
ip ulasi
Ġmenc ur
ĠMoto GP
Ber ry
Ġdik onfirmasi
ĠJ itu
Ġsejenis nya
f one
Ġp ing
af on
Ġberny anyi
ĠC le
han i
Ġmeng idap
Ġrev isi
Ġr anah
I TA
Ġben ua
tar anya
Ġs angka
O r
Ġmengh erankan
ĠH utan
Ġl in
Ġg alau
Ġmemba wakan
ĠStr ategi
Ġtah ukah
Ġh enti
w ira
ĠCC TV
Ġki os
Ġr ingk
Ġdit el
Ġn is
Ġ ama
aka ilah
Ġc uti
Ġkem uliaan
Ġs um
it ungan
Ġmod ul
Ġst adion
Ġmasyarakat nya
Ġsekolah nya
ĠH arap
Ġs aku
Ġdit and
Ġdesk top
ĠD ah
ĠF at
ĠSo uth
l ow
Ġkred ib
es alan
Ġbrow sing
Ġmengur as
Ġmenj amu
ĠM B
Ġmenaik i
ĠJ uta
ĠMod ern
Ġkal sium
rof esi
s in
Ġon e
Ġb ent
Ġsat upun
Ġsek elas
Ġdil atih
ĠTi ba
U m
Ġl aju
Ġkeb aya
Ġb enci
ukl ir
b atu
ati c
ĠES Q
Ġinform asinya
Ġsa us
ĠBo j
ĠY ohanes
Ġpenc inta
en ali
Ġbers enang
.. ...
ĠMen ang
Ġtemp ur
ĠSum ut
ed uh
ĠJ abar
Ġmengg and
k ons
ont an
Ġil m
as ter
d s
ĠJ un
ĠH K
ĠK encing
ian o
Ġperk uliahan
ĠC oll
ĠMel ayu
h um
Ġelektr ik
t ain
uf aktur
ĠH adi
ĠK in
Ġpungk as
Ġmeng unggah
ĠBer at
h ai
Ġberk elas
Ġwa yang
bi asa
Ġs ains
ap akah
Ġdil antik
Ġmendek atkan
enti an
Ġpast ilah
ĠR W
Ġdih ilangkan
har ma
ĠM adiun
Pen elitian
Ġs entral
ĠC ry
Ġpen uaan
Ġtangan ku
ĠE un
Ġint ensif
Ġdik ombinasikan
ĠPro yek
Ġmengus ulkan
ĠJ og
Ġwa fat
Ġterb ebas
Ġadmin istr
Ġmeng ering
Ġport al
N U
f eksi
Ġeks istensi
ĠT ir
Ġseks ama
Ġpern apasan
ing er
us uhan
P end
ĠP abrik
J asa
Ġke as
ĠBudd ha
L ihat
ĠKur ikulum
Ġberp el
W anita
ĠInd ra
Ġmenemukan nya
R S
Ġgam er
ĠM impi
Ġmeny empatkan
ĠPr as
Ġlog is
Ġtak dir
Ġcac ing
ĠM am
Ġcustomer nya
Ġpub likasi
ab ilitas
Ġaplik asinya
Ġmenyeg arkan
Ġm angga
ĠO rig
2 50
R ead
ond o
å½ ©
Ġb ungkus
H otel
ĠR apat
ĠP ra
Ġdib akar
Ġtra uma
b asi
ĠH ind
Ġter tua
Ġber naf
Ġmenged epankan
Ġmenj umpai
orb anan
5 6
Ġpend atang
Ġkeram ik
s ari
ens et
st ik
Ġr uas
Ġmemperc antik
Ġbac carat
ĠAS N
Ġb ia
w ati
d es
Ġberf irman
J umlah
im o
Ġberga ul
Ġad sense
Ġd ebut
Ġser atus
ingg o
E m
ĠTerb ukti
ĠG aya
g ambar
Ġmeng asih
Ġkem erahan
g el
ĠSch ool
Ñ Į
oli o
A g
Ġberd osa
pada i
ara u
Ġk uar
Ġpeng k
ĠB ib
K eber
Ġku as
P ak
Ġpad amu
ĠAll oh
ihat su
ĠAPB N
Ġterj ual
Ġbar isan
ĠM alik
or ge
Ġperc epatan
Ġdiam eter
Ġe y
ir in
alif ah
gas kan
Ġun der
ampi askan
p ihak
Ġitu pun
L P
eb ird
aks imal
AM A
ul atan
Ġmengh ampiri
Ġpeny idik
ĠMar s
Ġki per
Ġreg uler
Ġpilih annya
ĠSej umlah
Ġberd irinya
Ġdihad irkan
Ġ oleskan
ĠSo ftware
7 3
8 00
Ġpeng awas
ĠJar ingan
iman akah
Ġ4 3
Ġjad ilah
ĠL ib
ap ainya
ĠG resik
li ent
Ġc uc
Ġter ungkap
Ġtemp e
n ews
ĠHo use
Ġs urut
p end
Ġdis apa
isip lin
Ġeks is
kan toran
Ġpend eritanya
Ġl oyal
T i
Ġder etan
utar akan
Ġmil yar
Ġmeny ukainya
Ġmel uncur
ĠK awasan
I b
Ġberg engsi
ud ung
8 9
Ġpen inggi
å¤ ©
ĠC ol
Ġberk eb
ĠY akni
ĠC R
H A
Ġmeng ga
Ġmenjual nya
ĠP urn
ĠO ri
Ġp egang
entu ran
ON ESI
Ġsel ebr
Ġes timasi
enc er
Ġpener angan
ĠPol it
Ġcic ilan
L I
Ġneg aranya
hir t
Ġsedikit nya
ĠSul sel
Ġad uk
ris e
Ġbab y
tab ilitas
Ġpeng umpulan
und angan
or ban
Ġdat aran
Pas tikan
Ġtem baga
ï ¼
ĠK abar
ĠPeng alaman
Ġat mos
epot kan
Ġangk asa
Ġdiab aikan
Ġber buah
ĠW all
g antung
Ġkec urangan
g uru
m aka
ĠPan as
Ġbidang nya
Ġpar pol
al inya
Sem akin
Ġdir ektur
iv al
Ġs olo
Ġberc ak
Ġno tifikasi
Ġcr usher
Ġtol eransi
lanjut i
ad asi
ĠJ ava
Ġberm otor
puk at
Ġ9 00
ingk uh
ĠSB Y
Ġsep aruh
EN T
Ġmenjelajah i
ĠP un
Ġl edakan
ĠW a
Ġmod em
Ġk od
ĠB ol
B aru
ĠN anti
ist al
anc uran
ĠG O
Ġj engg
Ġbers ek
Ġas tr
ro v
Ġkep eng
Ġdim ak
s ela
Ġdi jawab
ĠC obalah
Ġseb anding
Ġterl anjur
tim e
Ġmar ak
ĠK K
ĠRos si
r uk
ĠK UH
Ġn ongkrong
kan tor
k egiatan
x i
Ġjaj anan
ĠB akar
Ġgam ing
Ġkud u
ĠM K
ĠV ic
Ġver tikal
Ġpara graf
Ġr ileks
angg is
Ġberb alik
Ġas in
am mad
ĠPeng etahuan
Ġdih entikan
yaw arah
ĠV irus
ukan ya
Ġdiset iap
Ġs ent
Ġbukan kah
per angan
op sis
ĠD am
Ġket ebalan
Ġkos tum
ĠJ ose
ĠB ig
ĠT eam
Â °
Ġas uhan
Ġstar tup
ĠPas uruan
Ġterd epan
s angat
âĢĻ âĢĻ
Ġfit nah
lig asi
Ġmelu angkan
t p
Ġjas mani
Ġterb alik
Ġtem per
ĠH as
pl y
Ġmeng ind
Ġus ul
ï¿½ ?
ĠA yat
Ġmen ud
ĠPang lima
Ġhid ro
Ġkip as
ut ing
ĠMarket ing
Ã ¡
Ġw hatsapp
Ġmen ipu
at uhan
ĠSw iss
Ġmen ara
Ġtok opedia
Ġo il
Ġbag iku
Ġl ambang
Ġter tipu
es kan
ĠOk e
f it
ans yah
ĠHat ta
Ġt unjangan
Ġmenc abut
Ġj urnalis
ĠEk o
Ġkem and
Ġpil ot
Ġkek al
ĠK upang
r em
Ġprib adinya
Ġmer em
Per jalanan
Ġken yang
Ġsk enario
Ġmem us
ĠK ode
ĠDP P
ĠD J
ĠS as
Ġgel andang
Ġdih ukum
Ġmag net
eks iko
s audara
ĠPem er
B log
Ġak ad
Ġpem ecahan
ont al
Ġup grade
a afkan
ĠA is
Ġpetern ak
ĠM C
Ġmember inya
ajai ban
Ġpembers ihan
Ġat ribut
Ġmemper b
Ġpertimb angkan
Ġserv is
Ġprakt isi
Ġber tumbuh
Ġm egah
Ġmen anamkan
lasi fikasi
est arian
aw ai
Ġmemut ihkan
ĠMag elang
b all
Ġc and
Ġfot ografer
com merce
g ejala
Ġbertanggung jawab
Ġper antara
j an
ĠF IF
Ġdip l
Ġmengal ihkan
201 3
ĠHar ry
Ġab sen
ĠT ipe
Ġpil ar
lin es
Ġ4 1
Â ·
ĠAl um
Ġedit or
unc inya
Ġs pa
ĠB aga
Ġmemb anggakan
s etelah
Ġberk enan
Ġblog ging
Ġu ap
Ġpeng urangan
Ġsand al
Ġeksek usi
D ata
angs aan
agi c
is kan
Ġresep si
Ġd ed
ang u
Ġaj aib
Ġked elai
oh ongan
Ġmenand atangani
ĠP ost
Ġmenemb ak
Res ep
Ġpend akian
ONESI A
Ġberh itung
Ġe uro
ust aka
k en
Ġbert epatan
ĠN on
Ġdip utar
Ġl ead
AN T
Ġpasi f
ba yaran
Ġo jek
Ġsal lam
Ġber obat
ontr ak
ĠPeng awas
Ġc as
Ġ {
Ġmeng asah
iks akan
ĠG uar
pr omo
Ġbed ah
Ġaw ak
Mod el
Ġmen ep
Ġ4 7
ev e
Ġt egang
gorit ma
Ġpeny alah
ĠP ublik
id rasi
ari fikasi
ĠAS US
AT I
ret ariat
Ġmengag umkan
Ġkeda i
ĠF ad
Ġper orangan
Ġmengh indar
op or
Ġcl ub
ĠG ener
Ġn ir
c ari
Ġsal es
Ġkec emasan
l os
Ġbi c
Ġmel ulu
ĠAnd r
Ġpemb unuh
d om
Ġg reen
Ġsis wi
Ġberb ohong
ul aan
Ġbahw asanya
Ġkul tur
Ġob servasi
alu e
bo und
Ġben ih
Ġdiber itakan
ĠE uro
r up
omb inasi
Ġdo uble
Ġtutup nya
Ġl endir
Ġs it
Ġpember dayaan
6 00
oc us
T h
d asar
Ġberd iam
Ġ4 4
ala ba
Ġg enc
ĠTer akhir
ĠK op
ov ebird
Ġcor ak
ĠAp apun
ĠW oo
ĠI p
r oll
Ġak hlak
ĠA wal
Ġberk enaan
Ġ9 5
Ġmemb ebaskan
Ġf os
gr an
Ġpem ukiman
entu r
l or
ah akan
way atkan
Ġfinish ing
m ak
ĠH en
ungk u
ĠI si
ĠM alah
Ġpend ingin
n ormal
Ġdikel ilingi
Ġgen ital
ir uan
Ġ7 00
Ġm am
Ġro ulette
P residen
ĠJ alur
Ġmemp esona
ĠPem buat
Ġkerag uan
Ġinisi atif
ĠQ iu
Ġmenyus uri
Ar t
ĠS ho
Ġs utradara
ĠD osen
erj anya
P erb
Ġm utiara
ĠD VD
Ġdi war
ĠH ome
ĠH TML
Ġmengund urkan
Ġmengin formasikan
ĠAh li
Ġgen etik
Ġketerl ibatan
ĠP op
Per s
Ġh ahaha
inj auan
aksi kan
ĠSed ang
Ġmel ampiaskan
k omp
Ġtel adan
Ġbatu bara
Ġper ikanan
ĠTradisi onal
ĠH S
Ġdiba yangkan
ĠEn ergi
ĠB row
er e
Ġeks perimen
T u
ton gi
IN D
Ġcab e
ar atur
ĠA j
Ġmobil nya
P ay
ti pe
ĠSe wa
ĠN i
M esin
Ġdet il
Ġter f
U A
ĠBer t
ĠSe andainya
Ġk oc
Ġh oax
ak atan
Ġmel edak
Ġpemb aruan
Keb anyakan
ĠS r
ĠDist ributor
ĠT ID
Ġs urabaya
Ġim ajinasi
ahl awan
ĠJa e
ĠG M
ĠDir ektorat
KP D
Ġtump ukan
D ib
âĢ¦ âĢĿ
Ġkes alah
ik ip
Ġtetap lah
Ġpeny erahan
Mas yarakat
Ġng e
ĠP okok
ĠM ust
Ġop tions
orm at
ĠC ak
Ġterj alin
ov ie
Ġ amin
Ġata ukah
uh nya
Ġtert ekan
W akil
Ġan alogi
Ġgl obalisasi
Ġkl ip
ĠS ambil
c ontoh
lar asi
ik l
Ġke atas
Ġdipert ahankan
Ġdi tum
Ġkas ihan
ĠEk sp
res entasikan
m al
Ġmemb enci
ĠT ol
ĠT em
D a
Ġc etakan
Ġeks terior
ĠP and
if inal
Ġkem arahan
ing i
ĠM b
ĠPengel olaan
Ġmenc antumkan
ĠKep ada
r ome
ĠW ib
Ġmengg antung
ĠMem per
Ġ5 2
Ber main
Ġf e
Ġberw enang
tu gas
k ol
Ġter awat
Ġber isikan
Ġberj am
Ġdih ubungkan
Ġsyari at
Ġk unyit
Ġkan opi
M ari
ĠN KRI
ĠI PS
Ġkel ancaran
Ġberp esan
osh op
B agian
Ġtert angkap
ĠR en
emb iraan
Ġpers idangan
ĠV itamin
ah ih
Ġb it
ĠH air
ur ity
ro om
Ġbert ekad
Ġ19 80
un sur
Ġf igur
em ak
f an
ĠAk untansi
osi alisasi
ip tanya
odi um
co ver
ĠB ill
Ġtet ep
ĠM emp
z im
Ġj um
Ġkam buh
s tore
Ġter lahir
P O
j ahan
Ġal okasi
ĠK atanya
ikip edia
Ġmis alkan
ch a
Ġr ebus
Ġr asul
ic ation
Ġins ulin
Ġt afsir
Ġmengg ug
ĠL and
Ġdis ingkat
Ġamb isi
y ber
Ġb alon
ampak kan
ĠG ad
Ġkat un
ĠKor upsi
ĠH igh
ĠPes antren
ĠU RL
am il
Ġbb m
Ġan ugerah
Ġtongk at
Ġkes uburan
Ġp ita
ĠBlack Berry
ĠHid ayat
Ġmedi um
eb ani
Ġperp anjangan
ĠSw edia
per ia
Ġak tris
ĠK uta
Ġkont ol
ĠCust omer
Ġpro porsi
IM B
Ġdi unggah
Ġkem itraan
Ġpen ataan
ĠR ic
us alem
ĠP ari
Ġantr ian
indak lanjuti
Ġuntuk mu
ĠC er
Ġdip an
ĠBandar Q
Ġk ah
Ġw id
ĠSl ot
Ġtel ekomunikasi
ĠM EN
Ġberl ama
Ġb adai
ĠL es
Ġjar aknya
m obil
Ġt olak
ĠV en
Ġgel isah
Ð ²
ok r
ĠKep ri
Ġkam us
Ġmenyakit i
ĠHy un
Ñģ ÑĤ
Ġc ontrol
at ed
ent ik
im anan
Ġseg an
Ġtampil annya
b ut
ĠD ek
Ġbo oming
ĠY u
Ġkaw in
ĠT anggal
Ġberk oordinasi
Ġmeng adopsi
ĠPem ilik
ĠAk si
Ġmend arat
Ġdid erita
ĠKro asia
ĠBur sa
Ġd ubur
Ġsih ir
Ġngeb log
amp urkan
Ġl ewatkan
ĠH ijau
Ġbergi zi
Ġas ri
Ġar e
ekal ongan
ĠJ ustru
m ara
ori z
Ġpem otongan
Ġnak al
as uki
ĠS amb
Ġad d
ĠTr ik
ay alah
Ġmewar nai
Ġmen ingg
ter masuk
tr ik
ek usi
G ejala
e ak
Pem ain
Ġdik endalikan
Ġpend ah
us ta
Ġdi operasikan
Ġpeng orbanan
Ġberp rofesi
Ġkerja an
Ġber tukar
Ġgel ang
M ulai
Ġmem otret
ĠMel akukan
Ġp angkat
er na
Ġpanjang nya
ĠPeng urus
Ġwew enang
ort el
ont alo
ĠIst ilah
Ġad apun
Ġpeng ga
Ġtat kala
G I
Ġac tion
Ar tinya
Ġn anya
Ġteg angan
ĠPortug al
ont arkan
ul ia
pert anyaan
Ġkom en
ĠT ahap
Ġp age
Ġp ijat
H O
Ġdi si
ingk ar
y angi
ĠOff ice
Ġl awannya
Ġberg antian
ĠSk y
ir am
Ġmem and
Ġdil ewati
vis or
h ana
Ġmend i
ĠInd ones
que z
unt askan
Ġb odi
ĠR adio
l ed
Ġant isipasi
entr ian
epat itis
ĠA KB
Ġi jazah
Ġ aib
Ġko alisi
P ihak
ĠS unan
c erita
Ġmel ukis
wak ili
J udi
Ġdisel uruh
op e
Ġmemul ihkan
uk si
Dik atakan
ti ar
Ġn arasumber
Ġpemba caan
ĠE p
Ġag ung
Ġs ok
ba ban
P antai
Ġbel a
Ġradi asi
im in
Ġpeg angan
ĠG adis
ĠIk lan
9 5
Ġmel on
ĠSer ver
Ġpen ikmat
Ġal hamdulillah
Ġlel e
Ġlar utan
ĠU IN
ĠD at
aw ak
Ġperd amaian
Peng ertian
Ġsingg ah
Ġdit emani
Ġf undam
Ġcur iga
ĠTID AK
ul annya
Ġdiper hitungkan
Ter dapat
? ,
Ġb ingk
Ġberb akat
ĠJat eng
untuk kan
ĠC ib
Ġpemb eritaan
Ġberl impah
ant eng
Ġgun anya
ĠOrig inal
rib un
Ġkap ten
ĠF ac
ĠN amanya
Ġpengh itungan
Û Į
Ġsub st
H S
Ġc aleg
Kes impulan
ĠT PS
Ġsh amp
Ġs ap
Ġpat okan
qu est
Sek ian
Ġterk ecil
Ġm ingg
ĠR oyal
cess or
ĠMus ik
ĠBar ca
Ġmel emah
Ġy ak
id s
Ġhidup ku
Ġad v
er awat
Ġd uluan
ut anan
Se iring
Ġbl ock
w ali
Ġ( *)
Ġsistem atis
Ġdir esm
un ting
ĠT ua
Ġdis ayangkan
os ari
Ġmeng utip
dag angkan
Ġk walitas
Ġt sunami
Ġba j
ĠJ en
ĠE ur
ĠBay ern
ĠJ ong
Ġb ol
pin ang
L AH
, ...
Ġmet al
s ara
it atif
Ġkem arau
Ġmemb ina
Ġter bawa
y asan
ĠL or
7 2
unch ing
Ġbegitu lah
OK ER
c ore
aku asi
Ġmo use
Ġmo yang
O n
ok ol
ĠCap sa
Ġter lin
Ġmeng izinkan
Ġberl aga
anggung jawab
Ø ¯
raf ik
ĠS A
ĠB awaslu
Ġp eka
ĠM eksiko
Ġteg uh
ĠB oleh
mur id
Ġtr ack
ĠZ ain
Ġber eks
epat ah
ĠSeri e
O ke
Ġterb uruk
Ã Ĺ
Ġl ec
ul uhan
ĠT elah
ten ham
ĠHal al
ong s
ilm uan
ĠS audara
Ġp akailah
Ġr ongga
ain less
da yakan
Ġp ari
re as
ĠSed ikit
Ġimb alan
ĠPeny elengg
Ġdi amankan
Ġtr us
ĠJad wal
Ġkap it
ust in
dag ang
ĠH art
Ġmenggi urkan
Ġsu buh
Ġm g
ba yang
Ġk umpulkan
ff ic
Ġj ulukan
Ġpeng acara
ed ang
K abar
angg ul
Ġst ep
Ġjar ing
ĠKam era
Ġ7 2
Ġf utsal
Ġmemp osting
Ġpen sil
ĠK ue
ĠK unci
Al asan
ĠAri ef
ark otika
ĠBab y
ĠDI Y
eg aran
osis ikan
ĠW e
Ġsak ing
F oto
ĠK ad
B P
um ent
Ġm ud
Ġpl afon
rut men
am aikan
Ġsaud aranya
Ġback ground
ĠPD F
ĠL ima
ara g
x x
ĠK embali
Ġkes ini
eg ar
Ġsat wa
Ġpeng angkatan
ol et
Ġpikir annya
ad ilah
Ġmakan annya
Ġkej ujuran
Ġkesi apan
ĠÐ ¿
Ġm l
Ġp ondasi
Ġdik alangan
Ġd ampaknya
ĠWah yu
ĠKamp us
Ġkur ma
Ġmeng awal
Ġsup plier
Ġg antung
Ġg ede
201 9
kan d
eh i
D ulu
b esaran
ĠâĢ ¢
ĠD arah
Ġat om
inc ar
el angan
Ġdist ro
Ġmer ed
Ġy atim
er eng
ĠB iru
engg al
ĠT O
it iga
AT A
arta bat
Ġberb aring
Ġsup orter
Ġmenyimp ang
Ġmenyal akan
ĠKar no
ĠI SIS
ĠO f
ĠWil liam
ĠMeng atasi
Ġs apa
Ġber orientasi
ĠP anduan
ĠTh omas
ahaya an
Ġmemb engk
Ġman ufaktur
Ġpart ikel
Ġl at
Ġsub sidi
ĠKeb etulan
Ġpingg iran
id ent
ĠT unggu
Ġjemp ol
Ġdip ikirkan
ĠS ukses
Ġdo or
Ġh ir
Ġmem ory
ep ort
ĠP ola
ud aranya
f ect
olek ul
isi al
Ġkel aparan
anj at
Ġb udi
ĠPem da
raz il
as ti
emb ung
Ġge ografis
Ġf at
Ġmeng operasikan
Ġb ohong
Ġditu l
ĠV I
k atanya
Ġf aktanya
Ġakr editasi
ay o
y ana
ĠSt adium
Ġim i
Tan pa
ot akan
d il
Ġv illa
Ġperab otan
int ainya
ĠHal im
Peng gunaan
ĠBur ung
ĠV ari
H ampir
Ġdic uri
ĠRS UD
Ġb ilas
Ġc ook
Ġmenel usuri
5 3
Ġdik ategorikan
Ġters usun
ot ol
et ra
Ġkut ipan
Ġ18 0
Ġhab it
Ġdig it
Ġ0 3
Ġtangk i
ĠI man
re y
Ġrum or
Ġpeng rajin
ikm atinya
ĠG ajah
Ġbert eman
ĠI PA
ep t
os p
D ian
Ġdik enali
Ġdiund uh
ĠK is
Ġpen entu
Ġken akan
Ġd usun
al urkan
Ġkelihatan nya
Ġ5 6
ĠD wi
ĠPemk ot
Ġm onster
ĠKap al
Ġdisel amatkan
r utan
Ġmemat uhi
Ġnot ebook
Ġditand atangani
ĠSy dney
Ġsem ifinal
Ġdinam ika
Ġtidur nya
ĠKe jadian
p k
im ut
au han
Ġter isi
æ ľ
Ġterp enc
Ġb uktikan
ĠDani el
ĠL an
r uf
ĠP enting
Ġdiper kuat
ob ak
ç ¥
ĠR ub
Ġis eng
Ġg etah
orm as
ĠBr and
Ġk ara
Ġc apai
Ġmembant unya
M B
er aian
T uhan
Ġmengin feksi
Ġp c
ĠSatu an
Ġpem andu
Ġgag ah
ĠT ari
Ġso da
Ġreal istis
Ġber eaksi
Ġres eller
Ġkak aknya
Ġsah abatnya
Ġper kantoran
Ġd ress
Ġdik emukakan
m is
Ġdiw ujudkan
w eet
Ġhonor er
Ġdip ec
ĠG ue
ĠPA UD
Ġ5 1
Ġram adhan
eh ensif
u gi
Ġib lis
engg ang
is aris
Ġl umpur
Ġkomp ak
ĠA ut
Ġmengor bankan
Ġpe perangan
ĠP KI
Ġc omm
Ġsir sak
en agak
Ġs kuat
Ġk embangkan
ĠKas us
Ġstab ilitas
7 9
A tas
Ġ0 5
Ġeksp edisi
Ġmer edakan
Ġperm ulaan
ac ita
l ukkan
omb lo
ĠKy uhyun
f ace
F I
Ġn uklir
Ġdid i
Ġr ing
o ff
Ġr ock
ĠKol eksi
tig asi
if f
ĠU sia
ĠSep ak
ya d
Ġat ur
ĠBalik papan
Ġberke inginan
ĠKart ini
Ġp ack
Ġperd ebatan
im ba
Ġ Î
Hal o
T O
eri ahkan
Ġdep artemen
int angi
Ġboc ah
Ø ª
Ġpengan tar
Ù ĳ
Ġt awa
Ġterl aksana
Ġmemb iayai
Ġd angdut
Ġword press
Ġat asi
Ġpeny aluran
ĠT oh
Ġmengan tongi
implem entasikan
ĠD ew
ĠL ove
ot oshop
ĠS ug
Ġpenduduk nya
Ġkarir nya
esm ian
ĠL azada
Ġgan as
pr insip
dr agon
ĠN anah
ĠGat ot
ĠN ias
ul asikan
ot asi
Ġterl arang
ĠP ub
Ġp anggil
ĠR ock
Ġdic uci
Ġchat ting
Ġsta ff
Ġp aksa
ĠKel apa
ĠO c
Ġperjalan annya
å ı
K TP
Ġdita yangkan
z y
Ġpem eran
Ġlong gar
tim edia
enagak erjaan
Ġmuslim in
op ment
ĠC ok
Ġdr um
Ġneg osiasi
o ice
Ġber urusan
ĠTer murah
Ġberl ainan
orn ia
K ur
ĠâĢ Ļ
L okasi
Ġl aksanakan
Ġberl awanan
ĠSl eman
Ing at
ing ungkan
Ġkeg embiraan
Ġkeb utuh
Ġya yasan
ed y
B ar
mi grasi
Ġmencat atkan
Ġmemas ok
ĠRes ort
ĠD emi
Ġkesed ihan
ĠM ang
b in
B ahan
ĠSri wijaya
Ġkel angsungan
ĠUntung nya
Ġpenya jian
Ġjabatan nya
ĠT ema
Ġj eli
ĠRob ert
ĠInf eksi
Ġd adanya
Ġmeny anyikan
Ġdok umentasi
Ġl angsing
h on
Ġy our
Ġpend engar
el asi
ĠS ai
ĠEm pat
ah al
Ġmeng end
ĠIND ONESIA
Ġpingg ul
amin asi
Ġkesehatan nya
Ġmenj emput
Ġmem etik
Ġkh us
eh abil
et rasi
Ġak umulasi
Ġs b
Ġdi ga
Ġberl angganan
ĠR ab
Ġpenyalah gunaan
Ġbert ema
Ġper ib
Ġh uman
t ek
Ġpemas ukan
Ġatr aksi
ĠN am
Ġsc ript
ĠW hite
p eny
Ġl ow
Ġdiak hiri
ĠZen fone
Ġmer epotkan
oso fi
an n
ä º
ĠL im
ĠP N
ĠDian taranya
ya itu
Ġr egional
B T
Ġti ens
Ġdim enangkan
8 6
Ġmemb iasakan
ĠMo j
Ġseg el
n amun
ĠAl hasil
en zo
tr in
Ġdip at
Ġman akah
inc angan
ĠG i
ĠMen engah
Ġstandar d
K isah
ĠT okoh
Ġng el
Ġwas it
h anya
Ġak ting
ĠC amat
ĠWhats app
KI P
Ġkekec ewaan
Ġpemb angkit
ĠWi Fi
j asa
ĠT jah
auh id
Ġpel osok
Ġlic in
Ġ elas
k al
Ġdim asa
ĠBet apa
Â ²
Ġc he
Ġw ir
Ġterbentuk nya
Ġketah uan
Ġbud ak
Ġter update
Ġbers amanya
ĠMic hael
ver t
angs ur
salam u
Ġhendak lah
adi g
ul ung
und uran
ĠBl itar
Ġmenun aikan
Ġsp ontan
eng aran
ĠD evel
Ġmeny uguhkan
ĠW ay
Ġdip asaran
ĠG ab
Ġdij adwalkan
Ġg iat
ĠT amb
istimewa an
Ġmaj elis
Ġmen ikmatinya
is isi
Ġla undry
Ġim age
ard en
Ġkebenaran nya
Ġc ity
iv itas
Ġru am
Ġs entuh
ap apun
ĠGor ontalo
os hi
ĠB il
Ġmeny ita
Ġso und
ĠAs h
E X
ĠProfesi onal
ĠP HP
ena zah
Ġa ura
Ġpan orama
Ġent itas
Ġp acking
iz inan
A mb
201 2
Ġs alon
ak ti
tur an
ey mar
.... ....
olly wood
ad wal
Ġke ilmuan
Ġmempr akt
A m
ĠT ra
Ġters er
K omp
Ġpel aporan
ĠPK B
s alah
Ġmenurut ku
ĠJawab annya
Ġmemper banyak
Ġper siapkan
ing ton
Ġpub lic
c ast
Ġmend oakan
Ġmenc ontoh
Ġgen ap
Ġuk iran
o om
Ġmel un
p ret
Ġmemec ah
Ġ icon
ĠAd sense
Ġ od
fi eld
ĠD C
Ġbibir nya
d it
K husus
ic an
Ġpep ohonan
s at
od ik
ĠP IN
ĠPas angan
r aw
Ġth is
oy an
ĠS N
Ġko per
Ġh ongkong
Ġ199 6
Ġtulis annya
Ġmeng alaminya
g asi
engk eta
alif ornia
angk ar
Ġdef ault
ĠKun ingan
Ġsek uat
Ġp d
Ġtembak au
Ġtanggung jawab
Ġdiresm ikan
ĠAs am
Ġser aya
Kep ada
ĠIn sp
G ambar
ĠE st
s ar
ĠPerp ustakaan
Ġditul arkan
Ġ5 4
ĠIst ri
ew ah
Ġput ar
Ġpas por
ĠF a
ĠVal ent
ĠManaj er
ek am
Ġk ogn
Ġr awat
ar ut
Ġlegal itas
Ġputr inya
Ġter unggul
Ġseg udang
Ġt angkap
Ġaf iliasi
uk nya
k op
ot on
Ġbel asan
ed u
Ġditer uskan
art ikel
Ġdit argetkan
ĠH ajar
ĠA uto
atan an
ĠSya ikh
ĠT oba
Ġpeng abdian
Ġp apa
ĠH ol
Meng enai
j al
Ġpem utih
pres ikan
ikut ip
Ġdiper lakukan
Ġliter asi
yan mar
ĠBer apa
C atatan
B uah
Ġc intanya
ĠA ud
Ġpen ularan
ĠHind ia
Ġmengasih i
B AT
ig u
k aitan
Ġhasil kan
Ġt hat
ĠSus u
ahan am
at her
Ġm Ah
Ġm abuk
ol aborasi
Ġtun duk
ĠJaya pura
omb e
Ġmen ek
Ġdong eng
Ġke arah
Ġmengh ir
ĠS uku
int asan
ĠC i
eg asi
Ġf riend
ĠS emb
Ġsamb ungan
Ġke tr
P ilih
ĠSD N
ĠRam adan
M au
ĠSuk abumi
Ġh ijrah
ĠS op
Ġr ansel
Ġmeny eb
ĠP PK
ĠH mm
ad alah
awas aki
ĠFr aksi
ungg uhan
ĠStudi o
r ani
Wah ai
ĠM its
ĠPS SI
ĠAmaz on
k lik
ĠAn alisis
Ġseny uman
Ġte ater
Ġpet aruh
ĠBi arkan
Ġpeny ampaian
ĠP ep
Ġberk enalan
ingg inya
Ġdit onton
tu lis
Ġumur nya
C H
b annya
ĠPert emuan
ĠAs tra
ĠPer hubungan
Ġdi wakili
or ia
Ġsn ork
P aket
ses i
ĠDa ihatsu
ĠT iap
Ġpemas ok
Ġlans ia
Ġcer amah
Ġper okok
ĠP esan
Ġs umpah
end udukan
ĠSt at
J am
Ġb und
Ġlip stik
ubis hi
Ġpr est
Ġro om
s ir
ĠIr ak
Ġb ara
Ġterpenc il
Ġmem acu
Ġk iriman
Ġsal ju
ĠRad en
amp ar
ĠMeng enai
emb uru
ĠFIF A
Ġf ast
Ġcomp uter
Ġmeny embah
ho u
M obil
Ġbah annya
ar ui
end ong
s ol
Ġmenyed ihkan
Ġsuam iku
Ġl ike
,, ,
ĠG T
Ġkos t
Ġhit s
Ġcur hat
Ġpant at
Ġt rav
Ġar eal
Ġsiap akah
ud id
Ġsor otan
t it
Ġbu gar
Ġlahir nya
Ġbia yanya
Ġv eget
Ġr amping
el ajar
ĠM D
K a
Ġf emin
en tif
Ġj eb
Ġgol d
Ġberl ipat
Ġlas er
ĠI sa
Berb icara
Ġan tik
ĠM ega
ĠM bah
ĠNap oli
en ahi
ehabil itasi
Ġoleh nya
aw apres
ĠDi per
ĠEn ter
Ġpend eta
Ġleb ah
Ġmem adukan
ĠM ont
per i
Ġdib enarkan
Ġsel ang
Ġm ir
ĠC it
ĠTot tenham
Ġdib and
5 8
ĠK um
Ġdekat nya
ON G
t l
al aya
up kan
Ġber dagang
% )
ĠA H
q uar
ing kan
S K
k ec
Ġsw t
Ġturun nya
T RI
ĠKar na
aj akan
Ġman ager
r ian
K an
il af
Ġdihad apan
g ub
ĠS tu
ak oni
ĠA st
l op
B ET
Ġst ock
ĠL ot
Ġk antung
Ġberb anding
Ġdiper untukkan
ĠX peria
Ġrat ing
Ġkompr ehensif
Ġpro stat
w il
ick y
ĠIT B
l ong
ear ch
Ġaq iqah
s urat
Ġm aha
Ġmenyis akan
ĠiP ad
ul uki
ĠB iro
ĠKhusus nya
Ġest etika
Ġk ubur
Ġcak ap
ul e
ira usahaan
Ġas as
Ġwar ganya
Ġmen injau
Ġberper ang
yar akatan
ĠHam il
Ġpeneg ak
Ġmenjauh kan
Ġmah luk
ĠT P
unt ik
ĠC atatan
Ġmel irik
ĠRom awi
Ġob ligasi
Ġj ogja
Ġal pukat
Ġdeb it
Ġdip adukan
Ġmendengar nya
ĠR an
akar ya
af f
ar o
5 2
C iri
Ġmeny empurnakan
Ġper annya
ĠW ard
Ġb ub
gai b
Ġj og
ĠN arkoba
ag aman
eli at
ur ce
ĠL ife
r ain
ĠV illa
Ġpenja jahan
ĠEl ektr
Ġpep aya
Ġje ans
Ġw eek
ĠBantu l
ĠBas uki
et i
ĠKem ungkinan
enting kan
pek tasi
an tuk
ĠSub han
waj ah
Ġpen ump
S B
K emen
s ah
ĠSek ian
Ġdiam ati
Ġdi izinkan
ĠPerd ana
Sil ahkan
ĠS ev
Ġpend aki
Ġdip ajang
ĠTim e
Ġbers ed
Ġpan ah
Ġb ra
ĠN ag
onal d
Ġh aha
Ġ199 5
ĠLap angan
Ġmemper gunakan
Ġkew anita
Ġha us
en angi
ĠPas ir
Ġg ender
ĠL ewat
Ġmengh iasi
ink ron
abr ak
bol inggo
I st
ĠS hal
ĠK PR
Ġent ry
u ara
Ġpenerb itan
Ġkebutuh annya
ĠN ak
Ġrakyat nya
w ich
Ġdig el
Ġ _
K h
ĠP enis
Ġturun an
Ġmemil ki
ap h
Ġt engk
K PU
ĠAl quran
W I
Ġpac arnya
em ik
Ġseb erang
angg otaan
Ġdilepas kan
K au
empro t
Ġb unc
ir ingan
Ġmeng emb
Ġpendukung nya
ĠJ U
Ġte xt
Ġkompet itor
Ġser um
Ġberat nya
ĠB T
Ġke esokan
v as
tim un
6 4
ĠU jung
Ġbus a
ĠP ekalongan
Ġ0 4
Ġpar lemen
Ġkel ulusan
ĠBel anja
ac o
es h
Ġkonf igurasi
eb an
Ġ identifikasi
ĠF ile
ĠBea uty
ĠAs osiasi
Ġpend anaan
ĠSMP N
Ġses at
ĠM az
At au
Ġdik alahkan
Ġm ba
aktif kan
ĠP eg
pon ik
ĠKari mun
Ġmerek rut
Ġw ak
Ġrefer ral
Ġlel uhur
id ih
Ġid ola
Ġsant un
un es
Ġperc eraian
Ġkelem baban
ĠMus im
Ġcat ering
ol asi
Ġn unggu
Ġku il
Ġmengin stall
In gin
Ġmel eg
ap ut
Ġterb enam
P an
ĠD esign
Ġdiser ap
Ġburuk nya
S en
ĠL SM
Ġas s
Ġdid efinisikan
Ġmemb ingungkan
b au
Ġlog istik
Ġc os
ma ga
Ġmener imanya
ĠO ver
ĠX I
Ġsy araf
Ġv elg
ĠMat eri
Ġdit eliti
ĠK E
Ġdiper intahkan
F O
A IN
Ġmeng un
Ġnota b
ĠJ auh
in nya
Ġc iptakan
ĠG atal
Ġsed ekah
Ġmenun duk
Ġmeny eber
Ġresp ons
9 00
c he
ri oritas
anc er
Ġdik hawatirkan
urr ency
B andar
Ġbir okrasi
b ahasa
Ġseger alah
Ġketert arikan
ĠJ as
Ġkon ek
ĠSeri es
ec tr
Ġditer jemahkan
Ġas rama
Ġre alisasi
Ġstr iker
ĠGo od
Ġsed ia
Ġpenc ahayaan
Ġmemen angi
ampir kan
ĠC as
Ġsu ap
Ġked i
d esa
p ons
Ġkel anjutan
ĠB ing
Ġori entasi
Mem buat
Ġun iversal
ĠT rip
p ulau
ĠN ad
Ġkap ur
H I
Ġterd eteksi
ĠMaksud nya
Ġtand as
Ġf aham
ĠK eg
Ġap otek
ĠSep eda
en yak
ĠC PU
Ġsal ep
ĠO NL
Ġj ok
Ġc angkir
k in
AR AN
us ai
ĠM isal
Ġbun tu
ĠSa id
ĠPembel ajaran
Ġm un
g p
untu h
AL I
ĠYer usalem
Ġhat imu
pert y
Ġt p
aksi an
el ekan
Ġberc anda
ek erjakan
Ġbes utan
Ġhip ot
au p
ĠAd v
ĠM yanmar
M ak
g atal
un ity
ĠSu ami
ĠW ajib
AR T
ow der
Ġg usi
Ġsal at
Ġmengh endaki
Ġmend alami
ungsi kan
Ġ197 0
Ġdic egah
Ġsah aja
Ġrint angan
Ġh acker
ĠK m
ĠBint an
Ġmenjauh i
Ġmer indukan
Ġpr e
ĠPen asaran
ĠSnap dragon
Ġ gaib
ĠC alifornia
Ad alah
ik atan
s endiri
Ġtool s
Ġmemul ainya
Ġkelas nya
Ġ20 20
c oba
Ġmelip at
Ġrez im
Ġmingg uan
t unggu
tr y
Ġsl ip
ul ikan
Ġtertu lar
ĠG as
urut an
Ak ibat
re ens
ĠUU D
ĠM ada
Ġmer tua
Ġkej am
O k
ĠP ahlawan
Ġm ind
Ġke imanan
ĠC IMB
ĠK urang
ĠJ e
Ġmengind ikasikan
Ġsya ir
em arnya
tiv irus
D B
Ġpred ikat
ĠInd osat
Ġperb eda
An gk
ĠAb i
ĠL atihan
Ġj engk
Ġkem enterian
Ġproduk sinya
Ġbay inya
em anan
Ġkor up
Ġtar uhannya
ind onesia
Ġnet work
ĠInform atika
Ġperd arahan
Ġka idah
Ġout let
ĠP u
anc ong
7 1
ĠM aya
O V
Ġgo od
ĠMu ara
Ġpenyimp angan
s um
Ġgug atan
ĠBus iness
arin da
j ari
ĠPem impin
ĠY us
Ter kadang
12 8
Ġt unjukkan
Ġp angsa
Ġmel ayang
Ġpelaksana annya
sis wi
Ġpenj ahat
B et
Ġdi ur
Ġhad irkan
Ġj atah
eng aja
Ġmembengk ak
u z
Ġdem onstr
ĠMeng etahui
Ġr ub
Inf o
ĠP ura
ĠUm roh
Ġgand um
l ock
T B
Ġnav igasi
p ati
Ġdih uni
eg araan
Ġwar alaba
Ġken ari
ĠDi et
ĠP SM
Ġsa ji
Ġpemb ek
her e
ĠPend apatan
s eh
ĠJ ag
l eks
Ġsir ih
Ġw ortel
Ġmer agukan
T oko
ĠL az
Ġpengh ubung
Ġal goritma
ĠN or
Ġpenyer apan
Ġput ing
ĠS ent
Ġsen ada
Ġt ungg
Ġpeny ewaan
ĠONL INE
Ġpem ir
har e
Ġter ampil
Ġm anjur
ĠÙ Ī
b etes
war ni
Ġpel antikan
w annya
ĠD A
blog spot
ĠK imia
Ġsport y
ĠT abel
Ġpos ter
Ġbandar q
tern et
ĠS ikap
Ġkekurangan nya
Ġtr ek
ĠAk r
amb akan
j urkan
ĠEng ine
Ġkemand irian
Ġpen ari
ab e
Ġna ungan
ĠS ung
Ġketr ampilan
Ġseb enernya
ĠP ohon
Ġpencipta an
Ġk ic
ĠS ad
er lang
Ġkel amaan
Ġsaksi kan
Ġtrans isi
ĠBoj onegoro
Ġlegend aris
Ġmil enial
Ġket egangan
SD M
angk ung
ĠK eluar
Ġkeg elapan
B enar
Ġkeb urukan
ĠUS A
Ġum rah
Ġperp isahan
Ġ1 10
Ġtubuh ku
odoh an
ed er
ala f
ay am
ku alitas
ar et
Ġhabis nya
naf asan
ingkat nya
Ġpun c
Ġmencer ahkan
Ġf as
Ġkeingin annya
esu atu
Ġnaf kah
m ula
Ġseb isa
Ġorgan isme
Ġng asih
Ġmahasis wi
Pert anyaan
ĠC all
Ġbag imu
In s
Ġarg umen
Ġl et
Ġaku i
or ejo
ĠMer deka
ĠKed okteran
Ġberb incang
Tah ukah
ĠVer si
Ġdibuat nya
ĠK amb
7 6
Ġm ap
angs angan
Ġf ont
aud araan
d uh
Ġinter aktif
Ġseng it
Ġmah kota
Ġmel ukai
ĠMer c
F T
ĠT echn
Ġ ormas
Ġblog nya
Ġkl asi
k abel
er ob
ĠC urug
had ow
Ġd kk
ĠS uasana
ĠKomp as
Ġbervari atif
I l
i arah
Ġm ili
Ġl ift
ĠC han
Ġkor por
sp ort
ĠW ork
R C
enar iknya
W alau
ĠF B
ĠT ul
Ġtan k
Ñ ĸ
Ġse jajar
ĠKon f
Ġent rep
w angi
okr atis
Ġke ajaiban
Ġjawab nya
agn osa
Ġc a
Ġpenip u
ewajib an
ĠC he
Ġpeng amat
Ġmend idih
Ġt atanan
W eb
ĠN ga
ĠT um
ĠJ aminan
ĠPil pres
ĠPel atih
Ġruk o
Ġpen erj
aks akan
P al
Ġtumbuh nya
ips tick
Ġjas ad
M udah
B upati
Ġfundam ental
Ġmel estarikan
hel atan
osi p
Ġc end
Ġ ikat
Ġkum is
ik bud
Ġkes usahan
Ġmus h
ĠS ubang
ol f
eb es
ĠPro bolinggo
Ġpemin atnya
Ġneg ri
N YA
Ġ utusan
Ġm anggis
Ġl alui
Ġs ingk
Ġmeng obrol
Ġdig er
tar uhkan
elah kan
Ġbersek olah
ĠT ahu
ima x
ĠCel ana
ber t
Ġmenarik nya
ĠMar quez
Ġsering nya
ĠS yarat
Ġcer itakan
Ġnis caya
Ġ !!
ĠSh in
alam at
v iew
ĠEx cel
aktek kan
ĠKe adaan
ĠB razil
ĠMen j
Ġsumber daya
Ġdil ayani
ĠBer l
Ġb asa
ari um
Ġlemb aran
adig ma
ĠP ribadi
Ġ5 8
Ġr eks
Ġterp opuler
arik u
ak h
Ġi j
Ġkeser uan
ĠW ash
F itur
Ġb idan
Ġditu gaskan
ĠPin tu
Ġalami ah
Ġd g
em buh
Ġn am
is ma
Ġsela yaknya
Ġg ang
Ġpr am
Ġs antan
ur nya
ĠK ir
Ġpenc erahan
Ġ asia
ĠB ug
Ġram alan
al ak
Ġrek tum
ĠP agi
Ġberm od
is it
ĠFr ank
Ġd eg
Ġtekn isi
Ġsup ir
ĠT ante
ĠL istrik
Ġop tik
Ġbertu lis
ari r
ond e
SM K
ĠC ocok
Ter akhir
Ġsel epas
ĠJo on
Ġ5 3
Ġbag asi
Ġefek nya
y ol
ĠCh ris
Perk embangan
Ġmem aafkan
jawa ban
Ġpem antauan
ĠP onsel
Ma af
o tif
K end
å½© ç¥
F aktor
Ġtingkat kan
h otel
Ġsol at
Ġmengec ilkan
Ġj uni
ĠK ok
id ung
Ġdis alah
R p
ĠL ight
v in
Ġatmos fer
Ġs idik
ian nya
Ġpar ameter
urun kan
Ġberkons entrasi
ebih nya
B ah
Ġpengg antian
ĠSh ow
Ġlazim nya
K ek
Ġmad rasah
Ġsh al
i jab
ĠIs lami
Ġma ut
Ġb iro
Ġkogn itif
ĠKe amanan
l ist
Ġmeny alah
ĠSumat ra
Ġpeng irim
Ġsem aksimal
iss an
ĠPenc ipta
Ġ enter
ĠTer lihat
Ġ? ?
ĠC itra
Ġmem entingkan
Angg ota
Ġsemb arang
Ġan y
Ġpen tas
Ġmeng angkut
Ġmeny ikapi
ĠPri v
ĠBer n
ongk rak
Ġmen andai
ep it
Ġc uka
ĠM endapatkan
ĠA K
et nya
Ġf enom
em o
angk ara
Ġc are
agi akan
ber ita
ĠD uta
Ġag ent
adi es
Ġter gi
ĠC im
Ġs ikat
end ra
Ġket agihan
enc ia
Ġ5 9
c ol
ĠD NA
ĠR et
Ġw irausaha
P C
Ġpol is
Ġker umah
p urna
av i
Ġeksp ansi
ulit kan
ĠH ealth
ĠN eymar
u ba
Ġperut nya
il ity
S urat
ĠAp otik
ĠQ ual
ec ehan
Ġkons titusi
ĠSej auh
Ġl atin
Ġpunc aknya
b alik
D id
ar enakan
ĠTim or
Ġp epatah
Ġpemb imbing
Ġr ank
ĠB y
T iga
ad ona
Ġjam in
ĠSar apan
Ġter ik
Ġsc reen
Ġp izza
and r
Ġinterv ensi
ĠM ati
ĠRi o
ĠR as
Ġpenc uri
Ġj ob
Ġkeber l
eks tur
Ġpers ero
Ġked ekatan
Ġib uku
Ġp H
ĠL aw
Ġpenis ku
Ġmenyes atkan
Ġbernaf as
ĠS ebut
ĠB inary
Ġperb incangan
Ġkor eksi
Ġterp utus
V I
Ġper asaannya
amp ok
s m
Ġt ante
ĠS inar
ĠJ arak
Ġkas ir
ĠAm ir
Ġj aw
Ġket ik
uk ir
Ġberg ulir
van za
ĠE sa
D M
h entikan
Art ikel
ĠK ot
Ġbat al
ill er
Ġsi ze
mar hum
AT AN
oc o
ag ub
ĠN an
p y
ĠD z
ĠPr imer
ĠBlu etooth
8 2
Ġrep res
et ab
ĠMel ainkan
Ġmemper ingatkan
ĠSab ang
el ur
Ġmeny emb
ak eh
Ġang gun
Ġla uk
Ġfl ek
Ġc iuman
Ġelas tis
C ukup
ĠB uka
Ġsakit nya
Ġjudul nya
Ġw alikota
ĠMul ti
Ġdi iringi
Ġberak tifitas
Ġ asi
ĠAs y
Ġsal ad
Ġsem ut
id ge
ĠS usun
op ak
ĠT H
L A
Ġdiba wakan
c es
b unga
Ġberd om
Ġm uat
O p
Is lam
Ġterd iam
ĠD ompet
S umber
ĠAc e
Ġsin us
ĠKarya wan
Ġmen ungg
ĠSo f
Ġketu juh
Ġdi as
al un
Ġmel elahkan
elus uran
t ika
En tah
Ġhamp aran
ĠSud irman
im ah
Ġk awah
ĠM antan
Ġtet es
Ġmengk hawatirkan
Ġsub yek
Ġ199 4
ĠH ubungi
Ġmod is
Ġpart isi
Ġbuat lah
A YA
Ġberk olaborasi
emp el
TI K
Ġseri es
ĠHar ganya
Ġl angganan
uk osa
ro ve
Ġseg itiga
b ahkan
ĠPer ser
Ġper nafasan
ĠF air
Sek ali
Ġker ah
ĠR ay
An d
rah man
ĠU K
Ġeks pektasi
oma x
S am
ĠSk or
p ikir
Ġpemak aman
Ġpen daftar
ist ri
Ġpengg emarnya
Ġaplikasi kan
Ġpen as
Ġbah asan
ĠN az
Ġs ad
Ġgur unya
Meng gunakan
Ñ ĩ
Ġmel engk
Ġpew arna
Ġmenikah i
int ir
Ġkekuatan nya
K abupaten
h r
oda an
Ġpol y
ĠS ig
Ġsil inder
Ġin j
Ġwilayah nya
g ap
Ġkac au
Ġsemb ako
ĠAr ti
g ame
ĠL ou
Ġrendah nya
Ġkomp or
Ġd ur
anc ial
Al at
b entuk
l omba
ĠKeh idupan
ĠMa ul
Ġpeng alamannya
Ġklasi fikasi
el o
tain ment
Ġme eting
B r
K ab
ĠKeb un
ĠPel uang
Ġmemer angi
n ografi
Ġpert emanan
Ġsen tim
ĠD y
ĠR aj
Ġpert anggung
ĠPolit eknik
Ġlemb ah
ul ur
ikm alaya
ĠTers edia
seb elum
Ġa urat
Ġulasan nya
Ġpemb atasan
emat ik
Ġdir es
Ġ ),
ĠB id
Ġ Ñģ
est an
Ġcem ilan
ĠSem en
ĠF eb
ĠInstitu t
ĠT angkas
ompok kan
Ġkompl ek
os ong
C S
ĠOr de
Ġc lient
eg on
Ġb olak
Ġujung nya
h m
F A
Ġf iksi
Ġmeny inggung
ĠK KN
ĠB ody
Ġkunjungan nya
Ġterkend ali
ristian o
Ġsel ektif
Ġc amilan
Ġm olekul
Ġpas sion
ĠPurw okerto
N O
Ġpas rah
ĠIb lis
Ġimp otensi
ĠN ational
Ġmemb alik
Ġl amp
Ġke an
Ġ199 2
Ġhor or
ed ahan
Ġrej eki
ev in
Ġex p
Ġnas ehat
ĠAd van
Ġkem aren
ala yak
Ġg ap
Ġterk irim
Ġmel apor
Ġkar at
Ġmat aku
ar di
ĠK re
Ðµ Ð½
Ġlap ang
ĠMen ulis
Ġb angkok
Ġf air
ĠP AS
Ġlong sor
ĠMer upakan
Ġdim ungkinkan
Ġpel akunya
Ġakadem isi
So al
Ġterb antu
Ġmengg apai
Ġc ore
Ġtrans formasi
Ġj eda
Ġdiant ar
Ġsel esaikan
v ing
Ġkon k
ĠPr akt
ĠU ji
Ø ¨
ĠR ata
ĠIs kan
p age
Ġberb atasan
m edia
Ġcer m
Ġkeb angkitan
Ġkat alog
Ġkuar tal
as ya
Ġboc oran
Ġdis usul
ad ana
Ġterh enti
ut orial
am is
is aran
c or
K al
Ġditu ju
osi alisasikan
ĠLam ongan
Ġc ut
ĠMad rasah
ĠK ekuatan
inc are
ĠKi ai
g ari
ĠD ini
ĠPen ingkatan
Ġdom inasi
ent re
ĠR un
at s
Ġketerl ambatan
iro id
M ana
Ġm ot
Ġdius ulkan
N et
c ang
Ġni atnya
ĠSo si
Ġtud uhan
Ġkegiatan nya
G unakan
ia o
K embali
Ġdip osting
Ġr untuh
ĠBantu an
Ġkekasih nya
Ġ abis
ukti an
Ġc emburu
alat ra
Ġvagin anya
P H
eli jen
ĠM PR
Ġsp anduk
Ġper izinan
Ġkes eb
Ġdib uru
apol res
Ġl iku
ac ap
Ġpangg ul
M alam
Ġmeny ulitkan
og rap
Ġmengg emb
Ġfilm nya
Ġab normal
Ġgenc ar
ĠJ ombang
emb us
ĠL umpur
Ġr aj
Ġmod us
Ġmemb uk
Ġdis play
Ġpel at
Ġl ampau
Ġg enset
ĠM ess
AT IS
Ġtan i
ul ui
Ġterl atih
etab ek
Ġt or
Ġpem ikir
eni us
Ġrek ayasa
ĠVic tor
Ġmempers embahkan
Ġf armasi
lem baga
Ġ3 50
Ġre quest
Ġpeng as
ĠB A
rah am
ĠNet work
on im
eny ut
C oba
ed es
Ġbers audara
Ġmeng embang
ĠPD AM
ĠAt h
ĠBanyak nya
Ġwah yu
in n
ompet ensi
ĠKa os
Ġb um
J I
ij aksanaan
mer eka
Ġkonser vasi
7 00
Ġpersero an
I k
Ġmobil itas
i eld
Ġmengab adikan
Ġfurn itur
Ġdis erang
ĠServ ices
Ġmeng uat
m uka
Ġkoloni al
u ja
Ġobat nya
Ġketidak p
Ð¾Ð ²
Ġmemb ongkar
Ġte per
ĠT A
ul ik
Ġruk un
R O
v erifikasi
Ġdis ahkan
Ġpengh alang
Ġmodel nya
Ġkes empurnaan
Ġsa bu
Ġminim arket
S ang
Ġgambar nya
Ġimun isasi
ĠU NI
Ġkons tan
Ġteman ku
Ġsh allallahu
s udah
ĠBuk hari
Ġekstr em
ĠL ong
Ġw e
and atangan
ta waran
if ah
Ġspec ial
ula ilah
Ġbus uk
ĠÐ ²
ĠPremi um
C G
Ġmen opang
ak ak
quar e
ap ahit
odi ak
Ġsab tu
Ġmen i
Ġspek ulasi
Ġh apus
ĠIs mail
ĠT ool
ĠJad ilah
ih ir
ĠL atin
h ah
ĠS astra
Ġ6 6
ĠMengh ilangkan
ĠI wan
ĠT amu
201 0
Ġbor os
Ġkal ung
ĠC are
Ġmengh afal
Ġmemilih nya
ĠMits ubishi
Ġberk ompetisi
J U
Ġt ong
Ġrem eh
k isah
Ġmem anjang
seb agai
ch ool
Ġsek retaris
Ġlay er
5 1
es ti
Ġj enazah
Ġkom edi
Ġken alan
Ġd ebat
of olio
M edia
ĠMad u
ĠDi j
Ġf eed
Ġmati c
vest asikan
ĠK aki
Ġmen a
Ġpo jok
ĠS ew
Ġberpikir an
ap usan
Ġmemang lah
Ġh onda
Ġa uto
Ġwid get
Ġad akah
ses u
ĠS or
ĠSmart fren
ĠA I
Ġm asi
ahan nya
M asa
Ġkal anya
ĠPS G
Ġsep up
k ab
g on
Ġkr istal
ĠTe ori
Ġp ung
on eksi
it ikan
ĠY as
ĠO K
ĠPas s
Ġsel ler
ĠBat ak
ĠSU V
Ġg im
tac t
Ġmenyel idiki
Ġkeb ohongan
ĠA ch
Ġalam nya
Ġditemp ati
F ungsi
Ġpen umbuh
end ahkan
Ġdi ap
Ġmengul angi
h is
Ġmemperl ancar
Ġdi up
ĠHy e
Ġpem adam
ĠG od
D unia
rioritas kan
Ġterp isahkan
Ð¸ Ð
Ġku ah
Ġs engketa
Ġmeny umbang
Ġkeb esaran
K alo
p ensi
Ġer opa
AN A
Dil ansir
ĠUs ahakan
Met ode
ĠR M
od etabek
ĠF A
Ġpend ampingan
sek arang
afs iran
Ġpemir sa
ĠL it
get ar
ĠMus ic
Ġlec et
ust om
Ġn ekat
da i
Ġpeny esalan
amp ainya
ur ung
Ġpenja jah
Ġpen etrasi
ĠMin ahasa
imb angkan
Ġdengan ku
and ian
ĠAn war
Ġp atuh
Ġl intasan
Ġkh alayak
ĠY up
Ġdik hususkan
lan k
z ab
Ġmen ampakkan
ĠSur v
Ġp ig
ef isi
Ġc ode
Ġ5 7
Ġkon versi
Ġstat usnya
ĠJ uan
ak ala
Ġsing apura
Ġkesep ian
Ġberpel uang
ĠPr insip
Ġditulis kan
Ġkafe in
w anita
Ġhar um
á »
Ġsyah wat
Ġkon yol
as mi
Ġmemb anding
q i
Ġs oto
c uma
Ġmengg osok
l ika
ĠZ h
Ġab orsi
Ġteper daya
Ġtulis kan
Ġpel bagai
Ġar teri
ut at
Ġvari etas
ĠGr ab
Ġl emp
Ġmengen ang
Ġlap is
Ġb ulus
ĠV isi
Ġl ovebird
oc okan
ĠProp insi
Ġdiband rol
W P
Ġdeposit o
Ġab al
Ġand il
ĠTer minal
c ing
Ġas osiasi
Ġpel uru
Ġmengh indarkan
ĠT unggal
Ġke jaya
p ong
ĠD ewasa
lat en
ĠPlay er
id itas
iner g
Ġl enyap
r ub
Q L
... ]
atang i
ic ap
Ġm ill
iz at
L E
Ġsk in
Ġad aptasi
ĠPK K
ĠIn c
Ġdil upakan
Ġmembah agiakan
h ukum
ĠC re
ĠA IDS
ĠC afe
sul e
Ġkur s
Ġjengg ot
Ġsel aras
ĠS ong
Ġkompet en
ĠKom ite
B ook
ungg ulkan
Mem ilih
Ġtergi ur
Ġr angsangan
os ongan
id angkan
Ġpeng gerak
Ġmenyel am
ĠD oa
if orl
5 4
Ġkons istensi
ĠBl ok
Ġkewanita an
Ġg rav
ĠIs land
Ġmeny e
Ġal lah
ĠG ian
ema ah
ĠSy iah
Ġaman at
Ġev en
Ġcem erlang
ĠC a
Ġlel ang
ter s
Ġamp un
Ad anya
ĠOl impiade
udid ayakan
R asa
Ġin k
S E
in st
Ġdip elihara
! .
ĠYah ya
ed dy
t emen
Ġt aw
Ġpengh ancur
ĠP ati
ĠSep anjang
ĠW ill
ĠV egas
ur s
um ul
Ġblack jack
Ġl upakan
Ġberdom isili
tis ida
Ġper undang
ĠMoj okerto
N P
ĠB all
Ġkarya wannya
ĠB ond
Ġbert em
ĠSp esi
ĠAis yah
ĠSam arinda
r akan
Ġtert anam
ĠL antai
m und
Ġmel ebar
or es
so al
pem ain
l angga
rig ht
Ġsulit nya
Ġsen ja
e tuk
Ġmenc ampur
Ġmus ic
amb an
ĠT am
Ġj anda
ĠJ ob
Ġcoba an
Ġdiber itahu
Ġganj il
Ġseh abis
Ġseh ubungan
H D
m entasi
Ġun g
V C
Ġmer aup
s erta
Ġm oney
ox y
Ġmen untaskan
V ideo
Ġeks otis
Ġentrep reneur
u gr
Ġmend iskusikan
Ġmeng is
Ġkang en
ĠPilih lah
ĠSeh arusnya
l ap
Ġab ang
ter y
Ġsaf ety
ĠPsik ologi
qu id
Ġmel empar
ĠC O
aj o
Ġprot eksi
.. âĢĿ
Ġak ta
ĠS ifat
Ġdik eh
er inya
Ġdi ja
ĠC antik
Ġterk umpul
ĠMic ro
ĠH ee
Ġsp ace
Ġb reak
ĠBer h
ĠE h
Ġkab ut
ĠML M
ĠUst adz
ebih annya
n c
Ġdir ugikan
Ġinsp ir
ĠD u
ud hu
ĠPer lindungan
Ġjah it
ĠSo fa
Ġ au
Ġdaerah nya
angk ang
ver n
log an
Ġter buang
ĠD iri
Ġmeny antap
ĠT eg
ĠPer istiwa
d aran
Ġbert enaga
Ġter ulang
Ġmen untun
ĠP etugas
Ġres to
Us ai
Ġmem anfaat
ĠSej ahtera
S U
ni vers
Ġchips et
J alan
ĠW an
ah ar
tab el
ĠM ali
ĠD R
angg ilan
ĠS olusi
tim pa
Ġak sen
Ġkeb ocoran
Ġkn ow
Ġs arat
ang is
om asi
k m
Dis ini
ĠKUH P
p ri
Ġpel ecehan
ĠPer i
Ġke enam
ud al
ĠH alaman
Ġkem unculan
Ġpeng arang
K adang
Ġr us
ĠK uasa
Ġpeng us
he et
ur g
ĠL ampu
Ġbertulis kan
ĠFak ta
Ġget aran
Ġber jaya
ĠS KPD
ĠJawa ban
Ġmah u
Ġh air
k ati
ĠPok emon
Ġan emia
ĠPen erb
Ġters entuh
f ar
Ġgel aran
r oli
eh eh
ĠP is
Ġbarang nya
Ġmengeks presikan
Man usia
al y
ĠF ood
Um umnya
egr adasi
ĠR OM
ĠD ealer
ĠIslam ic
ac ik
Ġterj angkit
e en
Ġpen at
ĠD uc
oc urrency
Ġs ite
Ġm imp
T ers
ĠYah oo
ac y
A c
Ġcont ent
Ġd onor
ĠJ on
Ġraya p
ihat in
ĠSum sel
ĠT ulisan
ingin kannya
es ia
ĠUl ang
Ġdi amkan
P os
Ġbers embunyi
Ġri il
Ġkar enakan
ĠG P
al al
G O
201 1
Ġuntung nya
Ġdis aksikan
Ġmemper ebutkan
T U
Ġm ik
P ulau
ĠR ach
ĠPel aksanaan
ĠPet rus
Ġdr amat
ikl anan
ĠP ot
Ġm apan
pro v
Ġketi ganya
ĠBin omo
2 000
oc i
Ġke anggotaan
ĠMari o
ĠBM W
uli akan
el iruan
Ġpro s
Ġalum inium
Ġker um
et eran
ĠS uar
ag um
Ġk uc
ĠD ual
Ã Ĥ
Ġpeny idikan
ar ning
Ġres t
ouc h
wit ch
ĠB ook
ĠRev iew
abu an
ĠRup anya
Ġs alib
kan lah
utama an
Ġberg eser
Ġrekan nya
ĠF inal
Ġber lin
Ġkredib ilitas
ep lay
ĠMar c
ĠAKB P
ĠBac carat
Ġpemb angun
ju ga
Ġmeng ajari
ĠU b
ĠF au
ĠLeg end
Ġdic ek
Ġpers elis
Ġc engk
Ġmem ad
ĠU V
Ġmak nanya
Ġanak ku
Ġpel ac
Ġterl ampau
Ġny enyak
ĠV II
Ġmenya yangi
ĠD ub
Ġl ob
ĠSand iaga
dus er
ĠA udi
Ġarti an
Ġpenyakit nya
Ġpet inggi
Ġri as
ob atkan
Ġfisik nya
Ġc ake
ĠTer d
si c
ug uran
ri um
Ġpop ok
ĠTour s
Peng obatan
on itor
Ġdib areng
ĠT KI
Ġdis uguhkan
ĠH ip
Ġdij anjikan
Ġn uran
Ġperusahaan nya
li e
ĠM ek
ĠÙ ħ
Ġoptim asi
ĠB und
Ġefek tivitas
Ġkok i
am art
Ġperc uma
Ġbi ologis
9 8
Ø ³
tak uler
Ġkomp res
ĠKon on
ep asan
R P
ĠAc er
Ġpen angkal
ĠBlack berry
Ġmeng emudi
Ġterm otivasi
Ġbek u
Ġmem alukan
Ġberp usat
z on
inj aman
ĠSet an
ĠBak teri
ub er
Ġmengg antinya
amu gari
e alisasi
Ġman agement
Ġbr anding
Ġpos tur
ĠM ab
ĠG amb
eks inya
ĠSp ir
at ikan
Ġmem erintah
ĠPem bayaran
Ke untungan
Ġinc aran
Ġkehad irannya
Ġmend efinisikan
man usia
Ġr atu
m uran
Ġhidro ponik
Ġsimp ati
Kel ebihan
ĠH az
M ent
Ġban ner
ĠMi x
imp or
Ġdit unda
Dir ektur
ĠKod im
ĠPer da
Ġperc etakan
B eli
Ġfil osofi
Ġt enis
Ġpem ungutan
= =
Ġmengk aji
es ahan
Ġdag angan
Ġfoto nya
Ġstand art
ĠPenj elasan
l ikan
ĠD harma
ap ter
ah ului
Ġmenj unjung
m enc
AR ANG
aa a
Ġmengh ukum
Ġ3 60
ba an
Ġberk ed
b iaya
Ġdip utuskan
Ġmenu angkan
ihat inkan
ĠAd u
Ġkeas lian
Ġk ubah
Ġpeng urusan
y angan
Ġre ad
Ġkont emp
H idup
Ġmemper hitungkan
Ġmeng es
ĠB end
ĠRes toran
ĠS hi
Ġdi bu
Ġgl ukosa
Ġhidup mu
Ġsah ur
Ġg anteng
Ġbing o
Ġbay am
Ġmen ul
Ġbro sur
Ġdif ungsikan
ĠRid wan
ri e
Ġters umbat
ern ame
L a
ep i
Ġsint etis
ĠK etu
G D
Ġy an
v o
Ġrel aks
Meng ingat
Ġbl ibli
Ġag amanya
Ġmeng unci
Ġterh ormat
Ġbea uty
Ġkut ip
ĠSam ud
ĠP age
ti ps
ĠF ort
ĠB ok
Ġph oto
Ġdis ematkan
Ġdij uluki
Ġse adanya
Ġc lass
ĠD iharapkan
Ġb ap
Ġbern uansa
b ukti
ud e
Ġpers audaraan
z en
Ġber mu
Ġmen transfer
S ungguh
ĠDi bawah
Ġf o
ĠBerk at
Ġilm unya
g aris
Ġd ec
ĠP eter
s isa
S H
Ġelektr on
Ġperm ata
ĠQ ue
Ġpemb atas
Ġmen abrak
Ġmeny engat
eks ual
Ġdiper dagangkan
Ġpemb esaran
ĠAs al
el aran
awi jaya
Ġter amat
angk uk
lin ik
oro ti
ĠL iv
Ġterg el
Ġkepeng urusan
ĠG udang
c at
Ġterp adu
oh kan
Ġkem ah
c u
ĠF K
Ġv i
il it
Ġdil ewatkan
Ġter kuat
ĠT uban
Ġpro cessor
ĠTas ikmalaya
Ġr etak
ĠR od
Ġr ules
ĠTerj un
ĠJ urnal
Ġprof esor
f ir
makan an
Ġlap or
Ġtir ai
Ġ oh
Ġl alat
Ġkeb awah
Ġ5 000
Ġdiri wayatkan
p d
op p
Ġpenamp akan
ĠK OM
Ġkel emb
ĠH M
ĠJ oker
Ġny ari
ern ia
Ġhist oris
Ġir it
ĠY e
et aan
Ġmemb uruk
Ġcak upan
Ġber alasan
Ġt ick
p irasi
Ġsty lish
ĠPl aza
Ġj et
Ġterp akai
Ġmem intanya
Ġr itel
angg anya
ĠAs isten
at alan
Ġberin ovasi
iforl if
ĠH ewan
Ġbermain nya
Dian tara
Ġmengangg uk
eg er
um in
ĠT B
p ohon
ĠM engg
Ġtra ffic
d own
Ġgol f
Ġedit ing
Ġr ia
us s
Ġinterv iew
Ġdengan mu
ĠFr ans
form a
usi al
B entuk
Ġkub uran
Ġsp am
all et
Ġpert anyaannya
ĠSum bawa
A z
ĠMan agement
ĠY i
Ġbers osialisasi
ĠRis et
Ġsen in
Ġdibareng i
ĠT ulis
Ġb ilik
B l
n ers
ĠPer awatan
S un
ĠK uat
Ġem isi
Ġkons um
Ġakadem is
ĠBe asiswa
Ġ12 8
Ġkemb ung
Ġto uch
Ġas asi
Ġker udung
Ġdis alurkan
Ġg enggam
ak um
urn iture
k ap
ĠM era
Ġterc iptanya
kas us
ĠV IP
Ġpsik is
ĠR ol
ur y
Sej umlah
Ġterp apar
Ġinves tigasi
Ġser buk
Ġmar aknya
Ġbek asi
ĠG ili
i aran
Ġper wira
urut kan
Ġ9 8
Ġpo und
ĠTr aining
Ġmenggand eng
ĠD et
ĠStr eet
Ġb enturan
Ġmem odifikasi
Ġkonek tivitas
ĠP PP
Ġpend engaran
ĠPem esanan
sem oga
g anti
Ġtak kan
J okowi
ĠG S
Ġmemb uru
Ġwar net
ond er
Ġsemb elit
unt an
s ub
Ġter atasi
har inya
ni e
ĠEk sek
ĠK awasaki
Ġdo ang
Ġmengar tikan
Ġkeda ulatan
ĠLain nya
Ġk iu
Ġ19 60
Ġ6 9
Ak hir
h ut
esk rim
em atan
C I
sil ahkan
Ġt araf
o j
lo itasi
Ġ7 3
ĠCor por
ĠAb ang
ĠCik arang
Ġberakhir nya
Ġkec ap
Ġs ujud
L ayanan
and om
Ġsam sung
emp it
ek as
ĠBr un
ĠD arat
Ġred aksi
Ġperselis ihan
ĠAr ema
Ġkep an
Ġfenom enal
on el
Ġpel ukan
Ġkem ari
Ġint egrasi
ĠM eg
Ġch art
Ġbok ep
Ġo ven
ber s
Ġak i
ĠE li
ĠInstitu te
ud ur
. âĢĻ
N ews
Ġdib atalkan
ĠR UU
k am
or s
Ġn e
Ġmar gin
Ġseg elas
ĠB ina
ĠPokok nya
ĠA mi
p am
ĠP agar
Ġkes aksian
Ġcar ilah
ĠRem aja
Ġberta juk
Ġmer umuskan
Ġa v
Ġdem okratis
Ġmemperl ambat
eg ala
Ġpus kesmas
ĠSev illa
Ġkel opak
ĠL ar
int egr
Ġkit chen
y s
ĠAl amat
Ġtert ata
Ġke istimewaan
Ġkeh ancuran
Ġbic arakan
Ġm agn
aks inya
Ġkom ent
er ahkan
Ġm utasi
Ġberl ubang
ĠMaj apahit
Ġnotab ene
ĠD E
ĠMer api
ĠEm ail
ec e
Ġp on
ĠP ic
ĠP ena
ĠEk a
ĠPay udara
ĠFlor ist
n amen
Ġpemb uktian
Ġev olusi
ĠO il
anggungjawab kan
ĠH ana
Ġl orong
D ep
b en
Ġpel embab
ag ra
Ġb ik
Ġmem amerkan
ĠN issan
ĠWat ch
Ġdisk rim
Ġng erti
P AS
Ġmemberikan nya
Ġmenj am
ĠâĢ¦ .
ĠM p
M antan
Ġper helatan
ĠM id
Ġk anc
Ġ ï¿½
o yang
ya an
Ġin ch
ang a
Ġkr usial
Ġberc erai
Ġdid asari
Ġmenj el
if a
ord an
Ġh oriz
im is
Ġbal ok
Ġg oa
Ġmengan tuk
ĠSed erhana
Ġdi agnosis
dag ri
ĠF I
ĠW ell
Ġdik em
Ġringk as
ĠN antinya
Ġberk reasi
Ġdeh idrasi
Ġsambung nya
it aran
ĠK laten
uar akan
Ã ³
Ġmen etes
ĠB ata
Ġmel angsungkan
ĠL emb
Ġterlin tas
om ent
Ġmes s
ahasiswa an
ĠPend uduk
us k
Ġsel aput
ĠK alla
Ġak urasi
ard o
ĠP OS
ĠMenc ari
Ġket ombe
ĠEver ton
d em
ĠS ov
Ġal arm
ej ap
f ur
L agu
ĠKar angan
Ġberj erawat
ĠCan on
Ġpen ambangan
Ġterh ambat
Ġkeram aian
Ġberb ulan
ikm atnya
Ġ199 3
l alu
Ġbert olak
Ġji wanya
Ã ¼
Ber apa
Ġh epatitis
ual ian
Ġmenyis ihkan
Ġr etail
ĠKol am
ĠPro dusen
Ter imakasih
Ġsitu lah
Ġfit rah
aham inya
Ġmelamb angkan
Ġint ro
Ġdilap isi
D ij
Ġmembutuhkan nya
unc ing
Ġg enteng
art ai
Ġay o
ĠD ekan
ĠCh rist
Ġperbeda annya
ĠEv ent
Ġres ort
Pas alnya
Ġangg rek
Ġkal eng
K L
9 6
Ġcle an
si ve
c le
E f
ang er
ĠG enerasi
Ġmeng oleksi
Ġdih abiskan
Ġbi ologi
b ener
Ġdip ro
Ġc loud
ĠK eka
Ġpen uhi
al ai
v ent
or ot
ĠPember antasan
F or
ar no
ul uk
Ġpenc atatan
t he
Ġber acun
r ul
Ġp anti
ĠAmer ican
ĠIm p
ĠS ta
ĠN ikmati
Ġi uran
ĠDik au
ĠP ant
ĠN ug
Ġinv est
Ġfr anch
M endapatkan
enda ft
Ġkas et
Ġhabit at
han ks
angk is
e or
Ġkenc an
ĠBaga imanapun
P eserta
Ġmemperk aya
ĠBer sih
ra ja
k ot
ĠTer kait
Ġst akeh
Ġte ga
sh ow
Ġrespon sif
Ġkep utus
Bel ajar
ĠMak e
ĠGo a
R am
ĠS aham
ĠH ero
ĠP re
r enal
Ġeks tensi
P il
ĠPel aksana
Ġ ajar
Ġperp indahan
g ung
tit le
EL I
Ġtersel esaikan
Ġdiper lihatkan
Ġperg elangan
ĠInd om
ĠH ai
Ġd atanya
Ġper tumbuh
Ġbunc it
N ET
Ġmengan jurkan
ĠH j
Ġkel ayakan
Ġjam bu
Ġ urus
E k
Ġnir kabel
Ġberper ilaku
ij inkan
Ġj g
ĠKeber adaan
_ ^
Ġteb ak
Ġsnork eling
ĠUp aya
ob ol
Ġbener an
oro id
Ġberh ijab
ĠR oy
ĠG Hz
ord en
lam et
Ġmen tor
Ġberg aransi
Ġmar mer
ĠS uka
Ġpangg ang
ĠJ oo
B ank
Ġtravel er
ekt ro
ĠM ilik
Ġsek ira
un inya
ew ahan
Ġping san
ĠF isika
ĠSer ingkali
ĠRah asia
ĠSak ti
D es
Ġmag ang
Ġn ag
Ġprinsip nya
ĠTab let
ĠG ading
ĠJ aket
enan kan
Ġkol ektif
Ġok s
t itik
h ol
Ġmengh ant
ĠA KP
ĠC hat
Ġdis angka
ĠSar jana
Ġmul timedia
ian jur
Ġdic abut
Ġpinj am
baga an
ĠT angga
ĠBi asa
Ġko ordin
r epot
Ġsel imut
Ġmeny anyi
Ġak sinya
Ġ6 8
Ġoff ice
Ġ7 8
ci ence
tib mas
b ie
Ġg h
ĠB NN
ĠW C
Ġdim intai
ĠÐ ¸
ij ak
Ġrek am
Ġkat up
Ġangk ot
Ġpengaruh nya
Ġterg oda
est o
Ġst iker
ter utama
Ġpsik olog
ĠSur ga
d ownload
ĠSem angat
Ġan tivirus
ĠG ua
ĠPern ikahan
S ya
Ġul ah
ob udur
ĠP hone
Ġdih iasi
Ġsc reens
Ġrum usan
un k
ĠJ od
B B
ĠSek da
ĠG igi
Ġkes akitan
Ġkeb agian
Ġkar di
Ġdig oreng
Ġmeng isahkan
ĠL y
j aran
Ġsed an
T eknik
S ering
Ġem ak
ĠK apan
ĠR ap
ĠH appy
Ġl onc
Ġbeb atuan
unda an
Ġbingk ai
Ġn it
Ġis lami
Ġmeng ep
Ġpac u
200 9
ĠSeb anyak
ĠR PP
g es
Ġc urang
Ġpeng aman
alon kan
ad emi
Ġflash disk
uk uan
Ġperab ot
Ġpel ay
Ġkorpor asi
egaw aian
ĠKeter angan
Ġom ega
kan ak
Ġpers embahan
Ġra ihan
eb ang
Ġhal angan
ĠS aint
Ġpec ahan
ĠMin imal
w ana
Ġreligi us
Ġi on
Ġdibuat kan
ĠLu is
P endidikan
Ġtemper atur
ĠSel eksi
ĠN un
Ġpel ancong
Ġberp egang
ĠAd e
Ġw in
Ġspek takuler
ĠKem erdekaan
Ġmotor nya
Ġkek eliruan
antu l
ĠSek retariat
Ġkontro versi
ĠA T
Ġker anjang
Ġ6 2
Ġkeb ijaksanaan
di ola
eng ku
Ġpeneg akan
ont okan
Ġport ofolio
Ġpar adigma
ĠKl ub
Ġn aj
ANG AN
Ġdek larasi
ĠÐ ½
Ġis ti
ĠUn ik
ul ut
Ġl ewati
x is
ĠAk adem
Ġp ist
eg e
Ġm amp
ĠPro ject
Y ah
Ġke adaannya
Ġl engkapi
ĠBer d
ĠP MI
AR U
Ġmenel pon
Ġmer eg
Ġk aitan
Ġpat en
ĠD eb
Ġsh ort
or al
Ġdiser takan
Ġd enger
ĠV ia
Ġent ri
ĠK P
ĠPener imaan
Ġgratis an
Ġber getar
om nia
Ġlengk et
Ġper esmian
Ġrem ote
Ġdib esar
k ecil
ĠSo ft
Ġmeny umbangkan
ĠP E
on aktifkan
M AN
ĠPurw akarta
ĠPEN G
ĠPer l
ĠIk atan
M uh
Ġw i
ĠTun ai
Ġd zikir
ĠE X
ĠB ir
Ġpenc emaran
7 4
,- .
P enj
Ġ ebook
Ġmeneg akkan
Ġpuc at
Ġkeluar g
Ġber untun
Ġmen oleh
ĠM ode
Ġur ine
Ġsingk ong
ĠPer an
Ġtok en
Ġbangs awan
ĠEn d
Ng gak
ĠA U
Ġdid atangkan
Ġpeny andang
Ġpemenang nya
Ġmemb ungk
Ġ Ã¢
w is
id as
ang in
Ġkabin et
Ġ3 000
Ġesensi al
Ġk ot
Ġpen elusuran
ak muran
Ġpernikahan nya
Ġmeres ap
m esin
ĠPro di
Ġpemb ebasan
O b
Ġmengikut inya
em askan
s ay
mas yarakat
ĠH ulu
Tr ans
Ġwar is
Ġdi was
ĠH AR
Ġcu ek
ĠPel anggan
Ġmenud uh
Ġkepad atan
la ba
ic ester
ĠW ak
ĠMen ingkatkan
m esk
Ġj omblo
Ġpen anda
Ġpeng ajian
ĠMer ek
Ġmengel uhkan
mas ter
n otis
it im
? !
Ġmer aj
Ġc urah
Ġc op
Ġj elang
ur ant
Ġpem angku
angg ihan
Ġser asa
ĠN av
og oh
Ġdih ormati
il au
ĠGun awan
ob ar
Ġdipert anyakan
Ġtr eat
sek itar
B uk
enc h
ĠMart in
ĠS ulai
Ġsed ari
Ġpart isip
Ġmenak lukkan
ĠSem inar
Ke jadian
Ġberkep anjangan
ĠS lim
ĠPer encanaan
ĠSe arch
ĠPeng unjung
ĠP ejabat
ant ri
Ġcap res
r ar
ĠJ iwa
ujur nya
Kas us
Ġsejarah nya
id or
Ġmengh imbau
, âĢĻâĢĻ
ord ir
Ġmer ta
r edit
W arga
ĠP ink
Ġd ina
ĠVal encia
Ġsamping nya
er am
Ġw ib
Ġdic erna
A yah
ingk ir
it ahukan
ĠJ im
ĠPern yataan
ĠKom isaris
am ad
Ġv alue
Ġkep r
ĠC ristiano
Ġn ature
US D
Ġ' '
Ġlum rah
Ġdunia wi
Ġam er
Ġmemanfaat kannya
ĠT indakan
Ġ> >
Ġdis isi
Ġmempr ihatinkan
Ġber jaga
Ġdi awal
ĠKemen angan
ĠPem ilih
l ame
As salamu
ĠBer ikan
ĠTah ukah
Ġmem ilah
Ġun juk
Ġdisekitar nya
p elan
Ġak upun
Ġl ereng
k urangnya
ĠAnt oni
S C
ĠKet entuan
eluarga an
ĠD aging
Ġbak ti
ĠR al
ĠR uangan
Ġlo ading
Ġres ist
Ġmemp elai
Ġtro fi
Ġ1 30
Ġters esat
ĠM it
Ġf iq
Ġeks plorasi
t v
Ġs imb
b ukaan
Ġ19 50
Ġkomp ensasi
Ġh ob
Ġmengenal nya
Ġper masalah
Ġmeny amakan
Ġf es
Ġr aw
Ġmem ahaminya
6 2
ĠPan was
Ġp hone
ĠG PU
ĠY oo
sb ook
Ġdon asi
B ay
Ġr ate
ĠGR ATIS
ij ri
Ġterc ampur
ĠKap asitas
Ġï Ĥ
oll ower
ens or
âĢ ĭ
ĠJ ujur
q wa
Ġkej elasan
Ġas uh
Ġ oli
Ġmember atkan
Har apan
ĠS BM
k amu
ĠD isk
imp ulannya
er u
Ġso urce
Ġmeny iksa
Ġberp en
ij ing
Sek itar
in et
Ġmenyeb alkan
Ġreb usan
Menc ari
Ġber aksi
Ġdok tor
Ġc ost
Ġis yarat
n ahkan
Ġtel kom
Sej arah
ĠT en
Ġprop insi
Ġtert unda
ĠCil acap
Ġberl ian
end ung
Ġper awan
Ġng eh
w edan
Ġpem ohon
Ġh ulu
g am
Ġmer emas
Ġmeng ac
uan nya
ĠD ec
Ġrangk um
ĠCry stal
ĠBany umas
Ġkew irausahaan
Ġf isi
Ġmemf okuskan
Ġkonsult asikan
or ok
ut ik
Ġdik ejar
Ġdeng a
integr asikan
ĠB un
Ġmekan ik
t w
Ġref leksi
I r
Ġmenyimp annya
uj ar
Ġab strak
ĠFre eport
Ġper baiki
Ġmengk ritik
pro yek
Ġmenurut i
in formasi
et e
Ġpeng operasi
ĠI X
ĠP akaian
J uga
Ø ¹
Ġir ama
C inta
ab an
ĠIb ukota
ĠA vanza
Ġkons eling
Ġfr om
Ġmeny andang
Ġman i
ĠL uka
Ġsel am
ĠAk bar
H T
Ġm ewajib
ĠU c
gi o
ĠS ena
Ġberga irah
Ġuntuk ku
ĠBer kualitas
ly ing
sc reen
Ġdiber bagai
Ġent eng
Ġkud us
Ġsesu atunya
Ġj urang
Ġmemper barui
Ġdit injau
K O
Ġdib ebaskan
Ġket epatan
any ian
Ġdiwas padai
Ġf antasi
Ġh appy
6 3
k ej
oc ol
ĠB au
ĠR ama
Ġ16 0
Ġdibel akang
ĠWi jaya
ĠG AM
B adan
E DI
Ġmelengk ung
ĠHer m
ĠLor enzo
Ġdir angk
T elah
lim ited
ik op
Ġters erah
ĠRo ad
ĠG ag
Ġbet a
S R
ĠSt ep
ĠAn ton
Ġdil ipat
Ġmeng alah
Ġmeng ay
Ġistr iku
Sej auh
D em
Ġak bar
s yarat
ĠB aja
ter inya
tic ker
Ġdi gabungkan
Ġt una
Ġd aring
ĠC ash
Ġser ikat
ĠWash ington
eb ankan
tor age
ark i
Ġrek rutmen
P enc
Ġout bound
y et
Ġiri gasi
Ġber alamat
B iaya
up lai
ĠL ayar
Ġpenangg ulangan
Ġtingg alnya
ĠP O
ud ing
ep uk
ĠUp acara
Ġpet ang
ĠKer en
L akukan
Sel uruh
Ġtrag edi
ĠH ir
ĠL aga
ĠSE L
Ġaudi ens
ES T
banyak nya
ĠOl d
ch er
yuk uri
Ġrap uh
Go ogle
Ġt in
Ġdramat is
Ġfac tor
Ġ å
ust asi
as at
Ġter iak
ĠL uw
bi asanya
Ġdown line
ĠS endiri
Ġmengk onsumsinya
yek h
L antas
Ġinformasi kan
ĠPro v
ĠPem andangan
ĠT ag
ĠG et
ĠKapol sek
Ġtump eng
Ġvok al
8 3
ĠMin um
d osa
ĠKe empat
W arna
Ġpor os
ĠZ a
Ġkul ihat
ca iran
and y
ĠPersi ja
ek arag
ĠK las
ĠW W
Ġpor nografi
ĠOb ama
S y
ĠK uliah
ĠR C
Ġst ainless
ef f
og iri
Ñ ħ
oll er
Ġperl unya
endah ara
AH A
Ġdid istribusikan
Ġmeng incar
if er
at ama
h ub
Ġpil ek
Ġego is
el ine
Ġmem int
Ġterm ahal
ul as
ĠSun nah
ot en
Ġsent ra
Ġjaj an
Ġjatuh nya
ĠBas wedan
Ġmenurun nya
ĠMasalah nya
bah arui
om os
Ġn eur
ĠPr estasi
Ġselebr iti
ingk ari
ĠZ aman
ĠPeng hargaan
Ġnan as
Ġg und
ĠPes awat
Ġberd atangan
ĠL el
Ġmeng asy
Ġreg enerasi
ĠK ho
ĠH ollywood
Ġkol agen
D apatkan
Ġtal enta
Ġc ina
G uru
Ġsek ejap
t d
h ur
t anggung
ĠAlum ni
Ġdi daftarkan
ĠH TC
Ġst atis
Ġkr u
ĠMel ia
urus kan
ĠPl at
oba o
ĠMis alkan
d etik
us ukan
Ġen zim
ĠT enang
Ġmer ambah
Ġmen uk
ĠMul ia
ĠSat gas
k ripsi
ĠK yai
Ġsen ti
Ġmeninggal kannya
Ġm editasi
Ġmenyer tai
ĠAr ena
Ġust adz
ĠS TI
T eknologi
Ġbu il
f ile
engk ang
ĠG ri
ĠPak istan
á º
Ġm ilih
Ment eri
v ensi
ĠM isi
t etapi
Ġl ocal
Ġpem esan
Ġt alk
ĠV ill
Ġas set
y r
Ġdil angsungkan
ĠM ans
ĠGold en
Ġseg itu
arm on
ĠPer ikanan
arif an
Ses eorang
Ġdi utamakan
Ġdir ebus
Ġhabis kan
od ata
ĠR O
Ġbasi c
Ġt ap
Ġf un
Ġter indah
Ġsir kuit
ĠPol andia
Ġj emput
Ġtangg ap
edi anya
ĠSw t
Ġpelayan annya
Ġluas nya
Ġri ba
Ġber api
ah ah
Ġasp al
ĠTerl alu
Ġin come
Ġpendah ulunya
Ġemp edu
ĠTerl epas
ĠV iew
Ġr pm
ĠTa e
Ġkeseb elasan
Ġdr one
ĠGe orge
Ġkontemp orer
Ġmas anya
ac auan
Ġpr ess
Ġber tiga
Ġur in
ĠMab es
Ġl ump
ĠB eda
E x
Ġv ena
ins am
Ġbers inergi
Ġmakan nya
ðŁ ĺ
Ġrew ard
P agi
6 1
ta urant
ĠF oundation
Ġkomp ati
ĠP PS
ac aran
omb ol
ĠP otensi
Ġmeng emas
Ġder maga
ĠR E
ĠR uk
ĠDuk ungan
ĠK n
ĠK idul
Ġpengh apusan
omb ia
Ġmemer iksakan
Ġperlu asan
Ġb oy
Ġp iano
Ġmenggi git
Ġmewajib kan
Ġmon eter
ut il
Ġputr anya
ĠM uj
insam yong
Ġgig itan
ĠUn o
Ġshamp o
Ġweek end
Ġres ah
Ġterm udah
os ep
M ohon
ail y
D ikutip
s tar
Ġ199 1
ek o
ĠH il
inj ai
Ġd lm
Ġterc ermin
ĠV s
Ġpay udaranya
ĠS he
tab ak
ĠD atang
Ġf lat
ont akan
M T
Ġhak ekat
lus h
Ġpang eran
Ġked amaian
ĠDip onegoro
amb utan
ĠO PD
ĠPers atuan
ĠPa us
ĠDri ve
ĠSing le
Ġter umbu
Ġpad uan
ja z
Ġmenjawab nya
Ġac ap
Ġj urus
ul tur
Ġdid atangi
Ġhakikat nya
Ġb eh
Ġbr on
Ġdel egasi
Ġg odaan
Ġoff icial
ĠX II
ĠDir inya
ĠS esuatu
Ġmak lum
C l
Ġkeper gian
ĠTanjung pinang
Ġun t
Ġmenganggap nya
ĠG an
Ġ ess
ĠH adiah
ĠIk h
Ġsumber nya
ĠPin ang
Ġkejaya an
az er
Ġren yah
ĠB re
ĠE UR
ĠDis ney
ĠPend erita
Ġharap annya
ĠKem entrian
TRI B
k ey
ok u
Ġa ff
Ġkek eluargaan
Ġt rafik
Ġn arkotika
ĠY ANG
Ġl ipstick
Ġmelon jak
Ġmengk onfirmasi
K andungan
ĠT et
over y
ĠM H
Ġmes jid
Ġpertumbuh annya
ĠJ ak
Ġkej auhan
ĠBe ach
ot es
ĠAr j
Ġber tum
ĠSp eed
T el
ok ong
en ia
Ġbah awa
Ġberl ayar
Ġpeny ed
Ġbi ak
å½©ç¥ ¨
asy im
Ġprim adona
C P
Ġh ibah
Ġmem e
ĠT arget
Ġcu ba
Ġpeny angga
Ġberm alam
M ahasiswa
ĠP apa
Ġbangk rut
ih ihi
Ġmenggug ah
ĠAk tivitas
ĠP angkal
ventu re
Ġmen timun
ĠMa af
ĠKap ten
ĠB AN
Ġberp asangan
ĠAir langga
Ġmel emparkan
ĠSes udah
Ġmenye imbangkan
Ġkan annya
Ġditutup i
ĠZ at
os of
ĠSum bar
Ġka us
Ġken ali
Ġpas te
Ġmen angkan
Ġberk esin
Ġpr eferensi
Ġgor esan
A IDS
Ġdikeh endaki
D S
r ag
Ġback p
Ġdisi arkan
ĠHold em
ĠMin uman
Ġrap ih
elajar inya
aan nya
Seb aiknya
Ġdip ungut
Ġbern apas
ĠTa obao
D L
ĠGuar diola
Ġpen ekanan
enti al
ĠU PT
Ġw h
Ġm int
Ġj el
K ej
Ġmemin imalkan
str eam
it ator
Ġmurid nya
Ġsukar ela
ĠR ibu
amat er
Ġdev ice
Ġmemperc ayakan
Ġm og
uh a
Ġmend ongkrak
ĠBr ebes
ĠMo tif
Ġtangan i
Ġam arah
Ġkantor nya
ĠC entral
Ġf asil
k un
Ġal tern
ĠDr ama
Ġanj uran
bah wa
ĠMer k
Ġtet apkan
ĠPurn ama
ĠT itan
Ð ´
Ġpemb ah
Ġmemba cakan
ĠJ apan
b atas
pl us
B CA
aris an
200 8
Ġkec intaan
emp ur
p us
Ġkek acauan
Ġ6 3
n n
t es
inc ir
ĠSul ut
ĠK evin
Ġamin o
Ġdi identifikasi
lasifikasi kan
ea e
Ġberkel ompok
ers on
Ġback up
Ġminim nya
Ġmang a
Ġins entif
R ah
Ġman akala
ĠB ara
T eman
Ġr ehabilitasi
Ġmeng anggu
Ġsek utu
ĠW enger
ĠIskan dar
ĠCS R
Perb edaan
Ġpen andatangan
ĠSum ba
ad or
ov ic
Ġmeng oleskan
Ġperk enalan
Ġdemonstr asi
ĠYo on
Ġberkesin ambungan
Ġkan ak
Ġgar asi
ĠC ontrol
h ian
ati o
ĠKej u
Ġg eng
Ġterk oneksi
Ġkem ewahan
ĠBer j
ĠT urn
Ġmi gas
Ġk uncinya
ĠD onald
Ġmer endahkan
ĠC ons
Ġgr an
Ġmis s
Ġl ife
Ġmed sos
alan nya
ĠAn as
J AR
S ur
ĠSya fi
untu kan
Ġdim odifikasi
Ġpro di
ĠY oga
ĠPasi fik
Ġantar muka
Ġberp aling
ĠB utuh
ĠD ef
ian si
Ġnasional isme
Ġmerem ehkan
Ġketidak ny
on versi
u itas
alis ir
ĠJoh an
ĠIb n
is ha
ĠJ usuf
ĠKeh adiran
Ġmain nya
engk ar
Ġhi u
Ġh umor
Ġsel ingkuh
ind as
Ġmenjel ma
Ġlay arnya
ĠO li
Ġmengh ap
ot ton
Ġro ad
S in
Ġis ian
Ġm b
ĠS andi
Ġmer ealisasikan
Ġber ba
Ġrumah ku
end ing
AM I
l atan
an ai
Ġpun ah
ĠM egaw
âĪŀâĪŀâĪŀâĪŀ âĪŀâĪŀâĪŀâĪŀ
Ġseb enar
ur ban
Ġper iklanan
Ġpub lis
Bah wa
Ġgal eri
amp uni
Ġdi unggulkan
Ġpembel inya
Ġhi gi
A wal
Ġdiseb elah
n amakan
ĠInd eks
IK A
b rid
Ġmanusia wi
Ġpembayaran nya
Kons ep
Ġmeng enc
eber angan
ĠF M
ĠRe za
Ġdis abilitas
ĠH arian
lah i
Ġmen entu
it nya
Ġmengam alkan
ĠL evel
Ġ !!!
ĠCh a
Ġl ove
Ġini pun
z ar
ĠB lo
enj angan
d ok
PB U
Ġkeny al
Ġr er
Ġk w
ĠDr agon
Ġmal ware
ĠS aran
Ġmengeks plorasi
ĠK umpulan
Ġub i
ĠEksek utif
ĠC ianjur
w ara
Ġar om
ĠKend araan
Ġlok et
ĠS it
Ġ14 0
ĠLe icester
ĠPT N
Ġsed ot
Ġkur ban
ĠY ak
etu ju
ay oran
Ġrem i
Ġger hana
al pot
ong o
Ġ^ _^
ĠBor obudur
es eran
ĠT KP
30 3
iny ur
Ġjah itan
Ġmengambil nya
Ġmin oritas
ĠE ff
Ġsy uting
ang atan
Ġtat o
ĠSab ung
Ġs inergi
eda i
Ġmengh ina
ĠS ik
ip a
Ġdit unjang
Ġtonton an
Ġp s
D imana
Ġnuran i
Ã ¶
ul ina
ol anya
ĠBl ora
ĠDem ak
Ġber ar
ĠT ype
Ġmeng adu
Ġmeng um
ans er
it alisasi
TI AN
f akta
ĠC ur
ĠRah man
C ar
Ġr oyal
Ġpr ihatin
Terl epas
Ġb h
com m
ĠSov iet
ĠPeng umuman
ĠCil egon
Ġ etik
Ġhoriz ontal
Ġdiper ankan
Ġmenj alar
Ġor namen
re al
tan pa
ĠK ategori
Ġmenul arkan
ak ur
Ġal marhum
amping kan
ĠX i
Ġdef isit
ang inya
Ġsimp anan
etu san
ĠSulai man
Ġges ekan
v y
Ġg ym
ĠN aga
l ip
Ġsk et
Ġter angkat
ati ga
Ġj ud
pt ocurrency
Ġkas at
Ġkl arifikasi
Ġket etapan
ap ain
ĠH onor
ĠPember ian
ĠW ith
ĠPen jualan
Ġ7 1
Peng alaman
Ġp utuskan
ĠM angg
ĠKons umen
oc opy
pret asi
ĠAb bas
ĠSal im
is ihan
Ġpem aparan
Ġil l
ob olan
Ġho use
Ġur l
eg ini
Ġper empat
ĠKet enagakerjaan
Ġkonsol idasi
ĠL I
op le
ĠT at
ĠTM MD
r agu
P ilihan
os obo
Ġsel uk
ara ja
Ġ6 7
ĠEn ak
Ġkem akmuran
mu da
Ġmem eriahkan
ĠJ udul
Us aha
eng e
s eri
ĠP idana
M PTN
amp us
Ġses egera
Ġmengh isap
ort mund
Ġs as
Ġtrav elling
re i
ĠPem asaran
ĠSp ec
Ġsek urang
Ġr oyong
Ġdit ebak
ent inya
W isata
Ġmer intis
Dis amping
Ġmer ch
ap ang
ĠBet awi
Ġan alog
anggul angi
Ġrec ord
8 7
Ġlangkah nya
l ot
unc tion
ĠMem baca
ĠDim as
ĠK ompetensi
ĠAr sit
ĠKep utihan
ĠP EM
Ġber ambut
ĠUnd angan
omb ie
Ġsh ock
Ġmenonjol kan
Ġser asi
ĠPemer iksaan
k n
ĠSil ver
en ah
Ġtempat kan
Ġper asan
Ġsem ak
Ġd ead
Ġs gp
ĠL estari
Ġkej ang
ĠUp date
Ġs untik
Ġp antang
Ġdik it
Ġhi per
ib r
armon isan
Dit ambahkan
Ġd uta
ĠB it
ĠY es
ĠD arm
Ġsup lai
Ġtem u
ab al
Ġker is
ĠG ram
Ġad renal
Ġju a
Ġtat apan
Ġsuk acita
ĠAk ademi
] ,
j oy
ak as
Ġcash back
D esa
Ġkel i
R B
ĠR udi
Ġt id
Ġpemb uru
Ġbert ingkat
Ġbarang siapa
ĠSeo ul
Ġbur uan
Ġ 000
ĠC engk
Ġkel ebihannya
ĠEng lish
Ġkeker ingan
Ġmem ek
ĠArif in
Ġkesel uruh
Ġpanc i
Ġh af
Ġh old
Ġg antinya
ver ter
Ġdiper panjang
Ġgug up
v ideo
Ġketer bukaan
Ġnaj is
ĠM enarik
Ġtreat ment
ami in
ĠTer c
ĠK I
Ġberp ura
Ġkisah nya
Ġl oss
ĠD eli
omb akan
ĠJog jakarta
ĠY aman
ar s
ĠPer tumbuhan
Ġduk un
Ġmeny oroti
Ġpun dak
Ġsia ga
b ih
b ro
Ġsh ower
Ġh afal
ĠP engan
Ġd n
Ġpeman is
K ode
Ġmus yawarah
B ulan
ĠB es
Ġkec e
Ġmener jemahkan
ĠGun a
Ġmenj u
Ġweb sit
K alian
Ġs uruh
Ġloyal itas
ĠPras et
Ġsk incare
ĠF OR
an angkan
ĠKamp ar
Ġtr im
men u
al im
Ġb ongkar
ĠS lamet
uk itan
Ġhipot esis
ĠKeb iasaan
Ġkin erjanya
Ġaj akan
Ġg engg
ĠT ampilan
Ġser ahkan
Ġ17 0
ĠR ai
r ho
Ġkedi aman
Ġbert ebaran
Meng h
Ġheb atnya
Ġfr ustasi
Ke empat
Ġkuas ai
ĠPil gub
ĠP anda
ĠOper ator
Ġnger asa
Ġmembanding kannya
Ġbuk tinya
ĠMember ikan
Ġsegel intir
men urut
Ġ^ ^
ĠD inding
Ðµ ÑĢ
Ġgrav itasi
Ġproses i
ä¸ Ń
Ġmer amaikan
Ġkek osongan
Ġj emaah
inc angkan
ĠI G
ĠKapol da
Ġmemprakt ikkan
Ġpendidikan nya
Ġs ungkan
ĠS GP
E H
it ya
EN D
Ġl onj
ĠLok asinya
Angk a
ĠNov el
ĠI q
Ġpeng awet
Ġkeh ebatan
Ġf al
ĠX X
asah i
ĠIb unya
M aksud
Ġperhatian nya
id u
Ter us
ungk apan
Ġener gy
Ġb ase
Ġmemper baik
hat ilah
Ġmengg arap
ĠMas ehi
M C
Ġmengab di
Ġpro duser
ĠL etak
Ġdatang lah
af ia
har apan
ĠE di
Ġdir ubah
Ġkeb angsaan
ĠPember dayaan
amp as
ĠR ud
Ġsej uta
Ġchar ger
Ġdaging nya
he ad
Ġmak mur
Ak si
ic il
angkan ya
ch ain
Ġkr itikan
Ġberj amaah
Ġbus iness
r r
Ġdit aruh
Ġsosi alnya
Ġs inkron
h urt
Ġberker ingat
port ir
H ak
ĠF urniture
es annya
efisi en
iti es
ĠBer untung
ĠV PN
y ung
ĠH asyim
ult anan
Ġsek umpulan
ĠD efinisi
Ġda ur
Ġfat wa
k ur
ĠRe ading
ĠN atural
ĠMas akan
ĠBegitu lah
Ġdr umband
Mana j
ĠBed anya
Mel akukan
Ġpenyer angan
in as
imb as
__ __
et in
Ġdib ungkus
Ġl iver
ĠM uncul
Ġsemb ah
ok um
Ġmeny amb
Ġs logan
imp angan
Ġter ind
ĠG ede
Ġantusias me
ĠK urn
ĠH ill
Ġkontr aksi
L S
Ġl ukis
ĠU bud
Ġmelun asi
Ġliter atur
ĠAyah nya
Ġdis imak
Ġmemb ran
Ġdiur aikan
ĠAl bum
Ġind oor
n ologi
K eter
Ġstu d
Ġn angis
ĠY ES
Ġn ews
Ġc ool
Ġproporsi onal
ĠT ing
ĠT ugu
our ce
ĠS AR
Ġla unching
ef ek
Ġmeng imbangi
ĠK ira
AL ANG
ĠK ain
ĠG irl
Ġbers andar
Ġdih ancurkan
ĠTor aja
ĠDi eng
Ġsus pensi
Ġmemberit akan
Ġus ername
Ġpen ambah
Ġf ik
ĠA PK
ĠBer arti
ĠAb raham
ĠDim ulai
Ġk irinya
AS AN
Ġpem isahan
Ġmet od
H K
ak ers
ĠC olor
organ isir
ta z
Ġsl ide
Ġpi utang
pen yakit
p agi
Ġdip icu
D apat
ĠC am
im uti
ĠRiz al
Ġmenggemb irakan
y id
ind ang
m ampuan
su ara
Ġpengh ormatan
Im am
Baik lah
ĠTerk ini
Ġkan al
ai a
Ġdiper barui
Ġkont in
endaft aran
um usan
ĠH uman
Ġp ekat
Ġas mara
Ġap k
Ġberlin dung
S iap
Ġk ual
ĠKep em
Ġmicro SD
Ġd etak
Ġm artabat
Ġf ollower
ĠP las
ĠSport s
Ġlal ai
ĠK ala
ti ban
il ian
Ġc re
ent s
ĠF an
p ost
ikul er
r empah
ĠBal e
P enting
NE WS
ht tp
Ġmeny asar
Ġgej olak
Ġses uka
ens us
ĠS eksi
ar ingan
Ġberd ampingan
on asi
ĠH ujan
Seb aliknya
Ġi T
ĠKl opp
ĠEd y
ĠRic hard
Ġdi imbangi
ĠR ef
Ġpap er
Ġgil irannya
ĠKong res
Ġanda i
uni um
Ġ6 1
ĠDah lan
R W
N ilai
ĠP OM
ik il
ĠKa isar
Ġkanc ah
Ġsun da
Ġbaik lah
atal og
ĠLion el
Ġnar asi
ak ata
Ġlip atan
ĠL embang
ht ml
ĠT emb
Ġbers kala
ĠP I
Ġkar dus
Ġbers entuhan
T anaman
Ġakses ori
ĠNar uto
Ġprof ile
å ®
Ġbert obat
ne o
Ġl uhur
Ġh oki
ĠSat pol
Ġkad alu
L agi
Ġj alinan
ĠPl t
Ġmengubah nya
Ġblog spot
y l
Sep atu
Ġkep al
Ġmem andu
ĠR ey
Ġpen cairan
kan ya
amb atnya
Ġim ut
ab or
Ġditu angkan
T as
Ġmenyed ot
j s
ĠL ebak
ĠKe unggulan
Ġt ot
Ġ8 2
Ti ba
p ara
ĠB esi
Ġpes tisida
ĠIr landia
Ġsen apan
Ġkomp os
Ġ[ ...]
Ġterk ontrol
ĠKalau pun
Ġberj angka
Ġkantor an
Ġamb ang
Ġmend unia
Ġmo tiv
T op
Ġmenju arai
antu an
Ġak tual
In tinya
Ġfriend ly
Ġd orong
Ġ ih
ĠKr im
m anan
ung nya
Ġmengan ut
ĠB encana
Ġkh alifah
ĠD esk
ĠP ag
Ġtek un
ĠY ap
Ġmem erankan
Ġgej alanya
ĠWah id
Ġmemb lokir
ver tis
Ġn atal
opa use
Ġkerip ut
ĠN inja
ĠG em
wid th
Ġfos il
ĠKes empatan
A sia
U NI
is on
Ġterp uruk
Ġkeb is
Ġmem erah
ĠL amp
Ġbi g
OL A
Ġdibesar kan
ĠB eb
ĠAk urat
ĠDevel opment
a ah
ob el
ĠAd d
D om
ĠW ifi
Ġprib umi
Ġmengak omodasi
Ġan akan
n d
Ġm az
Ġdikar uni
ol aknya
ĠN orth
ĠÐ ¾
ĠSE M
Ġpus aka
onor ogo
Ġr os
Ġdi daerah
ĠJ ikalau
Ġw orld
ĠRah mat
o ordin
Ġdaun nya
Ð° Ð½
seh ingga
ĠJab odetabek
ol itan
ĠKak ak
Ġd ate
Ġw c
Ġpemb en
up port
Ġbank ing
adem y
Ġmengatas namakan
Ġsekeliling nya
Ġbal kon
ĠD ortmund
ĠMegaw ati
l angit
Ġberc ita
Ġs id
engk a
Ġditu duh
Ġj il
Ġpenc ucian
Ġmer ogoh
am amu
Ġr udal
Ġsc ore
Ġperempuan nya
Ġmon oton
Pernah kah
ĠJ up
ĠN O
Ġbers enjata
Ġmo da
Ġmenek uni
Ġg antungan
K PK
Ġpro perty
Ġs ilang
ĠAbd ur
Ġind era
omunikasi kan
ĠT her
oot ball
ĠY eon
ĠCB R
D okter
b angsa
ĠH ok
ektor i
ĠKend ati
engk aran
Ġbul e
Ġ19 65
ĠP AD
e orangan
Ġan yar
ĠL aks
at ta
Ġtomb ak
tum er
eb al
Ġp aj
ed ikasikan
Ġter jawab
ĠB ani
ĠBh ay
Ġdi tumbuh
ĠB R
ĠK han
Ġditak uti
angk atkan
ĠBerb icara
olong kan
il ap
ĠS R
8 4
Ġsek ecil
Ġkarakter nya
Ġp ustaka
Ġwah ai
end o
ĠB ekerja
In tl
ĠOff icial
Ġen aknya
Ġmemp ekerjakan
ul ap
ĠB awang
Ġsen eng
Ġsal mon
Ġpram uka
Ġmuk min
Ġrelaks asi
Ġdid ek
ist ributor
ĠAk ik
) -
ov el
t angan
ĠPol y
es et
Ġbersel ancar
ĠM ewah
ĠJ ackpot
Ġ7 7
az ia
esta y
E l
ĠMak lum
Ġturun kan
ur as
) ,âĢĿ
ĠT ik
asi b
angg ota
Ġmenyer amkan
Ġ198 9
ĠV GA
sel ain
Ġkewajib annya
Ġbers uara
ump alan
ungk idul
ĠForm at
Ġketidakny amanan
Ġgu ide
N egara
Ġbert engkar
ch ange
ĠAM D
Ġv oli
Ġl ight
ĠG ang
ĠAL LAH
ĠV III
ap ikan
Ġtekstur nya
Ġsun tikan
Ġest rogen
Ġmeng imbau
Ġr ival
ĠBlu es
ĠMT s
Ġs urah
ĠF u
ĠI PB
ĠKul on
Ġl ak
Ġpemakai annya
Ġsenti asa
ĠN ASA
** *
ĠBe ijing
ĠB ob
ĠK asi
Ù ĥ
Ġor d
ĠDia betes
ik asinya
Ġbers elang
ĠSem ester
ĠB ebas
ĠH om
Ġberh ubung
Pert andingan
Ġsek itaran
ĠĠ ĠĠ
å ¹
ĠS ER
ari annya
âĢ İ
Ġartikel nya
vari um
Ġj o
Ġmem ancarkan
akwa an
Ġmencari kan
angg ungan
Ġing et
ĠAl ternatif
Ġdib lokir
ij atan
Ġt ul
Ġlek as
ekar angan
ĠJuni or
ĠC ipta
art h
ĠKal sel
sem ua
Ġb irah
ĠIk uti
Ġm uh
od ing
Ġsn ack
Ġsebab kan
Ġk lim
Ġper adilan
Ġmemb elah
ga wa
Per hatikan
put ri
Ġdi awasi
ver y
Ġkeber k
Ġpen a
ĠR ental
ä ¹
Ġpen utur
iwa y
led ge
Ġkeh armonisan
ĠB um
oll a
ĠD ream
ĠPel ajaran
Ġketer kaitan
Ġin chi
Ġop osisi
imp ung
ĠSi ak
tulis an
ĠT anya
ĠO JK
Ġint elijen
Ġmemperbaik inya
zz le
Ġmeng utarakan
ĠBuat lah
Ġdit angan
Ġaj ukan
ukses kan
ĠP d
Ġpari purna
ĠSal es
Ġc ir
Ġv en
te ga
Ġl it
ĠiT unes
ĠAd obe
Ġspesifik asinya
ĠCh rome
Ġkerag aman
Ġpel epasan
Ġobjek tif
ĠS PT
Ġb ungk
m alam
Ġt atap
ĠPP h
Ġsis wanya
Ġlo tion
ig akan
Per ubahan
M K
ĠTrans aksi
D emi
Ġmend istribusikan
ĠA ji
Ġmemakan nya
Ġkurang i
ĠAr m
ĠMemb angun
ĠD SL
Ġdatang i
M ad
Ġmeng as
Ġter iakan
Ġbettor s
ĠAn gin
Ġmend asari
uas nya
ĠBek as
Ġdi usahakan
Ġkr n
ĠMP V
j ad
l umi
Ġint el
Ġkh ilaf
Ġdil anda
ivid u
bur g
ĠAn eh
Ġbert andang
ĠKal tim
ĠL ev
l ung
Se pertinya
ĠHen ry
or et
or f
ĠSBM PTN
ĠG SM
Ġpemak ainya
ĠDen mark
ah agian
Ġdin obatkan
ĠC ahaya
Ġsitus nya
Ġdarah nya
Ġster il
ĠPert ahanan
S ahabat
Ġketidak s
ek aran
Ġc oll
Ġpemb atalan
ĠC ool
Ġsikap nya
ĠM alaikat
ĠR P
Ġmaj ikan
ok nya
ĠSup ri
Ġf ikiran
Ġkec anggihan
Ġsal inan
Ġpendapat nya
ĠF am
ĠAl p
ĠTek nis
ĠPes ta
Ġke arifan
orm a
ĠKor ban
ĠS O
ĠB EM
Min yak
ser ing
Ð ¼
Ġadministr atif
Ġfranch ise
Ġam ati
Ġfil osof
ĠPlan et
ĠP ekerja
Ġsolid aritas
o ya
Ġg end
ĠS anti
Ġke utamaan
Men j
ĠOb jek
Ġparas it
ĠIngat lah
ingk uhan
ĠDis ana
Ġterkend ala
Ġmengaj aknya
iz e
Ġkend ati
Ġpr em
Ġperk asa
Ġpel opor
G un
Ġaktiv a
Ġ arang
ĠKek urangan
Ġamer ika
B apak
g il
tor itas
ĠS wasta
Ġap aratur
Ġ10 80
k os
Ġr ame
ma af
osp ital
ĠSe x
ĠK AI
hi e
ĠT own
Un tung
Ġper untungan
Ġman ia
ĠCo ffee
Ġditekan kan
Ġse at
ĠL intas
ĠKeh utanan
Ġya g
Ġmal es
ĠLou is
Ġn ow
Ġny anyian
ĠR h
p arah
Har us
ĠRab b
li ga
ĠBr awijaya
Ġur etra
Ġdig andr
Ġs iku
il oma
ol ali
Ġtimb angan
G ubernur
ad en
ind uan
Ġp ick
ĠK ontr
Ġgem ilang
Ġm istis
ach ing
Ġbo ard
end ral
utu an
ĠBi o
wat ch
Ġ7 6
el u
ur ga
Ġn dak
Ġkerip ik
? )
Ġmenc intainya
Ġo v
Ġdit anamkan
unga gung
Ġmember antas
AL AM
Ġfin alis
ĠL P
ĠB ukti
ĠDok umen
Ġkec ok
ĠPemb ina
1 000
ĠPer asaan
ot bah
Ġner aca
Ġpes epak
har ap
Ġmel ingkar
Ġsec ond
Ġpers ek
Ġ7 20
ĠP EMB
og ba
ot her
Ġset oran
ĠD ampak
Ġmengur aikan
Ġak ik
ar aku
Ġter hal
ĠR u
EF A
Ġmen anjak
pr int
Ġpen undaan
Ġyak ini
er anya
I de
ok si
angk rik
Ġt andang
Ġap alah
s ilah
ĠJ azz
Ġ own
Ġt auhid
Ġsek eluarga
ĠI AIN
Ġkem oterapi
ĠSh ang
ĠN ike
Ġb all
Ġper ebutan
ĠPeng usaha
ĠJ antung
Ġng antuk
ĠAd akah
ĠKes el
Ġmend ing
ĠSubhan ahu
oment ari
ĠF ox
Ġmengur usi
end ikbud
ik is
Ġger obak
Ġwat ak
ez a
Ġtel ak
Ġters aji
m ud
Ġm ing
Ġberb unga
R ed
Ġmenyeber ang
oks ida
ob os
Ġdit ata
ĠM iner
osting an
ĠM ie
f on
Ġdi untungkan
ĠT ap
ĠT embak
ont ong
Ġsemacam nya
ĠDP T
Ġdigandr ungi
l amp
ĠS quare
ada ya
Sel alu
Ġm ey
Ġsis inya
Ġmen usuk
ĠY an
al akan
Ġpad am
ĠA turan
Ġv ent
Ġkarier nya
Ġmemb ekali
ĠGener al
ak ing
n eg
ĠS umpah
DI RI
ĠJ us
Ġc ons
umb atan
ĠU T
her o
ec i
ĠS ingk
ĠDemikian lah
Ġtel ing
perk irakan
atakan lah
Ġletak kan
ĠOs aka
Ġf oundation
ĠMad e
T ag
Ġketer tiban
ĠDr umband
ons truksi
ĠDir ector
Ġd ot
ĠDian tara
Ġjin ak
L C
ĠTel ur
ĠSN MPTN
d ip
ĠB enjolan
ustr y
b intang
Ġkonsumen nya
ĠA V
Ġker ak
erm entasi
Ġd st
Ġmencur igakan
å ħ
ol eransi
Ġp egal
ĠHad its
ĠTau fik
ĠCo unt
S S
g mail
Ġdipert emukan
Ġseperti ga
as alan
ĠPem enang
Ġseorang pun
Ġperg eseran
akt ik
le ep
end ian
ĠCont e
ĠM ba
ĠL ay
en z
ĠK ombinasi
Ġsec angkir
Ġperb ukitan
ĠP engaruh
ĠTepat nya
ĠHer man
ĠUb untu
ot ing
Ġkeh angatan
ĠG and
Ġl iv
Ġdis engaja
Ġdip aksakan
Ġp aman
,, ,,
Ġmengin tip
Ġmemanggil nya
c an
K elompok
amp ton
ĠD oc
ĠSat ria
ĠAd at
ĠSak ing
Ġmengup as
Pro f
Ġdi alah
im as
tim ulasi
ĠD aily
isk a
eku ensinya
ha ir
ĠT ribun
Ġw an
Ġket ek
let ing
Ġd egradasi
erd as
Ġberangg otakan
Ġdipec at
ĠMar y
k lamasi
Ġterb unuh
Ġterh aru
k ed
Ġper aga
ent asan
Ġbo at
ĠT j
ĠD aw
Ġc ip
ĠQ atar
ĠEks im
ĠS on
Ġkoc ek
Ġy en
Ġset elan
ar uk
Ġser takan
Ġdis ep
Ġh aknya
Ser ingkali
Ġst eel
ĠKes atuan
ĠMen urunkan
Ġseder ajat
ĠSal eh
Ġsh ahih
ĠM andar
PP O
Ġmeny ambung
Ġpengh ilang
Ġt oner
ĠT al
ĠG imana
ĠIn terior
Ġdit ahun
ĠL ady
n on
Ġprot okol
AL A
Ġter arah
art ment
ĠUm at
Ġteb u
Ġfollow ers
ectr onic
Ġmel emahkan
h as
Ġrah ang
ish ing
ak angi
Ġg urun
ag h
Ġdiper luas
, âĢ¦
Ġpertanggung jawaban
ĠAz iz
Ġr onde
Ġag aknya
ĠOp tim
ĠMend engar
8 1
rama yu
en nya
ai f
isip kan
Ġk umpul
Ġkel akuan
ĠD jar
Ġdiber hentikan
Ġdemikian lah
ĠMek kah
ĠE sp
Ġind ra
ol itik
Ġser ang
B ER
Ġtip u
em atis
Ġdis p
T AN
ant ina
ach ine
lam anya
Ġmenghir up
ur itas
ara annya
Ġber wujud
ĠR embang
Ġnaik nya
ĠK ond
Ġg osip
ĠDir jen
ĠKo ordinator
ener gi
ĠR in
Ġr ac
besar nya
Ġpem etaan
Ġdip andu
Ġpember antasan
af ood
Ġ4 50
Ġditer imanya
C E
ĠN af
ĠPel ajar
S alam
w ari
ĠIndones ian
Ġmemper erat
?? ??
Ġkoordin at
ĠRev olusi
ĠPr ime
ĠS yar
bu an
Ġmengh angat
en aknya
Ġdial ihkan
Ġpd f
ĠC H
ĠKej aksaan
c opy
tur basi
Ġsd h
is in
ĠP ikiran
T ulisan
ec ut
Sp esifikasi
Ġberkec impung
ĠM os
ĠMak kah
Ġ angs
Ġpar al
ĠF ari
Ġtak aran
arah i
ĠPeri ode
Ġmel ek
kw kw
Ġmenyad arkan
ul nya
ĠP OL
Ġpem udik
N K
ĠSamp ah
ĠUd ah
lus ter
Ġdi ingatkan
Ġterp esona
Ġper usahan
ĠF ace
Ġmer ep
IS A
Ġvis itor
ĠDom ain
Ġberk urangnya
ĠG lass
afs irkan
Ġmengerjakan nya
ĠM ap
ĠF aktanya
Ġsh alih
ĠB O
Ġberp acaran
erm ati
Ġke tawa
ĠL ead
p lan
Ġt engok
Ġair lines
umen ep
Ġcac ar
ĠAn j
ĠJ abatan
ver sial
Ġter ak
s hirt
ol id
ĠS om
Ġseb agi
ont aminasi
Ġsh o
graf i
Ġber amal
Ġmenjalan kannya
ĠTer gantung
las sic
Ġag us
engg er
Ġg engsi
ef ox
ĠHi jab
Ġkelem bagaan
Ġkes eri
ĠEx press
ĠØ ¨
Ġper gunakan
Ġbagus nya
Ġbant alan
uk aran
if est
ĠHand phone
ĠLum ajang
ĠC loud
Ġpers eorangan
Ġbaj unya
at ai
gr es
Ġkor bannya
Ġener g
ĠW ajar
imp ahan
tab ilan
ĠM edi
Ġpel un
Pen ulis
I kan
P AN
tu juan
ĠPr inter
F akta
ark ir
Ġpeny u
Ġt inja
ĠI K
Ġkep on
ĠH AL
Ġmonitor ing
ĠDik arenakan
ĠHot sp
Ġbertem akan
isi atif
ĠEc art
Ġsubst ansi
Ġs amar
Ġn al
op oli
mas alahkan
Ġp elum
ĠSant oso
Ġdip ikir
Ġdih impun
Ġcer ai
ĠAs et
ĠPenyelengg ara
O lahraga
T e
s ini
Ġmengg eser
Ġkemas yarakatan
Ġmen antikan
mod el
ĠPer sia
Ġdiba cakan
Ġmen or
Ġkematian nya
Ġpeng alihan
Ġingat lah
Ġter lind
un annya
Ġh engkang
Ġmengenc angkan
ĠE ll
? âĢĿ.
Ġtel or
ĠHad ir
Ġberkar akter
ĠYog ya
ĠPG RI
Ġak sel
Ġr it
ara w
Ġg irl
Ġpat roli
Ġmenya pu
er ry
Ġber urutan
ara wan
ĠBukan nya
ĠKons truksi
Ġt ower
ĠB aw
Ġju gak
ĠJ K
ĠMil iter
Ġmem ilik
Ġdi transfer
Ġberk em
R ek
Ġh erb
ĠS erb
Ġdim ul
Ġmeng utus
ĠJ aksa
ĠM ut
Ġmenc alonkan
Ġbaga imanakah
Ġyog urt
Ġmengab arkan
Ġpenis nya
Ġstu dy
ĠPh otoshop
M U
.. ,
ĠL A
Ġpem indahan
Pert emuan
ukup an
L aporan
eber kan
Ġad akan
Ġseti m
ĠWar ung
Ġberpen ampilan
ĠSus ilo
ekarag aman
Ġpeng isi
omb o
ĠT ali
ĠH T
Ġberb ahagia
ent o
Ġterj adilah
Ġd al
ĠDP C
ĠMera uke
Ġsek at
ĠBro ker
ingk u
ek w
Ġg otong
ĠM akin
idan e
ĠS PBU
Ä Ĺ
Ġd h
Ġmered am
ĠS ib
ed ri
ĠM ikro
Ġdid ownload
Ġmemp ublikasikan
Ġli ang
A yo
Ġstakeh older
Ġlim it
ĠT est
is y
Ġinf lamasi
ont en
m il
ic he
impin annya
Ġt amat
r ab
Ġteknik al
ĠAkadem ik
Ġrun ner
b s
ar asi
ĠS ian
ĠS idang
ĠW ang
Ġtertu ang
Ġse usai
Ġpenyel amatan
o ja
ĠSt eve
Ġketa atan
Ġjan uari
ain i
k husus
ĠT IK
ĠW ikipedia
Ġan a
ĠSal atiga
Ġdiger akkan
Ġtop eng
Ġc awapres
Ġdikel ompokkan
ag at
Ġmur ahan
ĠTa urat
Ġhigi enis
ĠN ight
ĠIs timewa
Ġtanah nya
ag ih
Ġberp ihak
Ġtar uh
ĠOr g
Ġc s
mas ih
Ġmencintai mu
Ġmemb entang
Ġbar usan
ĠCh ic
Ġkek h
ad in
Ġter baca
Ġberk arir
ĠBer agam
Ġrek tor
Ġmut akhir
Ġv erti
Ø ©
ĠA ff
Ġdim anjakan
ĠH ehe
Ġfr aksi
Ġz ina
er ol
Ġwajah ku
Ġmengh impun
Ġditumbuh i
C aranya
el iner
m all
ĠWon osobo
h idup
B ahasa
ĠT uhannya
Ġpeny uluhan
ĠUn gk
ĠE C
Ġram bu
Ġc yber
inj amkan
Ġhektar e
N o
M E
ut annya
ĠSy arif
Ġmak ro
Ġpengan ut
ĠB OS
ANG K
D PR
Ġpenerj emah
V A
Ġmember dayakan
ĠAb adi
Ġkep iting
Ġst rip
Ħ ¢
Ġsep adan
Ġkes enjangan
ev olusi
Ġc ase
Ġsa ingan
ap ur
z hou
Ġdiak tifkan
ber sih
OD E
ĠA ug
ĠIn ovasi
Il mu
Ġd as
Ġt her
us ur
ĠTeg uh
c oss
Ġmon yet
y p
Ġpeng ingat
Ġpember ontakan
Ġmeny aring
Ġtick eting
PT K
ĠB oot
ĠG arden
Ġmemer hatikan
ĠT utorial
Ġt iroid
irip an
ĠSub ianto
e er
ap y
Ġant ri
Ġdiperk enankan
ĠIn ves
Ġjurnal istik
Ġbag inda
Ġmembalik kan
ĠDSL R
ĠL ut
Sek olah
Ġl ing
Ġhad ist
m p
Ġass ist
ãĢ ģ
P asar
iner ary
ĠUn gg
Ã ¤
. -
ens ia
Ġm inder
Ġper ancangan
Ġpr amugari
Ġber da
ĠM osk
k ac
ĠB ayu
Ġkomun is
Ġo varium
Ġberin isial
Ġop tic
M ember
Ġmember sih
Ġdah i
Ġf ace
Ġpro yeksi
Mer upakan
Ġhem oroid
Ġ7 4
ĠRat na
Ġmen amp
Ġluar nya
itas nya
n s
Ġc onc
ĠÐ ´
Ġmenger as
ĠYud ho
Ġ15 00
OS T
Men anggapi
sek ali
ĠSena yan
Ġketer p
ĠM ong
Ġd up
Ġw r
Ġterk unci
B AN
L D
Ġt orsi
ans a
lo y
am on
Ġket elitian
ĠAr ya
S ab
k r
ĠO P
Ġsug uhan
k alo
Ġmeng obat
Ġv erbal
Ġpay tren
Ġmencontoh kan
ĠD ic
ĠFir st
ud u
R asul
J B
Ġdiny anyikan
ĠPr inc
ĠHal l
ĠS yekh
Ġmeng etuk
P ar
ĠG aza
Ġmenya yangkan
ent ot
ub urkan
Ġst eak
Ġpas lon
Ġmenger ahkan
ĠPan el
ĠB ap
ep uh
ĠCengk areng
Ġtert ahan
Ġlem ot
Ġco unter
Ġpem ad
ĠH ehehe
Ġal un
ĠDi ego
ĠÐ º
Ġmen tega
Ġ8 6
Ġperp utaran
ĠC ut
B O
Ġj umat
Ġpers endian
ĠU ser
Ġla un
ĠPK L
ĠU P
Ġl uc
ĠPromo si
ci us
ãģ ®
Pel atih
et kan
Ġd angkal
ĠCim ahi
ob ia
ĠGr an
Ġny oba
Ġp ekarangan
Ġdi kandung
essi ca
k ek
up i
Ġmeny uarakan
enggal ek
Ġfre el
Ġbok ong
ear ning
Ġtrans it
Ġm angkuk
Ġper buat
ĠMen jaga
uk uhkan
ĠS empat
Ġwak af
ĠL angit
ins eng
Ġkil at
ĠA w
ĠP ec
Ġdik ontrol
9 2
Ġc urug
Ġn ambah
Ġker ang
w ulan
ĠInd ramayu
ĠKap sul
Sed ikit
9 7
ig ami
Ġkeber agaman
aw e
Ġdis ebarkan
Ġdis entuh
Ġmem udar
ĠDem okrasi
Ġad zan
ĠAn na
Ġz odiak
iam is
ĠAt l
Ġped alaman
ĠUl tra
ĠR obot
ĠC ah
ĠF riend
b es
Ġkep atuhan
Ġpot ret
bu daya
Ġdok trin
NI S
Ġter bayang
Ġkeh endaki
Ġleher nya
Ġk apa
ba gaimana
Kem ampuan
Ġmerawat nya
Ġter ealisasi
ĠNov anto
ro to
Ġdiskrim inasi
p rise
Ġdi tab
Ġke ji
Ġmak si
Ġbec ak
Ġpel angi
b ir
i y
Ġs lim
ri f
ĠSe ung
ok at
ĠP opul
Ġimi grasi
Ġf ee
ĠDap ur
ĠM ekah
Ġlead er
Ġpengh ematan
f ie
Ġpant ainya
el akan
Ġmemp elajarinya
amb anan
end y
Ġsemp et
Ġprofesional isme
Ġtab le
Ġkomod iti
m end
Ġmenj aganya
ic y
ĠTerb uka
Ġ ilah
Ġreg ister
ĠDuc ati
nis asi
ĠU EFA
emb el
Ġten un
ĠP onorogo
Ġpo ol
Ġinj eksi
Ġb ordir
irm ware
ot r
Ġob ati
ek uk
Ġmem onitor
Ġberk eluarga
ĠC lin
Ġterj er
Ġkelah irannya
B aga
Ġkontras epsi
au bat
Ġkor oner
Ġsc rub
Ġsis ta
Ġreal ita
Ġpembah aruan
Banyak nya
Ġ198 6
Ġmen angkal
P ember
Ġber imbas
ĠFlor es
Ġperib ahasa
Ġpenya ir
Ġpemb edahan
Ġperp ajakan
f s
ĠY ani
Ġbersed ih
ĠN er
Ġcry stal
M ata
ĠRo ulette
imb ar
od am
ĠG rosir
in stall
Ġmen ipis
Ġg onor
F L
Ġf ikir
Ġv akum
ĠMom s
ĠDid alam
ash board
ĠW ow
Ġj azz
Ġkara oke
ĠI ka
o ard
Ġsaj akah
ĠM ill
ĠT ahan
Ġdig arap
Ð¾ ÑĢ
Ġur ban
an bul
ĠD al
ĠKapol ri
M L
Ġh ave
Ġmenyelesaikan nya
jak ulasi
Ġb ogor
ĠC y
el eh
ĠH it
9 1
ĠW ita
ĠK asino
Ġak arnya
c r
ort ir
ĠG il
ĠKol ombia
ĠZ ak
bukan ya
amp uran
ĠP ukul
Ġkontro versial
Ġb eng
Ġdik or
ĠStat istik
ĠK ucing
ater al
Ġmerangk ak
rain a
ĠEnter tainment
Ġm ega
S egera
ujung nya
Ġmerangk ul
as ati
ni es
ĠTul ungagung
p esan
Ġs tory
r uang
ĠM agic
SM A
r el
tu asi
Ġju g
ib lat
Ġgengg aman
Ġpert engkaran
ĠDi alah
Ġins omnia
Ġpeman as
and akan
ĠAr tis
ĠGun ungkidul
anding annya
Ġlihat lah
ĠPerser oan
Pr omo
Ġmat ch
Ġe ar
Ġman ja
Ġpam er
Ġt uju
ĠT ang
ro ho
Ġgor engan
Ġc amera
Ġk rip
T K
po int
ĠP ogba
ĠF ajar
emb akan
on ta
M ah
Ġmemb enahi
ĠK unjungan
c ode
Ġom ong
Ġmengup ayakan
im ob
ĠPal ace
Ġr ange
Ġg orden
af Ã©
is ta
ĠKom odo
ik ing
Ġs osis
Ġsun set
Ġtertu ju
Ġdilap angan
an e
Ġep oxy
Ġkeb odohan
Ġterl aris
OR E
Ġmeningg ikan
o ti
Ġber angsur
Ġmang rove
Ġdet eksi
ĠKy ung
Ġan tis
Ġjep ret
Ġmen ukar
Ġpengobatan nya
ĠSy ukur
Ġkr on
Ġul tr
Ġrepres entasi
oter e
k um
Ġv it
Ġki ai
Ġkup u
t ema
eli aran
ez er
ãĥ ¼
Ġc apaian
ĠJ ah
Ġdic antumkan
Ġmengun yah
itu l
ijau an
ĠI zin
Ġsep otong
ĠPeng iriman
Ġmem utus
Ġmember lakukan
H AN
ĠD ollar
Kend ati
Ġw ill
Ġot aknya
Ġrus aknya
Ġp aku
out h
uc ikan
ul um
Ġind o
id ia
Ġperc intaan
Ġaltern ative
Ġbis ul
ĠSe olah
Ġs ungguhan
Ġdig anggu
ĠDep an
Ġsam ud
T ahap
d oa
Ġt ub
Ġr ampung
Ġkandungan nya
Ġber adu
ĠKemen ag
Ġcup likan
ĠM awar
Ġsak ti
TRIB UN
ĠPem an
Ġd uni
ĠST AN
Ð ¿
in annya
un is
Ġfl uk
ĠMess enger
sa ingan
ĠSet ia
us u
Keb utuhan
Ġmengemb an
ĠComp any
enti on
ĠM enariknya
ĠT entara
ĠW alatra
L em
ĠUn der
oh arjo
ĠY on
ĠCap sule
Ù Ĥ
ĠG onore
ä »
Ġangs uran
os ot
Mend engar
ĠValent ine
Ġpar lay
Ġaktivitas nya
C o
Ġus ang
b or
ĠPer alatan
ĠCo ver
Ġc epet
urn e
Ġkesalah annya
Ġtak jub
Ġwa y
Ġart istik
urn ian
Ġpem otret
Ġket empat
ĠPT K
ĠWard ah
T epat
Ġkn alpot
ç ½
Ġl inc
Ġa ula
ĠPangan daran
D ip
Ġvideo nya
Ġmant ra
Ġmenjam ur
Ġc al
Ġpend ataan
P osisi
Ġkor idor
Ġdit iru
isiplin an
Ġker usuhan
Ġmengu ap
Ġkebis ingan
amp ungan
Ġket el
ĠTechn ology
ĠEm p
Ġga j
Ġberd urasi
Ġ198 5
ĠTrans fer
Ġbert eknologi
Ġmemb idik
Ġf ermentasi
Ġprint ing
ĠL INE
Ġmenerapkan nya
] [
c ard
Ġterk aya
Ġm ove
Ġs inerg
arap idana
ne akers
el ola
ĠK onsumsi
Ġh ilir
Ġmem ompa
ĠPel angi
ada ian
Â Ŀ
ĠCh en
ĠD own
men ya
U k
Ġbul atan
erj en
Ġp ok
ĠDi am
O ne
Ġs umbu
ĠN uh
ĠKlik BCA
aa aa
a ut
ĠR acing
Ġdrop ship
Ġag reg
omp akan
Ġdik aji
Ġz iarah
Ġcac he
d eb
Ġrew el
Ġpen afsiran
Ġgal aksi
ĠYudho yono
ad ir
ĠAl ih
e ater
ĠT uk
ĠAm pat
ĠRes earch
Ġkeg uguran
Ġdiba wanya
P endaftaran
L anjut
ĠK hal
Ġter angsang
Ġc asing
ĠRal ali
ĠAnd re
Ġc ukai
ĠL ite
ĠSoc ial
ĠK ac
ĠPengel ola
Ġsinus itis
in ap
Ġpengec ualian
ont ang
Ġkontr akan
ĠAch mad
Ġber oda
ĠK U
Ġdikaruni ai
S tudi
emb ira
b elum
ĠQual comm
us ian
Ġmat te
istr y
ĠKec epatan
Ġmin ati
Ġkor elasi
ĠS truktur
ĠClick s
Ġh ernia
ĠD M
ar angan
ĠK otak
ĠDari pada
ĠL abuan
Ġpemb erh
Ġbl ender
Ġrank ing
Ġmen afsirkan
ĠT ip
Ġin tu
ĠKun ing
Ġr anting
uk us
ĠLe on
S um
Ġmembersih kannya
Ġmenj aring
Ġmengk ombinasikan
Ġmengag umi
od ong
antu i
ĠMaj alah
Ġkeputus annya
Ġmeny angkal
Ġtersebut lah
ep ang
Ġterp ikir
ĠBoy olali
Ġdis eg
Ġpun di
Ġev akuasi
P et
Ġpeny embuh
Ġ19 88
M o
Ġradi us
Ġmerasakan nya
Ġmenc uat
c bet
ĠKam us
Ġlakukan lah
Ġcat at
ĠS arah
Ġhar apnya
Ġming gunya
Ġmeng ek
Ġpel apak
Ġm id
Ġinspir atif
M aj
ĠN aik
à ¹
Ġpeny empurnaan
Ġx iaomi
Ġcamp urkan
Ġro uter
Ġkeindahan nya
Ġpem andian
p asan
Ġyog hurt
ĠB atas
atim ah
v eksi
Ġpl ot
man n
Ġmengus ap
j uta
Ġ198 7
Ġberk ilau
ĠPeng adaan
pro ses
ĠMaul ana
S egala
Ġkes egaran
ĠA F
Ġker ontokan
ikan ya
ungk as
ĠS inga
ho use
ĠSMK N
Ġm eb
Ġp int
b isnis
Ġdip aparkan
Ġpandangan nya
ĠG uang
ting en
Ġberc ahaya
Ġpur ba
Ġinform al
ĠM acam
Ġh obby
Ġket an
un e
Ġr uh
Ġinter face
Ġpemben ahan
AK AN
ĠT arif
Ġkutu b
Ġtentu lah
Ġs angkar
Ġmar ilah
Ġbur ger
Ġtransp aransi
ĠL una
od orkan
Ġco ffee
ĠH af
and asi
Ġmem angkas
Ġbers umpah
ib ril
ĠOr der
Keh adiran
Ġadrenal in
Ġ9 7
Ġpeb alap
ĠF okus
ĠK az
Ġpart y
Ġ ingatkan
Ġstar ter
Ġwar gan
J P
id ence
ĠL at
imp ikan
Ġfleksi bilitas
Ġ oles
f ud
ĠPer ingatan
ĠSt ock
ĠK ew
Ġmemb ebani
Ġdi form
Ġped ih
etahu ilah
ĠID N
P es
c ut
ĠM ENG
ĠAntoni o
Ġd agu
Ġpengan iayaan
Ġd ara
ĠAn tar
Barang siapa
Ġkil o
ĠSan ta
J adwal
erhana an
Ġmer ugi
Ġpras manan
wa ve
Ġmesin nya
ĠPP DB
Ġwat t
Ġpelay aran
Ġin tr
amb aran
am arkan
ĠY os
ĠMo on
ar ep
eng etahuan
Ġamp lop
Ġc int
Ġdi oleskan
ĠChar les
Ġpakai annya
Ġbantu annya
ĠL ow
Ġdis trik
Ġmew ujud
ĠKlik pay
yeksi kan
atif ikasi
Ġhar tanya
ĠT s
Ġkej ar
Ġmemin umnya
Ġkeseh ariannya
ĠComm unity
Ġpeng aplikasi
m int
Ġfasil itator
T a
Ġdis in
Ġc atur
onis nya
ĠQu ad
Ġmenc ampurkan
Ġkepal aku
ĠO d
AK A
Ġeng ga
ĠV all
ĠBl anc
Ġpengikut nya
tim ate
ĠClick pay
Ġmah ar
ĠRam alan
Ġd ad
Ġum mat
Ġp owder
adi an
Ġkel am
Ġberk eliaran
ĠCS S
Ġtelkom sel
ĠM utiara
ĠT PA
s iswa
Ġt ender
ĠE ra
Ġdikem udian
Ġdip enj
isk al
Ġsapa an
ĠKend ari
Ġe Pay
Keber adaan
Ġk angkung
Ġac aranya
Ġpem ecah
Ġkr am
ĠÂ £
Ġad ap
id amkan
ant ah
Ġlib ido
Ber sama
Ġj enderal
ĠB PS
Ġtangk apan
ag ung
Ġf lo
ĠB enteng
Ġres et
Ġsak ong
Ġpeng aduan
Ġ1 01
ĠO R
Ġterp aku
ensi al
Ġtem urun
Ġpengg ila
Ġdial okasikan
Ġar ke
L ap
ĠG angguan
ĠIs u
Ġvital itas
Ġterf okus
Ġins truktur
ing ya
ĠÂ ±
c ab
ĠLok al
ĠT ouch
ĠDik atakan
Ġd engarkan
ĠPr ima
ĠBuk tinya
ĠR oll
Ġe ye
mm m
Ġprogr esif
Ġberl apis
Ġmod alnya
ĠL uas
ual ity
Ġdir umuskan
Ġak a
Ġpeng erja
Kar tu
Ġp t
tif ungsi
ew e
end ed
Pemb angunan
Ġterlind ungi
Ġper unggu
P o
ĠP ensi
Ġga y
ĠT ay
Ġpeng asuh
Ġpenandatangan an
Ġberg ambar
M inggu
alon an
ĠSt eel
k urang
el akang
Ġd uri
Ġl aksana
9 3
ĠE ast
ĠT AN
Ġhid ayah
Ġterc apainya
s aud
ĠB icara
ĠDir eksi
el lo
F r
Ġj oker
tah uan
bal ingga
Ġl etusan
Ġh ape
ol in
esi um
Ġris ih
Ġpriv ate
Î ¿
ar sa
Ġketidak mampuan
Ġh ilangkan
Ġpel et
Ġj ack
Ġsol ar
ĠGus ti
Ġb ass
ani zer
Ġmuj arab
Ġkontr aknya
Ġhand icap
Ġber ebut
ro g
GB T
Ġretur n
eb ur
Ġc ell
Ġl akt
Ġmimp inya
et t
os tal
ĠPR O
Ġs anak
Ġr awa
amb al
ĠF iforlif
Ġpr eman
ĠP ON
uth or
Ġdi alaminya
Ġfl ag
Ġperform anya
emprot kan
uc on
ĠK W
Ġmenj ahit
Ġker utan
Ġm uas
Ġn ikmatnya
ĠKes alahan
el eng
Ġtet angganya
ĠKa um
Ġdev isa
Ġwir eless
ern ak
ĠPas ukan
ĠVis ual
U nivers
d uanya
Ġters edianya
Ġkembali kan
Ġ encer
ĠPend apat
Ġber apapun
ew ok
Ġpemb ina
ĠKarangan yar
Ġtik ar
Ġdig olongkan
up le
ĠH or
T aman
ef it
Ġte x
it en
ĠN P
Ġmotor ik
ĠPed oman
Ġketidakp astian
uc ut
Ġser ap
Ġ198 4
rop olitan
Ġr usa
Ġmen olaknya
Ġdipas angkan
untu han
Ġdam baan
omod ir
Ġsepup u
Ġk ancing
ĠPurw orejo
ĠH I
ĠS umenep
Ġpunya i
Ġpengh uninya
Ġber isik
ĠSel at
Ġpor table
Ġemp ati
emp urna
ĠInd uk
Ġpunggung nya
ĠL ah
Ġpeny isihan
yo nya
z et
---- ----
Ġcon tact
ĠS TA
uk unan
b ij
Ġpem us
ert anya
f ing
ĠKons titusi
N D
ĠBr imob
ĠS int
Ġker induan
Ġklim aks
F orex
p ack
Ġ9 6
ĠZ idane
ab utan
Ġhari mau
Ġmengobat inya
Ġi q
ĠT ambahkan
Ġter ku
Ġ@ .
ĠP US
aw berry
Ġmeng ad
Ġpeny usun
Ġsistem nya
Ġdu el
Ġung gas
Ġ8 1
ĠAndr omax
Ġdis amakan
) ?
Ġkeb ajikan
ĠHan ura
Ġmen aikan
ĠTim es
ĠH ahaha
ĠKar o
Ġsem arang
Ġpeng arahan
Ġterk ontaminasi
Ġpant auan
Ġdi ulang
Ġ16 5
Ġdon at
ĠHend ra
Ġinf lu
ĠSekali pun
ĠCok lat
Ġse waj
ĠZ i
Ġkam is
Ġpel estarian
Ġkon g
Ġscreens hot
Ġt eka
Univers itas
Ġant ena
Ġad em
Ġt abi
et ar
ĠS usi
Ġbak ing
ĠUk raina
" ,"
al engka
Ġker bau
Ġberh ala
Ġsec urity
Ġg anja
ĠL AN
al aian
ag ina
Ġmembu juk
Ġli ur
Ġtam asya
Ġtrad e
Ġmaksi at
v atif
Ġkem iripan
Ġperawatan nya
å¤© å¤©
ak tian
id z
ĠKe indahan
Ġdr aw
Ġ8 7
ç½ ĳ
ĠNur ul
N B
Ġt weet
Ġmend es
ĠT v
an ikan
Ġs ticker
Ġdes akan
Ġrekan an
S martphone
Ġpem utar
Dik etahui
ĠBengk alis
Ġkep endudukan
Ġla bu
ĠRol ex
q ah
Ġet is
Ġpenump ukan
orm on
Ġf ix
Ġdil ontarkan
Ġom set
ĠMo tivasi
emb ilan
Ġmes ra
Ġch ina
od er
Ġkom a
Ġah linya
Ġaj arkan
Ġj oin
Ġberk ekuatan
200 7
Ġw edding
Contoh nya
Ġs os
Ġg eb
Ġdib ebankan
han anya
ĠRe formasi
Pem ilihan
Ġk aka
ih ara
Ġpeng unduran
Ġdic ontoh
p ak
Ġkeli atan
he a
Ġpengunjung nya
d os
kup u
ĠC iamis
00 1
Ġterc emar
Ġterhal ang
Ġsket sa
n us
tu l
ĠI van
Ðµ ÑĤ
ĠGam ing
ĠM ET
Ġdim us
ĠSt yle
Ġins inyur
ter angan
B us
ĠK ub
ĠMuslim in
ĠA gr
Ġmeng i
Ø Ń
H ukum
Ġh uni
ĠTel evisi
Ġsp asi
Ġk ebut
eng s
Ġsari awan
Ġleg it
ĠLihat lah
organ isme
R ak
ĠPer caya
g b
Ġtump ah
ab us
ba yangkan
op s
ĠO toritas
ĠPen ilaian
Ġide alnya
n ak
Ġab out
Str ategi
ĠU jar
Ġset apak
Ġfot ocopy
ĠJ ahanam
Ġmalam nya
Ġdimul ainya
ĠK D
9 4
Ġded ikasi
Ġl ir
Ġmemperk ecil
Ġn ila
Ġstruktur al
Ġri asan
B e
Ġberb adan
ikop ter
Ġp urn
ĠK aca
Ġpi xel
Ġfam ily
ĠFah ri
uc apan
ĠSel esai
ĠP akai
Ġc anggung
Ġbin aan
Ġkorup tor
end alian
l okasi
ĠProp olis
t eknik
ĠT itik
at ul
ri x
w andi
Ġmen eman
ĠF ot
ĠSar ana
f iah
Ġpemb ukuan
Ġsp or
Ġperp ecahan
Ġkapasitas nya
Ġbil amana
r ad
.. ?
ew ork
Ġit inerary
ĠL ia
Pas ti
ĠJ ur
ĠH ang
Ġdir ektori
Ġ ice
ĠW awan
anding i
Ġdiwar nai
Ġperc ayalah
3 65
H ati
Ġpag inya
Ġpengoperasi an
Ġdi ikat
ĠS ind
Ġmer adang
Ġberp endidikan
Ġmengatakan nya
B ro
Ġmemperb uruk
g han
ĠIr wan
ĠR ing
ĠTar una
h ewan
Ġay unan
ĠK ay
Ġsem angka
w anto
Ġkh ay
ĠT angg
lar asikan
Ù ģ
ĠH impunan
Ġpublis her
Ġf ed
Ġj ihad
ĠC F
Ġpat ri
ĠPem egang
d irkan
ĠAp k
Ġmembu kanya
Ġkeras nya
T aruhan
umsi kan
m inggu
Ġdil ingkungan
ĠK N
elas kannya
ers il
Ġip hone
S ub
ĠH ay
ĠJo e
Ġdis ewa
umat era
Ġl af
ĠAustr ia
est e
ĠP unya
V O
Ġaku arium
Ġdipert anggungjawabkan
Ġdes anya
Ġstim ulus
omm y
ĠBor neo
J elas
Ġdif okuskan
Ġn emu
RI A
I d
Ġkelompok nya
ha e
Ġpem enangan
emp ang
un aan
Ef ek
Ġkan vas
Ġj aksa
Ġdit eg
g adis
P esan
Ġpeng olah
ĠBu ff
Ġpemotret an
Ġkalau pun
ant apkan
Ġberes olusi
Ġval idasi
Ġmenj ulang
yal ir
ĠPro sedur
ĠCar ol
Ġlinc ah
ĠG on
ĠSt atus
Ġtrend y
ĠA PI
ĠP arah
ĠPen jual
Ġcas ual
i ed
ĠF eng
Ġketu l
Ġmer antau
ĠL ubuk
Ġdib ikin
Ġberk walitas
ĠKer tas
à ¦
ĠF as
Ġber uang
ind ow
K K
Ġmen opause
Ġmemb asmi
ilik on
Ġot entik
Ġj ur
ud eg
d ib
Ġkeb obolan
Ġl ada
Ġtubuh mu
Ġt isu
ĠDa yak
F asilitas
å¤ §
Ġmencur ahkan
Ġc ond
Ġm ei
Ġaneh nya
ĠTrans portasi
Ġpemberh entian
v ille
ĠI lahi
Ġseber at
ĠHotsp ur
ĠTer hadap
Ġp ic
Ġdapat i
Ġkeseri usan
Ġp air
Ġc olor
C ek
ĠH TI
Ġp udar
Ġmemper taruhkan
Ġpeny umbatan
pro of
r um
el ia
ĠN ext
Ġis terinya
Ġmeng usahakan
ĠJer awat
Tu gas
Ġjag oan
Ġbeg adang
ĠK linik
wujud an
ĠK hat
w eg
ĠK unjungi
ĠH osting
Ġarah nya
ma x
Ġlay an
ĠSk in
Ġdi kan
Ġse enaknya
Ġre uni
se cara
Ġreks adana
B icara
ĠPra bu
Ġpeng ap
Ġjengk el
Ġn m
Ġres tu
t eng
ĠK g
Ġsp read
as pek
ĠPend ek
alu annya
Ġand al
ĠShar e
EL L
Ġir isan
ĠKre atif
ĠHabib ie
Ġp antangan
ĠF e
uran ce
Ġdis ebar
Ġm ekar
Ġdi implementasikan
ur iga
ĠPen ampilan
eg ram
if ic
ĠTr enggalek
Ġbap aknya
Ġak tivasi
ĠT idung
Ġmemp osisikan
ĠSum edang
Ġr af
omet ri
Ġsed ini
Ġsal eh
Ġj ut
Ġterwujud nya
en re
Ġpeng idap
ip op
ugu ay
ib le
ibar atkan
ĠH ura
Ġter ukur
lu askan
Ġre ady
ont o
Per istiwa
s ahabat
eb ohkan
ĠN A
Ġayah ku
Ġmeny ia
m ant
Ġkas usnya
Ġd enyut
f ollow
Ġpro bab
Ġmen endang
il ia
ĠN enek
ut bah
Ġbert aubat
Ġk asi
ĠB ird
ĠD um
Ġkal k
ĠAs ep
v ey
akr editasi
Ġmener obos
K OM
alan ce
Ġg ir
Ġdari mana
ĠT ambahan
ĠS pa
Ġpengga bungan
ĠA ula
Ġk emp
Ġmembuk ukan
ĠA FF
ok opi
ung e
ĠM aps
ĠN iaga
Ġsh ut
Ġhist ory
ĠVictor ia
ĠPortug is
ĠSh allallahu
Ġpeng eb
ĠOt omatis
Ġpolitik nya
ĠY our
IM A
op h
Ġkompati bel
way s
uk im
Ġkep en
Ġmembangun kan
Ġgul ungan
Ġmenunduk kan
ĠIb arat
ĠCh ang
ĠO PPO
Ġpet i
Ġmengal irkan
Ġb int
ĠM arga
ĠN u
lain nya
Ġcomp any
Ġhar u
B atu
Ġres or
Ġmel ambung
ĠMA X
k oli
Ġsh oot
ĠMak na
and alan
ĠG ong
ĠHal o
Ġref resh
Ġt enar
Ġse ason
Ġmer osot
Ġberb ulu
ĠIn tan
Ġk ir
orit is
Ġkeset iaan
utuh nya
h ara
Ġ2 12
Ġsor ga
S N
Ġpembek uan
Ġdip ukul
ĠIn ti
r ai
Ġv ul
u ver
w aku
Ġterk alahkan
ĠPr atama
Ġinst ant
kand al
u atan
op ot
lo id
ĠL iburan
Ġ9 2
ĠL urah
ĠE L
Ġin ap
Ġr otasi
Ġul at
ĠMoh ammad
Ġb ooth
ĠM unch
ĠPer timb
ĠHel lo
Ġ if
at eri
Ġgunakan lah
in ese
ĠKin erja
Ġmencer na
Ġinform atif
Ġ7 50
Ġ `
Ġmeny alin
c asar
Ġm bah
ĠCust om
Ġters ambung
ĠL ing
Ġdij erat
Ġmengar ungi
ĠG mail
Ġdi adopsi
Ġ198 2
T anggal
ĠR encananya
ĠAc ademy
ĠBhay angkara
ĠPer ilaku
Ġtek h
anj iri
asi akan
ac unan
us er
oh or
Ġelit e
ĠH ijri
z ation
itas king
Ġpenamp ungan
ĠO BAT
les tick
Ġdan anya
ĠPend ekatan
ĠO sc
Ġnya wanya
Ġsewaj arnya
Ġs ch
ĠC our
gan egaraan
ĠQue en
Ġs had
el et
Ġter is
j izat
s ang
ĠPub lic
h itung
iway atkan
Ġy amaha
ĠB N
ĠRek omendasi
s ebab
Ġw aduk
ĠUs ai
Ġmen as
il ahkan
ĠRoh ingya
ĠH em
Ġ ud
Ġh is
ĠP EL
ij ang
Ġdead line
Ġkompl ain
Ġbung su
Ġa erob
k ecuali
ĠN op
Ġpers el
Ġp ungutan
Ġg ate
ark as
ĠR GB
angk asan
Ġkel ambu
ĠBaik lah
h rib
ĠT ech
ĠT y
ĠKal bar
Ġfir st
Ġpenjualan nya
Ġmeny ir
ĠTemp o
Ġpenc etak
p indah
Ġberper gian
Ġd og
ĠW NI
ĠFin ance
Ġpengh ujung
ela ga
s ch
Ġmel etus
ĠKal imat
Ġak untan
Ġmon umen
Ġprogram mer
Ġh uj
Ġh ack
ĠF ast
Ġbet is
Ġber air
ĠAc cess
ĠB U
Ġpet arung
Ġters truktur
Ġdis ug
ĠM ant
unggul annya
Ġth eme
Ġf ar
Ġdit embak
Ġph ot
Ġmasi f
amp ah
Ġdil ema
ewa wancara
Ġn arapidana
Ġsel eb
angk aan
ex us
Ġalm amater
Ġper tiga
ampi on
Begitu lah
ĠMust ika
ĠK ompetisi
Ġandalan nya
Ġp angkalan
ĠG oreng
Ġac e
aw ahan
Ġtand uk
Ġdik lasifikasikan
ĠB AND
Ġex cel
Ġberk erja
Ġterper inci
K ol
os ir
ĠK awah
ĠSer pong
Ġwebsit enya
aks ir
Ġgr ade
A gus
Ð° ÑĤ
Su ara
E s
Ġdi ikut
ĠNug roho
ya wan
Ġj ama
Ġpol itis
Ġmengin vestasikan
ĠF i
Ġpen ambang
ocok kan
ĠBad ung
ĠBata via
Ġpant atnya
j e
ĠMon as
Ġmenc a
Ġot onomi
ĠSel andia
Ġsep ekan
casar jana
bak teri
Ġstim ulasi
Ġpen t
ustr ian
ĠLuk man
Ġdir en
ĠAs ma
Ġmen anggulangi
Ġbahw asannya
Ġaz ab
Ġdet erjen
ĠLab oratorium
ĠB abel
Ġh impunan
ĠK up
Ġkant in
Ġters inggung
hh h
Ġl otere
Ġv ers
Ġdimas ukan
Kom isi
ĠB IN
ĠUn iknya
Ġpemad aman
ĠEur opa
es tern
ĠR ut
Ġmeng aji
ad iri
er gen
ĠH ow
ĠU ts
Ġkons truk
bo urne
A mer
ti ce
Ġku is
Ġal hasil
rid ge
am nya
ĠJo urnal
ĠM NC
Ġfr ustrasi
Ġj aya
Ġw hat
Ġvent ilasi
ĠM ulailah
Ġbat er
Ġpik nik
Ġn u
Ġspir it
Ġmeman ipulasi
Ġse tr
ĠAd idas
Ġproyek tor
Ġl obi
A yat
ĠSek jen
E r
ĠC ort
Ġker upuk
ĠF antas
ĠAngel es
j ono
ĠK ontak
ĠG ur
+ +
C L
Ġex c
ĠMas s
etu alang
r ingan
ĠSer tifikat
ĠKom andan
Ġkeper awatan
Ġs torage
ag inya
ist irah
Ġagus tus
ĠStr ateg
r ir
Ġkel estarian
ĠG A
Ġlip utan
Î ±
ĠPen etapan
Ġust ad
ĠKamp anye
.( *)
ĠC M
Ġmenghangat kan
ĠMeny embuhkan
H i
H ubungan
ĠD edi
ĠBug is
Ñģ Ðº
Ġmind set
eluar kannya
ĠZ TE
Ġgo al
Ġpembangun annya
Ġmeng em
Ġpen yar
ag es
Ġmengel upas
ĠSim on
Ġ8 4
Ġdid iknya
Ġinter pretasi
Ġgam ers
ĠL oker
Ġveget arian
ĠP OKER
Ġmudah an
Ġod ds
Ġlingk ar
uy ung
peng alaman
Ġpik sel
Se andainya
ĠID R
ĠShang hai
ongs ong
Ġg ond
ĠG aris
yat anya
ros kop
y og
Ġpenulis nya
ĠWah y
Ġpen injauan
ĠLe o
Ġr iz
ĠGo wa
eb aya
yc le
Ġma unya
ĠBP D
ongg ala
Ġdit indaklanjuti
Ġberj iwa
Ġden ah
ĠLaz io
per b
ON E
iv a
Ġpres isi
ĠB SD
ap itu
Ġp aran
Kep utusan
ĠPed ro
us salam
Ġmengis yaratkan
il ati
ĠSal man
Ġmemak nai
Ġse utuhnya
ĠLum ayan
ĠD rop
imp ahkan
Ġsind rom
m otor
ĠO SIS
ĠK ades
uny ikan
Ġreg u
) )
e ase
ĠM iliar
Ġdic at
Ġkeberk ahan
D im
ĠB app
Ġkem ungkin
ik hl
asi c
Ġt eduh
ela ah
Ġem os
Ġan at
ĠKun o
ĠPenyebab nya
Ġdik u
Ġberk orban
eng kan
Ġtang is
Ġkem aluannya
Ġbers eb
Ġl atih
Ġterhadap nya
Ġgun ting
ĠS enang
ĠEx po
int age
ĠK w
Ġkep ekaan
ĠI B
ĠC ewek
Ġ? .
Â ®
Ġm iris
Ġdil ibatkan
Ap apun
ĠBi ologi
ĠProf esor
Ġpeng aw
Ġb re
Ġmeren ung
Ġkes ek
Ġkeberl angsungan
Ġord eran
ot ori
pa ut
Ġpin us
T AS
SI P
Ġk ans
ĠR yan
ĠSuar ez
G R
Ġdi esel
Ġmeneg ur
ĠK ai
Ġmemp rioritaskan
Ġbah asanya
Ġmeneg angkan
ĠSitu asi
SM S
Ġtrag is
ĠS ha
Ġberk aca
ever age
B unga
ew askan
Ġsebut nya
u ap
Ġbers usah
ert ak
Ġprogr es
Ġdiga gas
wi bawa
ĠF utu
Ġdiv ing
Ġteh nik
Ġj angkrik
Ġf ol
Ġmar tabak
Ġklien nya
Ġkos akata
Ġmen indaklanjuti
ĠR ose
Ġo c
Ġmengh arap
oster on
Ġcry ptocurrency
ĠB ella
ind ustrian
Ġsentim en
ĠVir tual
D N
Ġmem esannya
Ġb ej
Ġpem od
S QL
angk ala
Ġdius ir
Ġliku iditas
Ġtand anya
Ġsimb olis
L owongan
tr itis
ĠSak ura
ĠT ower
200 4
ic er
ĠS anc
Ġpenc itraan
ni ght
Ġh ai
ĠLagi pula
â Ħ¢
ĠJ utaan
ĠR ain
ĠAt ap
Ġkem atangan
ew asaan
Ġmil itan
ster dam
Ġmur ai
ĠN ya
elis ahan
ĠG reat
ĠX P
ĠRo om
it ive
Ġkel ez
amp unan
ather ing
G aya
b ian
ĠMag etan
AT U
ĠNah d
Set idaknya
iger ia
Ġjajaran nya
Ġbung anya
Ġcos tumer
Ġkew alahan
Ġkomp utasi
Ar ti
Ġresepsi onis
ostal gia
ag anda
Ġdicuri gai
Ġbiar lah
s ide
ĠNat una
IND O
ç ļ
ek ukan
ĠL ew
Ġsab uk
ĠPer siapan
Ġali en
Ġtengg ara
Ġdik enai
hak ti
ĠBud ha
ak ui
Ġkul akukan
Ġfavorit nya
ĠBrig jen
or nya
asal lam
Ġ Ñ
in ing
Ġr andom
Ġpanas nya
Ġfin is
B u
Ġdi agram
Ġdikenal kan
ĠBentuk nya
anj al
Assalamu alaikum
angg aran
an eh
Ġaud itor
D e
ĠDil ihat
Ġp ingin
ob oro
Ġp uji
aya p
ĠX iao
truk sikan
ĠF ern
s istem
Ġlun tur
ger ai
Ġter si
Ġdir ealisasikan
r uh
Ġber umah
Ġberd ebat
Ġdiant isipasi
Ġko i
Ġkat arak
Ġag ensi
op las
Ġko ordinator
Ġpem roses
ĠAc tion
ĠAn aly
v ir
ĠT AH
Mem per
erb oard
1 88
m awati
aris kan
ĠB ocoran
Ġwa bah
ĠK iu
Ġpal et
ĠHar un
ad ani
T UK
Ġt ea
ĠKO NI
iker as
Ġmen angg
Ġc adang
Sam sung
Ġband erol
ĠEver coss
Ġmengec il
emp itan
gun ung
Ġf ocus
Ġtim bal
ĠPen angg
Ġtangg ungan
Ġmem verifikasi
ali p
Ġsab da
Ġpeny uka
Ġketek unan
ĠS NI
il s
usah kan
ĠY eh
ip to
Ġkep ikiran
ust ik
ĠF L
Ġreg resi
Ġmemprediksi kan
P usat
Ġdij emput
ĠC ook
ĠFlor ida
ent e
H a
Ġins ting
ikut an
ĠBer awal
ĠTh or
Ġkem asannya
ast ro
Ġgr and
ak imi
ta ck
ĠN H
Ġbers ikeras
ĠH iz
av ing
emb uskan
Ġmengup date
d im
Ġter timpa
Ġmeng unjung
Ġmengg enggam
Ġmempr aktekkan
ĠUr uguay
Ġber abad
ĠW edding
ip i
Ġmend ambakan
Ġmusik nya
ĠSosi alisasi
IC E
K ulit
K amar
Ġdi akhir
Ġen joy
L ink
S upaya
p x
ar engan
ĠF enomena
Ber k
P E
Y D
ti up
ĠB ris
asan anya
Ġbr ilian
entr alisasi
ĠM ov
ah ahaha
Ġterh apus
Ġpelum as
Ġbel ia
ĠV R
ĠR ini
iwa an
Ġsya itan
Ġtengah nya
utrad arai
Ġrob oh
T anda
ĠT utup
ĠK adis
Ġbertu buh
K eluarga
Ġkel alaian
Ġsis tim
in sa
ĠS AM
Ġag r
Ġbi o
ĠRa is
ĠSp ring
ĠS ulit
Ġper hari
ĠTern ate
Ġpl eno
Ġex tra
Ġl adies
ĠL GBT
G r
ĠBl ibli
Ġn ab
Ġvari atif
p resi
ĠMangg arai
s l
ĠHura irah
men jadi
Ġperd uli
ĠElektr onik
Ġr azia
ĠJ ul
Ġters irat
ĠForm ula
L AN
Ġsp ring
ĠSi ang
C M
Ġber tab
Ġsay angi
Ġp alu
to ar
P lus
> >
ans us
Ġkeb al
Ġmengh ias
ĠBrow n
Ġ25 6
l uka
Ġpem da
ĠMal aka
ĠPur balingga
Ġpemba canya
ĠI z
ĠI PK
Ġkec akapan
ĠA BS
Ġmengg angu
id zi
Ġpern ak
m ikan
Ġpras asti
Ġper amp
di e
ĠO x
Ġberh ari
erta an
Ġlel ucon
Ġc anda
ĠLegend s
Ġr encanakan
ĠMul yani
ĠBe at
ĠD ag
Ġberb enah
Ġmenyad arinya
Hasil nya
ĠAward s
ĠD and
Ġfl av
S up
Ke unggulan
ĠAss oci
Ġpe jalan
Ġbelajar nya
Ġek uitas
Ġmer aba
Ġteks til
ĠMb ps
Ġperek rutan
ĠN aj
ĠG raf
ĠBat erai
Ġdieks ekusi
ĠAp aratur
S ambil
ĠN awa
Ġind ukan
ec hat
Ġbro ad
Ġdib ongkar
Ð¾Ð »
R aja
ĠB BC
ĠS impan
Peng guna
Ġnaf s
ob ek
ater ing
Ġkeg emukan
inta annya
Ġd alih
ohon gi
Ġmenca irkan
Ġt echn
Ġg eser
Ġpesaing nya
H indari
Ġmember anikan
Ġsingkat nya
Ġmikro ba
Ġn ame
ĠS ign
12 0
ĠP ack
Ġf olat
Ġpel ukis
ĠK ontrak
s w
ELI TIAN
ĠD ark
B onus
ult asikan
Ġberk utat
engk elkan
Ġh amb
Ġpec andu
ep tik
Ġtik ungan
Ġm ovie
is ai
Ġbermod alkan
Ġmem uliakan
Ġj d
ĠL iter
Ġinv ent
ĠJangan lah
ãĢ Ĥ
Ġorang e
Ġman ipulasi
Ġked isiplinan
Ġd oc
Ġos te
Ġmemb eberkan
fer ence
Ġz ombie
ĠC ode
Ġdik elas
Ġdipers embahkan
S port
ĠKos metik
yal lah
Ġl ant
Ġter bayar
Ġba it
Ġchar ge
Ġper alihan
eng ang
Ġfac ial
apitu lasi
Ġs ide
ĠC end
unc ulkan
Ġfl ow
jab arkan
ĠSt an
Ġal f
Ġdes ember
ĠMaj alengka
H atta
ĠT aj
Ġlay ang
Ġmen ewaskan
b intik
Ġmel alu
ĠAf ghan
and askan
ĠK abel
UR AH
ĠPay tren
Ġdo i
Ġmak asih
Ġmer iwayatkan
Ġga ul
Ġmen ebus
Ġpend orong
Ġpan utan
Ġpet ik
å Ľ
U l
Ġseb elas
ers hip
Ġpenas ihat
ĠI h
Ġmeng implementasikan
c y
Ġr ider
ĠY akin
ĠInd ikator
ĠGo jek
Ġsign al
ĠPr ambanan
Ġmenimb ang
Ġaksel erasi
ĠP ES
ĠBer lin
ump amaan
uk o
ĠLa buhan
ĠN eo
D iharapkan
Ġ19 20
Ġper wujudan
Ġey es
ĠKep egawaian
Ġ8 3
ĠKur sus
ĠMosk ow
duk a
Ġor de
ĠAl m
E ng
ĠPers ebaya
Ġh alamannya
Ġ \
end irian
S al
ĠUr usan
Ġbern egara
Ġamat ir
ev a
Ġmenyes ali
Ġdij auh
Ġj enius
Ġter igu
Ġmengal okasikan
Ġlidah nya
ic i
Ġlamp iran
it t
em oni
Ġmer apikan
Ġberl emak
Ġmengh ubung
ĠBT N
L ain
Ġ08 12
Ġhi ja
Ġ __
Ġdiper ingati
Ġbers ungguh
ĠSm ith
k etika
ĠB TS
ĠM engk
Ġdin anti
ĠR ani
Ġberlangsung nya
ĠF ord
fi q
Ġser uan
ĠKeju araan
r ika
ĠPeng awasan
Ġberg enre
ĠPEN ELITIAN
g edung
Ġsul ung
ĠAd ha
Per empuan
ic au
Ġhard isk
web site
on tar
Ġdisek olah
Ġj asanya
Ġtun as
Ġke war
Ġtep uk
Ġn at
Ġmengu tuk
ifi er
ĠAG EN
Ġvok alis
Ġ æ
ĠRek ening
ĠR ia
ĠZ ona
ĠI da
ĠBar angkali
Ġ198 3
ent itas
ĠO z
r ef
ĠAl angkah
Ġr ad
Ġberb ondong
ĠAlf amart
Ġinter val
ĠMunch en
ant unya
Ġkhas nya
Ġhid rogen
Ġmens osialisasikan
ĠAbdur rahman
Ġl awas
Ġpub er
ai z
Ġkuat nya
ul ture
Ġdik lat
ny iakan
S k
Ð ±
ĠPas ang
Ġsup ply
Ġberseb elahan
ai ght
. âĢľ
Ġblu e
Ġmin ing
ĠP uji
Ġsun yi
Ġdikab ulkan
ul d
Ġmeng inginkannya
Ġkom ersil
tic s
Ġsi gap
ĠAd ik
Ġbug il
Ġuk ir
ĠC amera
Ġmengk ilap
ĠH ut
ĠShal at
Ġberb ekal
ĠPers yaratan
H arap
ĠJ essica
200 5
Ġun ta
Ġdis ewakan
ĠIT S
B UM
ĠF al
K o
j aman
int ing
Uk uran
Ġh eter
b oy
ĠT ony
ĠF ik
Ġpay pal
ĠAn col
unt o
ĠAkr editasi
Ġkean ekaragaman
Ġdir eksi
Ġpengerja annya
Ġadik ku
m ul
N ew
Ber s
ĠC ita
Ġl ook
pl orer
Ġmembunuh nya
Ġmenyer et
Ġwal et
G S
Ġg osok
Ġab aikan
Ġdih al
Ġdat eng
Ġkemb alinya
Ġberkec epatan
Ġmen ayangkan
Ġp odium
ĠM utu
ell ow
Lem baga
ĠRes pon
Ġl esu
AS S
al er
ĠG L
Ġmen indak
per buatan
ĠTer api
c ayakan
Ġbel anda
Ġberd o
ĠSp e
y er
eb et
kl ub
Ġpenelitian nya
Ġsil ver
Ġrok et
Ġdi ungkap
ĠC in
B ayangkan
Ġmemb andel
ĠR isiko
ag akan
ĠMon aco
D C
ĠD onggala
Rasul ullah
onj olan
ĠWork shop
Ġterjer umus
ĠØ ¹
Ġse afood
Ġdib intangi
ĠC u
Ġtump uan
B ab
Ġ: -
yak i
Ġaku isisi
Ġf old
isi on
id al
Ġdik ira
ĠDian a
ĠKol onel
Pel atihan
ĠTr is
Ġkel uh
ist ilah
Ġdir em
Ġcur am
ĠM iz
ĠBerb asis
Ġ9 3
g ed
Ġk otanya
Ġmen awar
ĠS eks
ĠR adi
Ä ±
Ġter owongan
ĠT BC
Ġtak e
ĠW h
ĠCh u
ĠD O
Ġpengg alangan
Ġmenempel kan
Ġmenghidup i
Ġpemerintahan nya
Ġterbar ukan
Ġ angan
am alkan
ep otan
Ġberb intang
ri er
UK AN
f ort
Ġdip ad
Ġkom ite
ĠKec antikan
ĠW eek
Ġpa us
esi oner
Ġbirah i
Ġagreg at
Ġdis inilah
Ġmengg iring
ĠDinas ti
Ġpeng ering
jadi annya
Ġak idah
ĠDil engkapi
ĠAr ch
Ġey eliner
ĠSek iranya
Ġ08 13
ĠDo uble
Ġm im
Ist ilah
ĠPac itan
Ġditemukan nya
ĠTuhan mu
h abisan
Ø§ ÙĨ
Ġdi hadap
anj uk
mat itis
Ġw udhu
Ġsimp ulkan
Ġl aw
ĠIl ham
b angkan
iny l
Ġr uncing
es tr
Ġper und
ĠT ampaknya
ĠU NS
hamdul ilah
Ġmog ok
Ġinfo nya
om ah
als uan
l eng
w enang
ĠDep uti
Ġbend ungan
ten ance
Ġke ab
Ġdib eberapa
Ġ? ??
s ai
ĠMar vel
Ġnal uri
Ġpeny ihir
it ari
ick en
Ġmi grasi
Ġlay out
ĠMax bet
ĠK S
b ed
ar sip
ĠM ampu
ĠH awa
ĠHarap annya
om atik
ĠPeng aturan
Ġlin ux
Ġmengg endong
ĠRo oney
Ġperk akas
sc ape
ĠSet ting
Ġmem antapkan
Ġkan tuk
eni um
ĠS UR
P a
ĠE SDM
Ġdit egaskan
Ġkart unya
Ġdi angkut
Ġsed ar
ĠP AL
ĠF un
Ġd oyan
Ġmenj engkelkan
ĠPeng hasilan
Ġdip ake
h ost
eg lang
ĠUN BK
Pern yataan
ej oss
Ġkali um
ĠLet kol
Ġbut iran
Ġum atnya
Ġken ang
% ).
M al
Ġsep uasnya
Ġbel uk
Ġ7 9
Ġf iskal
ja bat
Ġresiko nya
Ġfes es
M ic
p op
Ġpeng atur
Ġdib alas
Ġpend iam
ĠSi won
rist ek
ĠPro perti
ĠAnd y
ĠMo z
od ok
Ġsep engetahuan
N as
Ġr ada
ĠF PI
Ġmend ahului
all enge
Kem arin
ĠKons ultan
Ġmem ikir
Ġlemah nya
ĠK ah
D K
ĠPemb esar
ĠS ara
Ġmeng ucap
ant anan
Ġg athering
Ġdom isili
po in
ori alnya
Bl ack
an ami
us unan
Ġm ail
ĠPed uli
Ġp up
Ġmengasy ikkan
P at
ĠPener apan
ĠAmer ica
Ġr ubah
ĠPen umbuh
Ġseper angkat
Ġsesudah nya
ev akuasi
ĠJ ay
Ġpeny impan
Ġmeng uc
ĠAn th
ĠG um
Ġkemenangan nya
Ġs utra
Ġmeres ahkan
Ġrelev ansi
ah ulukan
ĠM V
tr ad
uar y
bij ian
Ġdo akan
Sel esai
Ġge ografi
p utar
ĠAm sterdam
aks imalkan
Ġmel ap
Ġjad ul
i yah
ĠC lass
Ġba unya
ĠPem ula
ĠT it
ser v
ĠB EL
ĠCh o
ĠïĤ ·
Ġketah u
T erb
Ġmem anjat
b angunan
Ġmen etr
Ġor anye
Ġmel ampirkan
Y o
ĠTahun an
ĠWis nu
Ġh ub
Ġpr om
Ġterp usat
eg ant
Ġr ay
es pa
Ġ itik
Ġac uh
y y
ĠPU PR
ĠB KN
ĠW arta
Ġum p
Ġsan itasi
Ġk ort
aw angan
w akil
ad s
ĠF o
ĠAudi o
ĠKam il
Kan ker
tig ma
Ġdi jabarkan
Ġmeres mikan
k erja
ĠEd ition
ĠSc reen
ĠT arakan
Ġdi ag
pl ore
ĠE ric
Ger akan
Ġth n
Ġmencegah nya
Ġb ukaan
kac angan
% ),
Di bawah
Ġq ue
ikhl asan
ĠI ce
Ġel ek
Ġng ak
Ġdin amai
iklan kan
kar tu
ĠSes ekali
ĠTir ta
E E
Ġdip amerkan
ump al
[...]
