{"<s>":0,"<pad>":1,"</s>":2,"<unk>":3,"<mask>":4,"!":5,"\"":6,"#":7,"$":8,"%":9,"&":10,"'":11,"(":12,")":13,"*":14,"+":15,",":16,"-":17,".":18,"/":19,"0":20,"1":21,"2":22,"3":23,"4":24,"5":25,"6":26,"7":27,"8":28,"9":29,":":30,";":31,"<":32,"=":33,">":34,"?":35,"@":36,"A":37,"B":38,"C":39,"D":40,"E":41,"F":42,"G":43,"H":44,"I":45,"J":46,"K":47,"L":48,"M":49,"N":50,"O":51,"P":52,"Q":53,"R":54,"S":55,"T":56,"U":57,"V":58,"W":59,"X":60,"Y":61,"Z":62,"[":63,"\\":64,"]":65,"^":66,"_":67,"`":68,"a":69,"b":70,"c":71,"d":72,"e":73,"f":74,"g":75,"h":76,"i":77,"j":78,"k":79,"l":80,"m":81,"n":82,"o":83,"p":84,"q":85,"r":86,"s":87,"t":88,"u":89,"v":90,"w":91,"x":92,"y":93,"z":94,"{":95,"|":96,"}":97,"~":98,"¡":99,"¢":100,"£":101,"¤":102,"¥":103,"¦":104,"§":105,"¨":106,"©":107,"ª":108,"«":109,"¬":110,"®":111,"¯":112,"°":113,"±":114,"²":115,"³":116,"´":117,"µ":118,"¶":119,"·":120,"¸":121,"¹":122,"º":123,"»":124,"¼":125,"½":126,"¾":127,"¿":128,"À":129,"Á":130,"Â":131,"Ã":132,"Ä":133,"Å":134,"Æ":135,"Ç":136,"È":137,"É":138,"Ê":139,"Ë":140,"Ì":141,"Í":142,"Î":143,"Ï":144,"Ð":145,"Ñ":146,"Ò":147,"Ó":148,"Ô":149,"Õ":150,"Ö":151,"×":152,"Ø":153,"Ù":154,"Ú":155,"Û":156,"Ü":157,"Ý":158,"Þ":159,"ß":160,"à":161,"á":162,"â":163,"ã":164,"ä":165,"å":166,"æ":167,"ç":168,"è":169,"é":170,"ê":171,"ë":172,"ì":173,"í":174,"î":175,"ï":176,"ð":177,"ñ":178,"ò":179,"ó":180,"ô":181,"õ":182,"ö":183,"÷":184,"ø":185,"ù":186,"ú":187,"û":188,"ü":189,"ý":190,"þ":191,"ÿ":192,"Ā":193,"ā":194,"Ă":195,"ă":196,"Ą":197,"ą":198,"Ć":199,"ć":200,"Ĉ":201,"ĉ":202,"Ċ":203,"ċ":204,"Č":205,"č":206,"Ď":207,"ď":208,"Đ":209,"đ":210,"Ē":211,"ē":212,"Ĕ":213,"ĕ":214,"Ė":215,"ė":216,"Ę":217,"ę":218,"Ě":219,"ě":220,"Ĝ":221,"ĝ":222,"Ğ":223,"ğ":224,"Ġ":225,"ġ":226,"Ģ":227,"ģ":228,"Ĥ":229,"ĥ":230,"Ħ":231,"ħ":232,"Ĩ":233,"ĩ":234,"Ī":235,"ī":236,"Ĭ":237,"ĭ":238,"Į":239,"į":240,"İ":241,"ı":242,"Ĳ":243,"ĳ":244,"Ĵ":245,"ĵ":246,"Ķ":247,"ķ":248,"ĸ":249,"Ĺ":250,"ĺ":251,"Ļ":252,"ļ":253,"Ľ":254,"ľ":255,"Ŀ":256,"ŀ":257,"Ł":258,"ł":259,"Ń":260,"an":261,"Ġd":262,"er":263,"en":264,"Ġm":265,"Ġs":266,"ang":267,"ar":268,"at":269,"in":270,"Ġb":271,"ak":272,"Ġp":273,"Ġk":274,"ah":275,"Ġt":276,"al":277,"un":278,"as":279,"em":280,"am":281,"ya":282,"Ġdi":283,"Ġy":284,"eng":285,"ad":286,"Ġyang":287,"tu":288,"kan":289,"el":290,"ap":291,"Ġse":292,"is":293,"ik":294,"Ġmen":295,"Ġdan":296,"Ġl":297,"Ġber":298,"ga":299,"il":300,"it":301,"es":302,"nya":303,"ing":304,"Ġh":305,"Ġmem":306,"Ġter":307,"Ġj":308,"eb":309,"on":310,"akan":311,"us":312,"Ġin":313,"ari":314,"or":315,"Ġke":316,"engan":317,"id":318,"ut":319,"ur":320,"ĠA":321,"tuk":322,"ĠS":323,"ih":324,"ada":325,"da":326,"Ġdengan":327,"Ġper":328,"Ġmeng":329,"Ġini":330,"Ġun":331,"ul":332,"uk":333,"um":334,"ir":335,"ung":336,"ek":337,"Ġuntuk":338,"et":339,"ol":340,"ĠP":341,"ara":342,"ti":343,"ag":344,"au":345,"Ġdari":346,"Ġr":347,"itu":348,"ĠK":349,"ai":350,"alah":351,"asi":352,"alam":353,"ud":354,"ba":355,"Ġc":356,"ĠB":357,"ia":358,"ĠM":359,"im":360,"ain":361,"idak":362,"Ġsa":363,"bu":364,"ĠT":365,"Ġn":366,"ĠD":367,"Ġtidak":368,"adi":369,"anya":370,"Ġpen":371,"âĢ":372,"Ġbis":373,"om":374,"ama":375,"si":376,"apat":377,"Ġan":378,"Ġad":379,"per":380,"wa":381,"Ġg":382,"Ġbisa":383,"ta":384,"Ġakan":385,"Ġitu":386,"Ġat":387,"up":388,"ĠI":389,"ian":390,"ja":391,"ro":392,"ukan":393,"Ġmer":394,"Ġdalam":395,"eh":396,"amp":397,"ĠAn":398,"ok":399,"ita":400,"Ġadalah":401,"Ġju":402,"Ġpada":403,"angan":404,"Ġw":405,"Ġjuga":406,"Ġmel":407,"ĠJ":408,"yak":409,"ep":410,"Ġpem":411,"jadi":412,"Ġmas":413,"uh":414,"udah":415,"ĠAnda":416,"ena":417,"orang":418,"Ġatau":419,"Ġkar":420,"atan":421,"apa":422,"Ġ(":423,"ed":424,"atu":425,"ebih":426,"Ġmemb":427,"Ġkam":428,"Ġdapat":429,"eg":430,"ika":431,"ent":432,"Ġf":433,"ab":434,"Ġbah":435,"gai":436,"Ġada":437,"ali":438,"aw":439,"ebut":440,"Ġters":441,"ot":442,"ana":443,"ata":444,"agi":445,"Ġhar":446,"ĠR":447,"ay":448,"Ġak":449,"and":450,"asa":451,"end":452,"Ġsem":453,"ĠH":454,"oleh":455,"Ġ2":456,"Ġpeng":457,"Ġlebih":458,"bagai":459,"ua":460,"Ġsek":461,"ikan":462,"Ġmenjadi":463,"Ġkita":464,"Ġ1":465,"Ġban":466,"Ġsel":467,"Ġkarena":468,"ĠC":469,"elah":470,"ĠIn":471,"amb":472,"ĠN":473,"ant":474,"Ġmeny":475,"ter":476,"Ġpro":477,"inya":478,"ilik":479,"Ġanda":480,"Ġtersebut":481,"alu":482,"emb":483,"Ġsudah":484,"Ġba":485,"emp":486,"angat":487,"Ġoleh":488,"eka":489,"os":490,"api":491,"ĠL":492,"lah":493,"ri":494,"akukan":495,"Ġser":496,"Ġsaya":497,"Ġbanyak":498,"Ġtah":499,"aya":500,"gun":501,"Ġorang":502,"isi":503,"ati":504,"Ġlain":505,"aran":506,"aj":507,"gi":508,"ĠâĢ":509,"iliki":510,"angg":511,"ub":512,"Ġmend":513,"angk":514,"Ġsangat":515,"uan":516,"ob":517,"ac":518,"Ġsatu":519,"ĠG":520,"perti":521,"Ġseb":522,"ĠU":523,"buat":524,"Ġsebagai":525,"Ġdis":526,"Ġmereka":527,"alan":528,"iri":529,"Ġmemiliki":530,"..":531,"Ġbahwa":532,"eber":533,"ip":534,"Ġsaat":535,"00":536,"Ġmak":537,"Ġharus":538,"Ġkel":539,"itas":540,"Ġseperti":541,"tr":542,"ahan":543,"Ġkem":544,"Ġkami":545,"cara":546,"Ġmenc":547,"gunakan":548,"ingga":549,"od":550,"elum":551,"Ġkep":552,"Ġbaik":553,"asil":554,"unya":555,"ungan":556,"Ġkon":557,"aman":558,"âĢĿ":559,"ib":560,"aan":561,"og":562,"Ġtahun":563,"esar":564,"Ġdil":565,"lin":566,"Ġsaja":567,"eberapa":568,"Ġhal":569,"Ġbar":570,"anj":571,"Ġhanya":572,"Ġmembuat":573,"ong":574,"uj":575,"ĠW":576,"Ġdik":577,"Ġpas":578,"op":579,"Ġkes":580,"ingk":581,"ĠInd":582,"Ġker":583,"Ġag":584,"uar":585,"Ġsed":586,"duk":587,"ingin":588,"ihat":589,"ones":590,"ĠF":591,"ungk":592,"main":593,"empat":594,"onesia":595,"Ġya":596,"Ġdib":597,"ĠO":598,"Ġses":599,"01":600,"Ġpara":601,"amun":602,"Ġbeberapa":603,"Ġbers":604,"Ġberk":605,"asan":606,"ota":607,"usah":608,"ala":609,"Ġseh":610,"Ġmember":611,"line":612,"Ġkamu":613,"ilih":614,"ew":615,"utu":616,"Ġsecara":617,"orm":618,"Ġpert":619,"Ġv":620,"Ġmaka":621,"ĠIndonesia":622,"int":623,"Ġkal":624,"Ġmengh":625,"Ġpel":626,"Ġjika":627,"ist":628,"enar":629,"Ġsamp":630,"Ġket":631,"Ġtent":632,"angkan":633,"Ġtelah":634,"Ġberb":635,"agian":636,"uran":637,"oh":638,"Ġtet":639,"art":640,"buh":641,"entu":642,"ku":643,"aktu":644,"Ġmasih":645,"ikasi":646,"ungkin":647,"Ġterl":648,"Ġsalah":649,"ind":650,"yar":651,"ĠE":652,"ĠY":653,"Ġmelakukan":654,"Ġ201":655,"Ġmenggunakan":656,"Ġap":657,"Ġaku":658,"arkan":659,"Ġbesar":660,"Ġset":661,"Ġlagi":662,"Ġpr":663,"Ġanak":664,"Ġbi":665,"annya":666,"Ġkeb":667,"umah":668,"angs":669,"Ġon":670,"ingg":671,"Ġapa":672,"ikut":673,"Ġsend":674,"ual":675,"Ġtak":676,"Ġdit":677,"Ġtan":678,"Ġsu":679,"Ġpemb":680,"Ġdim":681,"Ġmendapat":682,"arang":683,"ini":684,"imp":685,"ĠPer":686,"Ġcara":687,"hir":688,"Ġingin":689,"Ġsemua":690,"aat":691,"ra":692,"omp":693,"Ġhari":694,"ĠAl":695,"ec":696,"ses":697,"Ġwaktu":698,"Ġdia":699,"Ġbagi":700,"epat":701,"uang":702,"Ġal":703,"Ġas":704,"Ġa":705,"Ġonline":706,"Ġdip":707,"unj":708,"Ġsi":709,"Ġsendiri":710,"Ġ3":711,"Ġproduk":712,"pun":713,"ahkan":714,"Ġterb":715,"Ġserta":716,"Ġyaitu":717,"uka":718,"Ġsampai":719,"ulai":720,"pa":721,"ĠâĢľ":722,"ic":723,"apan":724,"Ġkec":725,"Ġman":726,"Ġpun":727,"anan":728,"Ġbaru":729,"Ġrumah":730,"buah":731,"ĠUn":732,"Ġbel":733,"upakan":734,"Ġtentang":735,"Ġsebuah":736,"lu":737,"Ġtr":738,"Ġpes":739,"ting":740,"Ġpend":741,"idup":742,"eda":743,"Ġmemper":744,"udi":745,"ingkat":746,"Ġtempat":747,"eri":748,"ami":749,"uhan":750,"Ġsesu":751,"jalan":752,"Ġmau":753,"ui":754,"na":755,"Ġlainnya":756,"Ġsama":757,"ukup":758,"erja":759,"baik":760,"akat":761,"Ġbert":762,"Ġharga":763,"form":764,").":765,"onal":766,"Ġmerupakan":767,"Ġatas":768,"Ġmendapatkan":769,"Ġkepada":770,"mas":771,"Ġmemberikan":772,"aling":773,"Ġagar":774,"usia":775,"ingan":776,"Ġberh":777,"Ġdilakukan":778,"Ġberbagai":779,"Ġbu":780,"apkan":781,"Ġmakan":782,"engk":783,"ow":784,"atakan":785,"tar":786,"Ġseti":787,"ulan":788,"Ġsehingga":789,"Ġsekali":790,"ĠSel":791,"unia":792,"Ġkh":793,"af":794,"Ġcukup":795,"Ġpern":796,"arah":797,"angsung":798,"aks":799,"era":800,"Ġsej":801,"tor":802,"Ġbukan":803,"Ġsebelum":804,"ola":805,"Ġmemang":806,"ĠâĢĵ":807,"Ġtu":808,"gr":809,"ont":810,"if":811,"Ġterk":812,"Ġbagian":813,"Ġkali":814,"Ġia":815,"Ġsetiap":816,"ima":817,"Ġdir":818,"ulit":819,"Ġmudah":820,"Ġterjadi":821,"Ġseg":822,"tif":823,"Ġ-":824,"olah":825,"Ġjadi":826,"enis":827,"Ġseorang":828,"ila":829,"yarakat":830,"edia":831,"ej":832,"Ġked":833,"Ġsetelah":834,"mainan":835,"Ġsep":836,"Ġneg":837,"aku":838,"Ġpeny":839,"ef":840,"imana":841,"Ġmungkin":842,"udian":843,"had":844,"Ġwar":845,"Ġmin":846,"Ġketika":847,"elas":848,"etah":849,"Ġbelum":850,"ekerja":851,"ungg":852,"Ġperlu":853,"Ġdiper":854,"angun":855,"Ġhingga":856,"anjut":857,"Ġres":858,"formasi":859,"embali":860,"atang":861,"faat":862,"Ġdiri":863,"enc":864,"le":865,"Ġmulai":866,"Ġum":867,"Ġmasyarakat":868,"akin":869,"Ġsitu":870,"Ġtapi":871,"anc":872,"Ġpul":873,"awat":874,"Ġpaling":875,"akar":876,"eks":877,"re":878,"enal":879,"Ġdid":880,"uc":881,"Ġ5":882,"ĠTer":883,"Ġpermainan":884,"Ġdunia":885,"Ġnamun":886,"Ġkeluar":887,"inggi":888,"anti":889,"awa":890,"alnya":891,"antu":892,"ulu":893,"ensi":894,"ans":895,"alui":896,"est":897,"akai":898,"urut":899,"Ġkur":900,"Ġmenj":901,"Ġ4":902,"Ġberl":903,"aikan":904,"tern":905,"Ġpers":906,"tara":907,"ev":908,"Ġlangsung":909,"Ġla":910,"Ġso":911,"Ġlalu":912,"Ġpernah":913,"Ġhasil":914,"gaimana":915,"Ġtem":916,"Ġterd":917,"itar":918,"Ġair":919,"entuk":920,"alami":921,"Ġmemp":922,"ilan":923,"Ġmelihat":924,"Ġdua":925,"unt":926,"unc":927,"Ġjudi":928,"ulis":929,"ĠBer":930,"...":931,"Ġkembali":932,"usahaan":933,"Ġkons":934,"Ġind":935,"ons":936,"ĠV":937,"inta":938,"Ġmemba":939,"han":940,"Ġti":941,"Ġberp":942,"Ġsedang":943,"âĢľ":944,"likasi":945,"Ġsen":946,"Ġselalu":947,"Ġwa":948,"Ġi":949,"asanya":950,"caya":951,"mu":952,"Ġtetapi":953,"umlah":954,"iswa":955,"ca":956,"Ġjenis":957,"Ġakhir":958,"Ġberd":959,"man":960,"Ġmod":961,"ĠKar":962,"ebab":963,"yakit":964,"Ġmus":965,"Ġsesuai":966,"inggal":967,"Ġtim":968,"Ġbenar":969,"ĠDi":970,"Ġtinggi":971,"Ġo":972,"nis":973,"ikir":974,"Ġtanpa":975,"res":976,"ni":977,"Ġku":978,"ĠDan":979,"oba":980,"aki":981,"Ġhidup":982,"ver":983,"ĠNamun":984,"erah":985,"Ġmelalui":986,"Ġbermain":987,"Ġkata":988,"yata":989,",âĢĿ":990,"oc":991,"ĠUntuk":992,"Ġtetap":993,"ambil":994,"utama":995,"Ġbersama":996,"Ġinformasi":997,"Ġselama":998,"Ġsekarang":999,"etu":1000,"Ġmes":1001,"li":1002,"com":1003,"egitu":1004,"Ġpertama":1005,"uruh":1006,"Ġob":1007,"Ġkas":1008,"Ġpos":1009,"ilai":1010,"Ġkeh":1011,"hadap":1012,"Ġmana":1013,"alau":1014,"usus":1015,"urah":1016,"Ġ\"":1017,"usaha":1018,"Ġdep":1019,"Ġtubuh":1020,"Ġkalau":1021,"Ġkomp":1022,"erint":1023,"Ġsitus":1024,"Ġsering":1025,"âĢĻ":1026,"Ġterhadap":1027,"Ġst":1028,"auh":1029,"Ġsekitar":1030,"Ġdes":1031,"Ġga":1032,"Ġpemain":1033,"akah":1034,"ilah":1035,"pat":1036,"eli":1037,"Ġpenting":1038,"awan":1039,"ampu":1040,"Ġ:":1041,"Ġkom":1042,"st":1043,"ajar":1044,"Ġperusahaan":1045,"ĠJika":1046,"Ġtahu":1047,"Ġberada":1048,"ber":1049,"atkan":1050,"Ġuang":1051,"emukan":1052,"Ġkemudian":1053,"any":1054,"ĠAp":1055,"ani":1056,"Ġsuatu":1057,"Ġkecil":1058,"ump":1059,"Ġmemilih":1060,"Ġantara":1061,"Ġterbaik":1062,"Ġbahkan":1063,"ĠSem":1064,"eksi":1065,"arik":1066,"Ġcepat":1067,"tikan":1068,"alis":1069,"),":1070,"hat":1071,"anita":1072,"uku":1073,"angka":1074,"Ġdigunakan":1075,"Ġmembantu":1076,"aru":1077,"ekan":1078,"etahui":1079,"Ġkota":1080,"uas":1081,"Ġpilih":1082,"Ġterus":1083,"ĠDengan":1084,"Ġsemakin":1085,"Ġproses":1086,"Ġmasalah":1087,"Ġdem":1088,"iket":1089,"Ġar":1090,"ĠPro":1091,"Ġpenyakit":1092,"olo":1093,"ide":1094,"Ġmengg":1095,"AN":1096,"Ġnama":1097,"akarta":1098,"ĠPem":1099,"Ġsp":1100,"istem":1101,"uru":1102,"obil":1103,"Ġjam":1104,"engah":1105,"Ġluar":1106,"erita":1107,"Ġng":1108,"alaman":1109,"log":1110,"ekn":1111,"ori":1112,"âĢ¦":1113,"Ġda":1114,"tim":1115,"Ġjalan":1116,"Ġlama":1117,"oker":1118,"Ġmasuk":1119,"unjung":1120,"Ġwaj":1121,"Ġbegitu":1122,"har":1123,"Ġmanusia":1124,"Ġmengatakan":1125,"anjang":1126,"Ġmencari":1127,"Ġumum":1128,"Ġmengen":1129,"sa":1130,"imb":1131,"usi":1132,"ayanan":1133,"ina":1134,"Ġaw":1135,"Ġnegara":1136,"engar":1137,"abu":1138,"esi":1139,"one":1140,"ark":1141,"atas":1142,"Ġangg":1143,"Ġseba":1144,"Ġtiket":1145,"urun":1146,"Ġmasa":1147,"amu":1148,"Ġmaupun":1149,"ehatan":1150,"Ġkhusus":1151,"ju":1152,"Ġmampu":1153,"di":1154,"ĠAllah":1155,"ahas":1156,"Ġtangg":1157,"etelah":1158,"ikit":1159,"Ġart":1160,"utan":1161,"hkan":1162,"Ġmakanan":1163,"000":1164,"uda":1165,"asar":1166,"Ġbulan":1167,"Ġbag":1168,"rib":1169,"Ġbarang":1170,"Ġberbeda":1171,"ĠHal":1172,"ĠKarena":1173,"Ġbahan":1174,"atif":1175,"anding":1176,"Ġbiasa":1177,"erintah":1178,"ualitas":1179,"engg":1180,"ĠRp":1181,"Ġmerasa":1182,"upa":1183,"Ġkerja":1184,"Ġ19":1185,"ban":1186,"Ġdatang":1187,"Ġwanita":1188,"gram":1189,"Ġmenarik":1190,"ern":1191,"Ġweb":1192,"Ġkedua":1193,"Ġsedikit":1194,"Ġpasti":1195,"anda":1196,"ore":1197,"antai":1198,"Ġlap":1199,"oto":1200,"ĠSeb":1201,"Un":1202,"Ġseluruh":1203,"ihan":1204,"Ġbaw":1205,"ode":1206,"ihak":1207,"apun":1208,"ait":1209,"ĠPen":1210,"ov":1211,"Ġtamp":1212,"Ġtel":1213,"Ġpenggun":1214,"Ġny":1215,"mi":1216,"Ġaplikasi":1217,"Ġsebelumnya":1218,"Sel":1219,"Ġberikut":1220,"Ġkek":1221,"oko":1222,"Ġmeningkat":1223,"Ġtepat":1224,"tiv":1225,"und":1226,"Ġac":1227,"Ġ6":1228,"tur":1229,"asional":1230,"adan":1231,"ij":1232,"ame":1233,"Ġjauh":1234,"ologi":1235,"Ġkegi":1236,"Ġkulit":1237,"Ġbagaimana":1238,"Ġmener":1239,"Ġkurang":1240,"ambah":1241,"Ġsistem":1242,"acam":1243,"angkat":1244,"ort":1245,"Ġkegiatan":1246,"Ġfil":1247,"apai":1248,"Ġintern":1249,"Ġmobil":1250,"Ġtar":1251,"Ġbisnis":1252,"aksi":1253,"isata":1254,"sit":1255,"ayah":1256,"Ġtentu":1257,"eorang":1258,"idikan":1259,"gas":1260,"ikian":1261,"Ġobat":1262,"ĠSelain":1263,"akhir":1264,"ĠJakarta":1265,"Ġadanya":1266,"butu":1267,"anyak":1268,"Ġgun":1269,"Ġken":1270,"amat":1271,"butuhkan":1272,"amin":1273,"Ġterp":1274,"Ġmurah":1275,"Ġperk":1276,"he":1277,"uhi":1278,"Ġdepan":1279,"ĠAg":1280,"Ġmemas":1281,"erb":1282,"Ġbiasanya":1283,"aja":1284,"edi":1285,"ubungan":1286,"Ġkan":1287,"masuk":1288,"ukkan":1289,"Ġrasa":1290,"disi":1291,"ust":1292,"adang":1293,"Ġmengenai":1294,"ujuan":1295,"Ġpunya":1296,"emen":1297,"Ġterj":1298,"Ġlok":1299,"utuhan":1300,"iran":1301,"Ġef":1302,"atis":1303,"Ġmat":1304,"ilang":1305,"Ġjelas":1306,"Ġkalian":1307,"aka":1308,"iaya":1309,"Ġkesehatan":1310,"Ġbentuk":1311,"Ġ,":1312,"ĠMen":1313,"ikm":1314,"Ġ10":1315,"elit":1316,"engkap":1317,"ug":1318,"co":1319,"Untuk":1320,"Ġor":1321,"lik":1322,"angi":1323,"Ġbekerja":1324,"otor":1325,"Ġteman":1326,"usan":1327,"Ġpihak":1328,"ĠAr":1329,"Ġbawah":1330,"Ġnya":1331,"ĠPr":1332,"ener":1333,"ĠIs":1334,"entara":1335,"Ġ.":1336,"utus":1337,"Ġbuat":1338,"ĠAm":1339,"Ġbagus":1340,"erta":1341,"Ġput":1342,"paten":1343,"Ġkr":1344,"irim":1345,"Ġmenja":1346,"Ġblog":1347,"abupaten":1348,"Ġdisebut":1349,"inan":1350,"Ġkeluarga":1351,"akit":1352,"ch":1353,"Ġjangan":1354,"Ġ7":1355,"ekat":1356,"enarnya":1357,"Ġterlihat":1358,"Ġtekn":1359,"Ġterlalu":1360,"Ġjumlah":1361,"lam":1362,"ĠIni":1363,"Ġeks":1364,"tinya":1365,"Ġ2018":1366,"omb":1367,"Ġbola":1368,"ĠAs":1369,"lo":1370,"Ġkebutuhan":1371,"ig":1372,"Ġdata":1373,"ubah":1374,"ĠSe":1375,"ukum":1376,"ĠSaya":1377,"Ġakhirnya":1378,"Ġdic":1379,"oga":1380,"atur":1381,"Ġtern":1382,"agu":1383,"Ġem":1384,"Ġmata":1385,"ĠTapi":1386,"Ġuj":1387,"Ġstr":1388,"Ġbay":1389,"Ġtert":1390,"Ġgr":1391,"Ġmengalami":1392,"Ġdaerah":1393,"Ġtermasuk":1394,"Ġpenc":1395,"Ġtrans":1396,"sial":1397,"ail":1398,"gan":1399,"Ġlakukan":1400,"ontoh":1401,"Ġdiber":1402,"percaya":1403,"Ġtangan":1404,"Ġwarna":1405,"Ġdimana":1406,"ĠMer":1407,"Ġpilihan":1408,"Ġul":1409,"angunan":1410,"ĠJadi":1411,"Ġlem":1412,"ikel":1413,"itik":1414,"ura":1415,"bat":1416,"Ġz":1417,"Ġdig":1418,"enang":1419,"Ġhati":1420,"Ġsejak":1421,"anak":1422,"war":1423,"min":1424,"umber":1425,"hone":1426,"Ġtip":1427,"ĠPeng":1428,"Ġberat":1429,"Ġbelajar":1430,"adah":1431,"Ġpol":1432,"ebabkan":1433,"ino":1434,"alik":1435,"Ġpekerja":1436,"urat":1437,"Ġmenemukan":1438,"ker":1439,"wan":1440,"ungsi":1441,"ĠDalam":1442,"Ġkondisi":1443,"ongan":1444,"angkah":1445,"Ġtinggal":1446,"Ġdij":1447,"upaya":1448,"idang":1449,"ĠCh":1450,",\"":1451,"Ġ8":1452,"etak":1453,"uanya":1454,"ambut":1455,"eja":1456,"ger":1457,"aik":1458,"andar":1459,"Ġmengan":1460,"las":1461,"ĠPada":1462,"Ġmedia":1463,"Ġdiba":1464,"ft":1465,"uangan":1466,"ingat":1467,"Ġutama":1468,"Ġis":1469,"Ġmenunj":1470,"Ġsekolah":1471,"Ġprogram":1472,"ikuti":1473,"Ġusaha":1474,"untungan":1475,"uli":1476,"Ġtujuan":1477,"Ġawal":1478,"Ġil":1479,"ula":1480,"ĠAku":1481,"esk":1482,"Ġseseorang":1483,"Ġtentunya":1484,"omo":1485,"Ġmet":1486,"Ġbahasa":1487,"Ġagen":1488,"ĠAd":1489,"arat":1490,"ulkan":1491,"Ġpenj":1492,"Ġmengetahui":1493,"Ġhad":1494,"Ġtanggal":1495,"uduk":1496,"ĠKota":1497,"ahun":1498,"ukuran":1499,"isalnya":1500,"uta":1501,"Ġpesawat":1502,"ambar":1503,"Seb":1504,"Ġsegera":1505,"jalanan":1506,"idur":1507,"anjutnya":1508,"Ġefek":1509,"Ġsebagian":1510,"ateg":1511,"lan":1512,"Ġjar":1513,"antung":1514,"Ġnilai":1515,"asal":1516,"ili":1517,"Ġpan":1518,"Ġkartu":1519,"Ġsesuatu":1520,"Ġbur":1521,"Ġbak":1522,"Per":1523,"Ġmalam":1524,"Ġot":1525,"ĠDia":1526,"Ġjawa":1527,"embangan":1528,"embang":1529,"ahasiswa":1530,"ĠMas":1531,"ediakan":1532,"ember":1533,"Ġberhasil":1534,"Ġpula":1535,"Ġterdapat":1536,"ikat":1537,"akni":1538,"Ġ200":1539,"Ġpemerintah":1540,"umsi":1541,"Ġmeningkatkan":1542,"Ġanggota":1543,"all":1544,"Ġsakit":1545,"amanya":1546,"ĠKami":1547,"kannya":1548,"ampuan":1549,"Ġtiga":1550,"umen":1551,"onom":1552,"angga":1553,"ibat":1554,"ĠSM":1555,"Ġmasing":1556,"Ġbuku":1557,"andingan":1558,"aftar":1559,"Ġbadan":1560,"ĠDes":1561,"Ġaman":1562,"Ġdulu":1563,"Ġapakah":1564,"Ġkeber":1565,"Ġternyata":1566,"Ġpoker":1567,"Ġtaruhan":1568,"ajaran":1569,"Ġpria":1570,"alahan":1571,"asarkan":1572,"idupan":1573,"Ġibu":1574,"itur":1575,"Ġmembeli":1576,"Ġyakni":1577,"adaan":1578,"Ġgame":1579,"site":1580,"Ġbiaya":1581,"unyai":1582,"aris":1583,"asikan":1584,"ĠJawa":1585,"imal":1586,"ĠAda":1587,"Ġkualitas":1588,"Ġdih":1589,"Ġacara":1590,"ea":1591,"iv":1592,"Ġartikel":1593,"isa":1594,"ĠOn":1595,"Ġdirinya":1596,"ĠKabupaten":1597,"Ġtoko":1598,"Ġay":1599,"benar":1600,"Ġsuka":1601,"Ġtrad":1602,"Ġmencoba":1603,"uncul":1604,"Ġkont":1605,"ompok":1606,"Ġ0":1607,"akt":1608,"yang":1609,"anakan":1610,"ord":1611,"Ġperjalanan":1612,"ĠTidak":1613,"Ġwajah":1614,"etika":1615,"ĠKem":1616,"aknya":1617,"ĠIng":1618,"Ġ9":1619,"asakan":1620,"Ġsebenarnya":1621,"Ġberjalan":1622,"ĠYang":1623,"Ġtingkat":1624,"Ġberj":1625,"Ġmempunyai":1626,"Ġyg":1627,"ampir":1628,"asaan":1629,"ipun":1630,"arga":1631,"Ġmencapai":1632,"Ġhukum":1633,"Ġdok":1634,"Ġkuat":1635,"Ġek":1636,"Ġtidur":1637,"aranya":1638,"araan":1639,"ĠZ":1640,"Ġkol":1641,"Ġalam":1642,"Ġsegala":1643,"Ġdesain":1644,"ĠKep":1645,"Ġpendidikan":1646,"Ġkehidupan":1647,"andingkan":1648,"Ġbila":1649,"Ġsiap":1650,"Ġalat":1651,"ĠâĢĺ":1652,"ĠTim":1653,"arti":1654,"atunya":1655,"Ġmenurut":1656,"empatan":1657,"Ġdah":1658,"ohon":1659,"Ġkor":1660,"Jika":1661,"Ġdin":1662,"Ġkap":1663,"Ġwisata":1664,"teri":1665,"Ġlingk":1666,"phone":1667,"Ġkemampuan":1668,"Ġmuncul":1669,"Ġprof":1670,"Ġinf":1671,"Ġdiberikan":1672,"isik":1673,"ma":1674,"alon":1675,"Ġdemikian":1676,"buhan":1677,"ĠSek":1678,"Ġsh":1679,"ate":1680,"Ġmemen":1681,"Ġdasar":1682,"encana":1683,"Ber":1684,"ilayah":1685,"buatan":1686,"ei":1687,"Ġsil":1688,"Ġwarga":1689,"iden":1690,"ĠSetelah":1691,"omor":1692,"enangan":1693,"ira":1694,"ideo":1695,"Ġsosial":1696,"asilkan":1697,"anja":1698,"Ġmanfaat":1699,"ĠAk":1700,"masing":1701,"Ġmembutuhkan":1702,"yah":1703,"ook":1704,"Ġkeuntungan":1705,"ainkan":1706,"Ġpanjang":1707,"otel":1708,"Ġfak":1709,"entukan":1710,"mart":1711,"av":1712,"ĠIa":1713,"insi":1714,"Ġterakhir":1715,"ibu":1716,"Ġsiswa":1717,"inasi":1718,"Ġinternet":1719,"Ġpet":1720,"Ġbeb":1721,"isasi":1722,"Ġpasar":1723,"Ġlayanan":1724,"unggu":1725,"gak":1726,"ewa":1727,"Ġist":1728,"Ġfoto":1729,"lukan":1730,"Ġalami":1731,"get":1732,"estasi":1733,".âĢĿ":1734,"ungi":1735,"me":1736,"fat":1737,"uman":1738,"Men":1739,"Ġmesin":1740,"Ġpekerjaan":1741,"ikmati":1742,"ungguh":1743,"ĠTuhan":1744,"yat":1745,"ĠMereka":1746,"urkan":1747,"Ġmengambil":1748,"Ġwebsite":1749,"uju":1750,"iver":1751,"Ġbun":1752,"inggu":1753,"Ġperb":1754,"ukti":1755,"Ġkelas":1756,"Ġberarti":1757,"Di":1758,"ens":1759,"Ġdibuat":1760,"Ġsk":1761,"Ġtua":1762,"ack":1763,"Ġop":1764,"istr":1765,"Ġand":1766,"eluar":1767,"anfaat":1768,"urn":1769,"Ġsumber":1770,"ĠSo":1771,"Ġketer":1772,"Ġrek":1773,"Ġdarah":1774,"Ġsini":1775,"Ġjasa":1776,"Ġkarya":1777,"elitian":1778,"Ġtum":1779,"Ġsehat":1780,"Ġresmi":1781,"alagi":1782,"Ġataupun":1783,"Ġmemberi":1784,"Ġfilm":1785,"Ġorgan":1786,"raga":1787,"Ġsebab":1788,"Ġmembawa":1789,"iz":1790,"Ġukuran":1791,"Ġpemba":1792,"atasi":1793,"Ġnyaman":1794,"An":1795,"Ġruang":1796,"Ġpergi":1797,"eran":1798,"Ġpakai":1799,"Ġmenunjukkan":1800,"Ġsah":1801,"Ġbuah":1802,"Ġposisi":1803,"perasi":1804,"Ġpertandingan":1805,"gris":1806,"Ġbidang":1807,"Ġterg":1808,"Ġterutama":1809,"Ġberasal":1810,"ribadi":1811,"wah":1812,"Dalam":1813,"AR":1814,"uter":1815,"abis":1816,"Ġkini":1817,"ĠX":1818,"Ġka":1819,"Ġmahasiswa":1820,"Ġsulit":1821,"ult":1822,"Ġhubungan":1823,"Ġselain":1824,"ond":1825,"hi":1826,"bung":1827,"amanan":1828,"arnya":1829,"empuan":1830,"Ġ/":1831,"lim":1832,"Ġmenuju":1833,"Ġlokasi":1834,"Ġbat":1835,"Ġpot":1836,"ĠIslam":1837,"Ġwilayah":1838,"Ġmengak":1839,"ĠInggris":1840,"ustr":1841,"amatan":1842,"Ġpengguna":1843,"manfaat":1844,"ho":1845,"ĠQ":1846,"Ġmacam":1847,"Ġmengk":1848,"Ġteknologi":1849,"Ġtengah":1850,"usat":1851,"unan":1852,"anggap":1853,"alkan":1854,"hatikan":1855,"Selain":1856,"aksanakan":1857,"ocok":1858,"irkan":1859,"ard":1860,"Ġpengalaman":1861,"Ġre":1862,"Ġgambar":1863,"Ġbern":1864,"iga":1865,"Ġmuda":1866,"ĠTr":1867,"ajak":1868,"ĠOnline":1869,"Ġe":1870,"ĠSt":1871,"agam":1872,"ĠSer":1873,"Ġpak":1874,"ff":1875,"Ġberm":1876,"Ġgak":1877,"tum":1878,"Ġsebesar":1879,"ĠPas":1880,"ĠMeng":1881,"SI":1882,"Ġdekat":1883,"enda":1884,"Ġmesk":1885,"Ġakun":1886,"ue":1887,"Ġbermanfaat":1888,"Ġlingkungan":1889,"tivitas":1890,"Ġtertentu":1891,"ĠMem":1892,"Ġdikenal":1893,"roid":1894,"Ġtanah":1895,"inj":1896,"Ġkesempatan":1897,"Ġjuta":1898,"ell":1899,"Ġterbaru":1900,"Ġgel":1901,"Ġditer":1902,"Ġger":1903,"Ġdaftar":1904,"Ġpenuh":1905,"own":1906,"Ġmenjaga":1907,"Ġmenit":1908,"roduk":1909,"Ġkat":1910,"sp":1911,"Ġ&":1912,"andang":1913,"ukses":1914,"Ġmenerima":1915,"Pada":1916,"Ġkeku":1917,"Ġ20":1918,"Ġ15":1919,"Ġmenyebabkan":1920,"Ġcontoh":1921,"Ġpengh":1922,"Ġpeserta":1923,"Ġpl":1924,"takan":1925,"Ġbayi":1926,"Ġkomun":1927,"Ġmaks":1928,"Ġmembaca":1929,"uma":1930,"Ġkamar":1931,"Ġvideo":1932,"asih":1933,"Ġkend":1934,"Ġperm":1935,"ĠMar":1936,"Ġilmu":1937,"Ġbeli":1938,"Ġmenyediakan":1939,"Ġmodel":1940,"antor":1941,"oy":1942,"gk":1943,"ĠPT":1944,"201":1945,"Ġdaya":1946,"Ġmenulis":1947,"ukung":1948,"ela":1949,"Saya":1950,"Ġgunakan":1951,"Ġsal":1952,"ĠNeg":1953,"Ġbet":1954,"Ġpasangan":1955,"Ġlengkap":1956,"Ġen":1957,"Ġsiapa":1958,"unjungi":1959,"ill":1960,"epas":1961,"erti":1962,"Ġterc":1963,"onomi":1964,"aha":1965,"ĠSp":1966,"ĠOl":1967,"angsa":1968,"opul":1969,"Ġmenjalan":1970,"arap":1971,"Ġram":1972,"anyakan":1973,"Ġdahulu":1974,"akang":1975,"lis":1976,"agai":1977,"Ġfitur":1978,"isah":1979,"Ġmusim":1980,"Ġmotor":1981,"impin":1982,"esan":1983,"Ġterkait":1984,"Ġmenang":1985,"Ġ12":1986,"Ġik":1987,"bila":1988,"In":1989,"Ġtulis":1990,"ebihan":1991,"Ġsisi":1992,"Ġrambut":1993,"Ġterpercaya":1994,"Sem":1995,"daya":1996,"Ġpelangg":1997,"Ġlah":1998,"Ġmengikuti":1999,"utup":2000,"Ġel":2001,"Ġikut":2002,"ahami":2003,"Ġguru":2004,"pl":2005,"martphone":2006,"usnya":2007,"umi":2008,"Ġup":2009,"Ġperempuan":2010,"elaskan":2011,"Ġnggak":2012,"Ġ2017":2013,"Ġaktif":2014,"Ġumumnya":2015,"ubahan":2016,"Ġluas":2017,"Ġpikir":2018,"edit":2019,"Ġikan":2020,"Ġpesan":2021,"ĠJep":2022,"Ġmenyer":2023,"uri":2024,"aian":2025,"Ġselanjutnya":2026,"anyaan":2027,"Ġkelompok":2028,"Ġmenyel":2029,"ampak":2030,"arian":2031,"ers":2032,"olahraga":2033,"Ġkasih":2034,"Ġmeninggal":2035,"adar":2036,"Ġgratis":2037,"Ġmenghad":2038,"Ġlangkah":2039,"olusi":2040,"udara":2041,"NI":2042,"Ġdom":2043,"ungkan":2044,"men":2045,"Ġhampir":2046,"Ġapabila":2047,"Ġalasan":2048,"Ġusia":2049,"Ġmah":2050,"Ġcer":2051,"ewat":2052,"Ġmul":2053,"arket":2054,"ĠKe":2055,"Ġnanti":2056,"Ġmembuka":2057,"Ġcocok":2058,"ĠPol":2059,"Ġberg":2060,"eman":2061,"az":2062,"raf":2063,"ĠBahkan":2064,"Ġpembel":2065,"ER":2066,"inc":2067,"ender":2068,"Ġditu":2069,"Ġkepala":2070,"Ġlanjut":2071,"Ġpercaya":2072,"Ġputih":2073,"Ġmenghasilkan":2074,"wal":2075,"Ġmengur":2076,"ĠDP":2077,"yek":2078,"ĠSeh":2079,"Ġtersedia":2080,"ebar":2081,"Ġdiant":2082,"ry":2083,"erh":2084,"endah":2085,"emu":2086,"Setelah":2087,"asilitas":2088,"load":2089,"Ġjawab":2090,"aud":2091,"Ġtamb":2092,"opi":2093,"ris":2094,"ongk":2095,"obatan":2096,"gabung":2097,"antik":2098,"onton":2099,"asaran":2100,"Ġib":2101,"Ġnegeri":2102,"Ġdiatas":2103,"Ġdesa":2104,"Ġsuara":2105,"Ġgol":2106,"anggung":2107,"aruh":2108,"hal":2109,"oran":2110,"Ġmisalnya":2111,"Ġsana":2112,"Ġdet":2113,"etapi":2114,"Ġpribadi":2115,"anfaatkan":2116,"ĠAnd":2117,"Dengan":2118,"Ġcalon":2119,"Ġmenurun":2120,"atihan":2121,"Ġkasus":2122,"apak":2123,"ĠKalau":2124,"onsumsi":2125,"ĠSalah":2126,"AM":2127,"Ġkemenangan":2128,"erj":2129,"uni":2130,"ayu":2131,"andi":2132,"ĠGo":2133,"uga":2134,"ogel":2135,"ink":2136,"ha":2137,"ess":2138,"iap":2139,"Ġkab":2140,"Ġsih":2141,"Ġterlebih":2142,"ator":2143,"Ġpenelitian":2144,"Ġnaik":2145,"ĠSaat":2146,"Ġmendukung":2147,"ĠKec":2148,"Ġseri":2149,"ihkan":2150,"Ġsatunya":2151,"ilis":2152,"ĠAt":2153,"IN":2154,"akter":2155,"embangkan":2156,"Ġhadir":2157,"rip":2158,"ĠPert":2159,"ĠSed":2160,"ank":2161,"gg":2162,"Ġinv":2163,"Ġindah":2164,"iptakan":2165,"andung":2166,"iwa":2167,"Ġdana":2168,"Ġcerita":2169,"ungkinan":2170,"Ġmenya":2171,"erhana":2172,"itif":2173,"atih":2174,"dung":2175,"adahal":2176,"Ġlihat":2177,"Ġseks":2178,"icara":2179,"Ġdiketahui":2180,"Ġdapatkan":2181,"ey":2182,"Ġdibandingkan":2183,"ogle":2184,"Ġmenyebut":2185,"antinya":2186,"ahaya":2187,"ine":2188,"ĠDari":2189,"isan":2190,"Ġdokter":2191,"Ġmenikmati":2192,"Ġnomor":2193,"Ġkl":2194,"Ġab":2195,"Ġlagu":2196,"Ġpopul":2197,"awarkan":2198,"ĠItu":2199,"Ġsebaik":2200,"Ġbatu":2201,"Ġtugas":2202,"Ġmemakai":2203,"Ġbelakang":2204,"Ġberkembang":2205,"erbal":2206,"Ġmembangun":2207,"ĠKita":2208,"Ġmemer":2209,"Ġbantu":2210,"Ġjual":2211,"gus":2212,"Ġpagi":2213,"Ġkeras":2214,"aturan":2215,"ampilan":2216,"ĠMal":2217,"atnya":2218,"Ġsmartphone":2219,"ital":2220,"ivers":2221,"Ġberdasarkan":2222,"ĠSet":2223,"ĠMaka":2224,"enaga":2225,"inar":2226,"Ġsang":2227,"ukul":2228,"kah":2229,"Ġlaz":2230,"Ġterdiri":2231,"ĠJepang":2232,"Ġperubahan":2233,"Ġangka":2234,"asinya":2235,"Ġsemuanya":2236,"Ġbek":2237,"ampil":2238,"Ġstrateg":2239,"Ġlewat":2240,"etahuan":2241,"ĠSh":2242,"Ġhit":2243,"esai":2244,"Ġmeminta":2245,"ampaikan":2246,"Ġterkenal":2247,"ambahkan":2248,"ji":2249,"ĠEn":2250,"ĠOr":2251,"Ġberf":2252,"Ap":2253,"Ġturun":2254,"Ġsehari":2255,"angnya":2256,"ĠBarat":2257,"Ġfaktor":2258,"iman":2259,"Ġperangkat":2260,"Ġrak":2261,"âĢĿ.":2262,"pada":2263,"antan":2264,"ck":2265,"okoh":2266,"Ġmew":2267,"Kami":2268,"eluarkan":2269,"Ġberupa":2270,"Ġribu":2271,"uti":2272,"Ġasal":2273,"Ġakibat":2274,"Ġpenggunaan":2275,"Ġkamp":2276,"Ġsupaya":2277,"ĠDesa":2278,"osi":2279,"Ġdisini":2280,"Ġsejumlah":2281,"Ġkaki":2282,"Ġkantor":2283,"Ġprofesi":2284,"Ġped":2285,"Ġfasilitas":2286,"Ġjaringan":2287,"Ġekonomi":2288,"Ġtiba":2289,"esu":2290,"Ġkekuatan":2291,"Ġperkembangan":2292,"ĠJangan":2293,"atuh":2294,"Ġolahraga":2295,"10":2296,"ewan":2297,"Ġkeadaan":2298,"Ġpo":2299,"Ġpanas":2300,"Ġ100":2301,"Ġpart":2302,"ifikasi":2303,"Ġform":2304,"Ġbunga":2305,"Ġterasa":2306,"Ġkomputer":2307,"ulang":2308,"isk":2309,"Ġide":2310,"AT":2311,"Ġbersih":2312,"Ġbang":2313,"ĠSu":2314,"te":2315,"Ġhak":2316,"ĠCara":2317,"su":2318,"Ġmodal":2319,"Ġsementara":2320,"oa":2321,"Ġpelayanan":2322,"Ġlupa":2323,"ona":2324,"Ġagama":2325,"Ġkhususnya":2326,"abi":2327,"eta":2328,"ĠBel":2329,"ĠNah":2330,"Ġ30":2331,"tiga":2332,"ublik":2333,"Ġkemungkinan":2334,"Ġsy":2335,"Ġburuk":2336,"Ġbakal":2337,"ace":2338,"ram":2339,"ĠAc":2340,"utusan":2341,"ity":2342,"Ġins":2343,"wab":2344,"Ġcinta":2345,"Ġpengg":2346,"Ġayam":2347,"Ġberharap":2348,"ĠBanyak":2349,"ĠOleh":2350,"enti":2351,"Ġitulah":2352,"ukai":2353,"impan":2354,"ainya":2355,"enangkan":2356,"Ġboleh":2357,"ĠAmer":2358,"ie":2359,"iter":2360,"Ġmo":2361,"baga":2362,"indari":2363,"ĠMus":2364,"Ġberusaha":2365,"Ġproduksi":2366,"Ġsus":2367,"ownload":2368,"emat":2369,"egas":2370,"Ġmateri":2371,"Ġtumbuh":2372,"Ġmenu":2373,"enakan":2374,"Ġsederhana":2375,"uat":2376,"rasi":2377,"Ġmemenuhi":2378,"Ġfungsi":2379,"Ġempat":2380,"alaupun":2381,"ejala":2382,"Ġapapun":2383,"Ġpembangunan":2384,"Ġjad":2385,"enj":2386,"Ġrel":2387,"ĠPend":2388,"Ġsekaligus":2389,"Ġsemoga":2390,"daft":2391,"ganya":2392,"ĠMesk":2393,"ulasi":2394,"vinsi":2395,"ĠKom":2396,"ĠUm":2397,"EN":2398,"Ġduduk":2399,"Namun":2400,"Ġdisk":2401,"ase":2402,"aksana":2403,"ulau":2404,"her":2405,"to":2406,"andangan":2407,"urusan":2408,"Ġkarakter":2409,"onus":2410,"Ġkand":2411,"iversitas":2412,"Ġhotel":2413,"obat":2414,"Ġkontr":2415,"sama":2416,"Ġpenulis":2417,"iksi":2418,"Ġ2016":2419,"antas":2420,"Ġmenjadikan":2421,"port":2422,"Ġsemp":2423,"hari":2424,"tus":2425,"KI":2426,"Nya":2427,"Ġaktivitas":2428,"ĠKes":2429,"ujud":2430,"Ġlay":2431,"agaimana":2432,"Se":2433,"Ġasli":2434,"Ġpromo":2435,"Ġ[":2436,"Ġdihar":2437,"Ġbutu":2438,"abat":2439,"ibatkan":2440,"ĠSehingga":2441,"ĠTimur":2442,"okok":2443,"ustri":2444,"ĠKel":2445,"Ġbebas":2446,"Ġrendah":2447,"Ġcoba":2448,"ukur":2449,"Ġmilik":2450,"untu":2451,"Ġsukses":2452,"Ġtind":2453,"Ġimp":2454,"Ġte":2455,"Ġto":2456,"oll":2457,"Ġbanget":2458,"Ġmemperoleh":2459,"uki":2460,"Ġsar":2461,"Ġselesai":2462,"Ġdipakai":2463,"utar":2464,"Ġbangsa":2465,"50":2466,"Ġ?":2467,"alian":2468,"emuan":2469,"Ġterh":2470,"Ġmengatasi":2471,"Ġmerasakan":2472,"Ġpertanyaan":2473,"Ġlazada":2474,"ĠTetapi":2475,"Ġpelanggan":2476,"Ġpantai":2477,"let":2478,"etua":2479,"Ġkatanya":2480,"Ġmenentukan":2481,"aih":2482,"ĠKamu":2483,"inal":2484,"Ġsoal":2485,"Ġmusik":2486,"atal":2487,"Ġsurat":2488,"iah":2489,"RI":2490,"iew":2491,"Ġwajib":2492,"Ġantar":2493,"Ġnantinya":2494,"Ġham":2495,"Ġpolitik":2496,"ikap":2497,"usak":2498,"Ġpat":2499,"inginkan":2500,"Ġpengetahuan":2501,"ĠAmerika":2502,"iku":2503,"Ġpusat":2504,"Ġmenjelaskan":2505,"sel":2506,"Ġdilihat":2507,"ayan":2508,"Ġdianggap":2509,"Ġhalaman":2510,"Ġtips":2511,"Ġbank":2512,"Ġkonsumen":2513,"Ġpembuatan":2514,"Ġrep":2515,"ĠBi":2516,"ĠTahun":2517,"Ġpengunjung":2518,"ĠSep":2519,"Ġdemi":2520,"ĠMan":2521,"Menurut":2522,"Ġmerah":2523,"Ġberpikir":2524,"Ġakses":2525,"Ġdijual":2526,"uasa":2527,"iburan":2528,"edar":2529,"Ġlaki":2530,"Ġbernama":2531,"umat":2532,"emikian":2533,"ĠAS":2534,"Ġprakt":2535,"Ġmetode":2536,"engkapi":2537,"Ġberubah":2538,"Ġver":2539,"ĠPl":2540,"Ġmenawarkan":2541,"Ġunik":2542,"Ġtanaman":2543,"AS":2544,"jadikan":2545,"ilihan":2546,"Ġinst":2547,"Ġberc":2548,"akil":2549,"ĠTak":2550,"Ġdag":2551,"Ġus":2552,"isme":2553,"iring":2554,"Ġ18":2555,"Ġmenyatakan":2556,"Ġsempat":2557,"Ġbertanya":2558,"Ġrem":2559,"ingkatan":2560,"ega":2561,"egah":2562,"yaran":2563,"Ġof":2564,"uah":2565,"hatian":2566,"Ġmarket":2567,"tal":2568,"Ġpastinya":2569,"Ġtampil":2570,"top":2571,"Ġlog":2572,"Ġtenaga":2573,"aga":2574,"Ġminyak":2575,"Ġsilahkan":2576,"ĠPel":2577,"Ġkanker":2578,"mad":2579,"Ġsedangkan":2580,"Ġut":2581,"Ġah":2582,"Ġtab":2583,"Ġmain":2584,"ester":2585,"Ġcuma":2586,"bar":2587,"Ġarah":2588,"ĠRe":2589,"imak":2590,"Ġdibawah":2591,"Ġberlangsung":2592,"Ġkej":2593,"ĠBr":2594,"Ġmati":2595,"Ġdr":2596,"Ġkendaraan":2597,"Ġherbal":2598,"Ġrut":2599,"Ġsaling":2600,"Ġpenyebab":2601,"Ġid":2602,"okus":2603,"Ġdos":2604,"Ġditemukan":2605,"12":2606,"Ġdibutuhkan":2607,"Ġsebaiknya":2608,"ebook":2609,"eter":2610,"Ġmemahami":2611,"fer":2612,"Ġinginkan":2613,"elanja":2614,"Ġpendapat":2615,"Ġmengin":2616,"tion":2617,"jualan":2618,"Ġcantik":2619,"Ġminggu":2620,"Ġpad":2621,"Ada":2622,"Ġmalah":2623,"ediksi":2624,"Ġberikan":2625,"Ġdijadikan":2626,"Ġberkata":2627,"ĠKeb":2628,"Ġruangan":2629,"Ġtambahan":2630,"Ġkompet":2631,"daf":2632,"ijakan":2633,"epatan":2634,"ustru":2635,"Ġkalah":2636,"ikah":2637,"Ġgaya":2638,"ĠAb":2639,"Ġaja":2640,"ĠBerikut":2641,"gerak":2642,"Ġgad":2643,"awatan":2644,"anjutkan":2645,"Ġ...":2646,"Ġsenang":2647,"Ġmenunggu":2648,"ilangan":2649,"ĠSeperti":2650,"Ġpin":2651,"Ġberkualitas":2652,"Ter":2653,"ĠMel":2654,"AL":2655,"Ġdimiliki":2656,"Ġmaj":2657,"egi":2658,"Ġpositif":2659,"Ġ'":2660,"ice":2661,"Ġbertemu":2662,"Ġbantuan":2663,"Ġpaket":2664,"ĠDa":2665,"Ġlima":2666,"daftar":2667,"Ġim":2668,"Ġnasional":2669,"entar":2670,"omend":2671,"Ġcat":2672,"Ġketiga":2673,"engaruhi":2674,"Ġch":2675,"oda":2676,"ilangkan":2677,"itan":2678,"onsel":2679,"Ġsambil":2680,"orong":2681,"Ġmengandung":2682,"Ġsejarah":2683,"ĠâĢ¦":2684,"Ġperhatian":2685,"angkau":2686,"arena":2687,"olong":2688,"itus":2689,"Ġbergabung":2690,"Ġpemilik":2691,"unci":2692,"ĠKetika":2693,"ukaan":2694,"ubungi":2695,"tab":2696,"aca":2697,"ĠPres":2698,"Ġtadi":2699,"Ġsebanyak":2700,"Ġtanda":2701,"Ġpeluang":2702,"sikan":2703,"ahasa":2704,"Ġsup":2705,"udul":2706,"Ġkeamanan":2707,"Ġmeja":2708,"Ġnamanya":2709,"ewasa":2710,"truk":2711,"awasan":2712,"Ġorganisasi":2713,"Ġmenurunkan":2714,"ampilkan":2715,"iks":2716,"Ġ16":2717,"ungkinkan":2718,"ĠSedangkan":2719,"Ġmeskipun":2720,"Ġmenambah":2721,"Ġkeuangan":2722,"tik":2723,"Ġsun":2724,"ĠApa":2725,"Ġbudaya":2726,"Ġpukul":2727,"Ġtradisi":2728,"okan":2729,"Ġdidapat":2730,"Ġlayak":2731,"Ġyakin":2732,"Ġpah":2733,"arakan":2734,"Ġmenjual":2735,"ĠBandung":2736,"Ġlaut":2737,"ambat":2738,"egang":2739,"Ġtransaksi":2740,"Ġsebaga":2741,"otal":2742,"AK":2743,"Ġmerek":2744,"atar":2745,"Ġarea":2746,"urna":2747,"Ġberagam":2748,"ajari":2749,"Ġkorban":2750,"Ġkandungan":2751,"uari":2752,"Ġdiperlukan":2753,"laki":2754,"Ġjer":2755,"osit":2756,"enter":2757,"Ġgag":2758,"Ġadmin":2759,"Ġkos":2760,"Ġpersen":2761,"ĠDPR":2762,"Ġkau":2763,"ex":2764,"utuskan":2765,"ejak":2766,"olak":2767,"iner":2768,"Ġbangunan":2769,"Ġpembayaran":2770,"Ġkonsep":2771,"antikan":2772,"ci":2773,"Ġapalagi":2774,"Anda":2775,"adakan":2776,"Ġbal":2777,"Ġberita":2778,"Ġsuami":2779,"ĠMad":2780,"Saat":2781,"Ġbr":2782,"Ġ14":2783,"Ġmenyenangkan":2784,"Ġpengobatan":2785,"Ġtulisan":2786,"Ġmengurangi":2787,"Ġsub":2788,"ĠTan":2789,"erit":2790,"gn":2791,"ĠKed":2792,"esaikan":2793,"Ġmaksimal":2794,"Ġbertu":2795,"dukung":2796,"baya":2797,"alisasi":2798,"Ġdidalam":2799,"ĠPak":2800,"Ġma":2801,"ĠKepala":2802,"aksud":2803,"inginan":2804,"alur":2805,"atus":2806,"ĠThe":2807,"urus":2808,"Aku":2809,"tumbuhan":2810,"Ġmenciptakan":2811,"Ġ11":2812,"wi":2813,"Ġkhas":2814,"Ġsamping":2815,"etul":2816,"ĠBeberapa":2817,"Ġwas":2818,"ĠBali":2819,"istrik":2820,"awatir":2821,"edaan":2822,"Ġdimulai":2823,"tua":2824,"Ġefektif":2825,"Ġoperasi":2826,"dag":2827,"adinya":2828,"Ġversi":2829,"ation":2830,"Ġbus":2831,"Ġkayu":2832,"ser":2833,"elasan":2834,"Ġindustri":2835,"Ġrev":2836,"Ġprofesional":2837,"PK":2838,"Ġmemulai":2839,"Ġlaga":2840,"uali":2841,"Ġduk":2842,"urangan":2843,"Ġjustru":2844,"Ġmendengar":2845,"ĠRes":2846,"Ġpar":2847,"amping":2848,"abr":2849,"Ġketah":2850,"Ġmenambahkan":2851,"Ġbonus":2852,"Ġbes":2853,"Ġbro":2854,"Ġpotensi":2855,"Ġkalangan":2856,"iat":2857,"Ġsur":2858,"OM":2859,"Ġsebagainya":2860,"Ġmengenal":2861,"arusnya":2862,"der":2863,"eny":2864,"Ġfisik":2865,"Ġhi":2866,"ez":2867,"guna":2868,"Ġener":2869,"ĠSelatan":2870,"ĠKetua":2871,"Ġmeraih":2872,"Ġminim":2873,"30":2874,"Ġberbelanja":2875,"Ġmahal":2876,"enerasi":2877,"Ġpopuler":2878,"Ġhitam":2879,"Ġint":2880,"Ġtakut":2881,"Al":2882,"ve":2883,"Ġko":2884,"arta":2885,"tudi":2886,"ĠMenurut":2887,"ulus":2888,"anggu":2889,"Tidak":2890,"Ġmemungkinkan":2891,"Ġlemb":2892,"Ġinilah":2893,"Ġmed":2894,"Ġapi":2895,"roduksi":2896,"ĠGun":2897,"ijau":2898,"Ġteknik":2899,"iko":2900,"Ġterbesar":2901,"tas":2902,"ĠAndroid":2903,"Ġnorm":2904,"asilan":2905,"AH":2906,"Ini":2907,"Ġudah":2908,"ubern":2909,"upati":2910,"asitas":2911,"Ġkopi":2912,"rah":2913,"intang":2914,"Ġdewasa":2915,"isten":2916,"pek":2917,"Ġdita":2918,"ubernur":2919,"Ġbergerak":2920,"Ġpulang":2921,"ret":2922,"urabaya":2923,"ĠYa":2924,"Ġmengel":2925,"Ġmenjalankan":2926,"age":2927,"ĠHarga":2928,"Ġmemastikan":2929,"esifikasi":2930,"Ġrah":2931,"ĠPemerintah":2932,"Ġdiharapkan":2933,"Ġkhawatir":2934,"iti":2935,"ĠSemoga":2936,"Ġlokal":2937,"daftaran":2938,"PU":2939,"ĠKam":2940,"jadian":2941,"usun":2942,"Ġmanaj":2943,"Ġsemangat":2944,"ork":2945,"Ġlayar":2946,"ikin":2947,"Ġayah":2948,"ahat":2949,"Nah":2950,"timb":2951,"ĠDis":2952,"Ġpengel":2953,"Ġes":2954,"20":2955,"Ġpay":2956,"Ġ2015":2957,"Ġtampak":2958,"Ġ17":2959,"ĠMungkin":2960,"itung":2961,"ĠJudi":2962,"Ġmodern":2963,"ĠBagi":2964,"ĠApakah":2965,"Ġmur":2966,"isip":2967,"dul":2968,"Ġjadwal":2969,"Dan":2970,"ĠSemua":2971,"asis":2972,"ht":2973,"Ġmemanfaatkan":2974,"acebook":2975,"ĠDr":2976,"Ġ50":2977,"Ġponsel":2978,"Ġstrategi":2979,"ee":2980,"ware":2981,"ĠPresiden":2982,"Ġpener":2983,"Ġsifat":2984,"Ġmengapa":2985,"ebat":2986,"Hal":2987,"jek":2988,"impi":2989,"Ġjarang":2990,"Ġkut":2991,"Ġrakyat":2992,"ĠAgus":2993,"Ġberdiri":2994,"jaga":2995,"Ġgejala":2996,"arin":2997,"warna":2998,"baru":2999,"Ġasing":3000,"ĠKemudian":3001,"ĠRumah":3002,"ĠGoogle":3003,"Ġagak":3004,"ĠSam":3005,"Ġjatuh":3006,"Ġtau":3007,"Ġ24":3008,"Cara":3009,"Ġdiak":3010,"Ġ13":3011,"Ġvir":3012,"Ġudara":3013,"bo":3014,"Ġdukungan":3015,"Ġer":3016,"Ġbersi":3017,"Ġhilang":3018,"Ġdilaksanakan":3019,"Ġmeninggalkan":3020,"Ġmengeluarkan":3021,"Ġsepak":3022,"Ġpola":3023,"teman":3024,"Ġtipe":3025,"uktikan":3026,"ham":3027,"ĠKecamatan":3028,"ĠUniversitas":3029,"Ġahli":3030,"Ġsin":3031,"arankan":3032,"esanan":3033,"Ġdisebabkan":3034,"Ġterbuka":3035,"jid":3036,"adu":3037,"Ġtiap":3038,"Ġproyek":3039,"sia":3040,"Ġtindakan":3041,"ĠHanya":3042,"obati":3043,"etapkan":3044,"yarat":3045,"Ġrup":3046,"endak":3047,"elengg":3048,"idik":3049,"ĠKal":3050,"ahari":3051,"Ġkehilangan":3052,"pon":3053,"Ġtangga":3054,"Ġdikatakan":3055,"istik":3056,"Ġkebijakan":3057,"Ġupaya":3058,"siapkan":3059,"untut":3060,"....":3061,"efer":3062,"Ġfile":3063,"ĠBl":3064,"Ġjiwa":3065,"Ġanti":3066,"Ġmiliki":3067,"engkapnya":3068,"resi":3069,"Ġbl":3070,"oma":3071,"Ġsolusi":3072,"Ġmemutuskan":3073,"Ġpertumbuhan":3074,"ĠPemb":3075,"uliah":3076,"Ġsepanjang":3077,"tah":3078,"Ġseni":3079,"ĠAir":3080,"ĠSi":3081,"oo":3082,"ikahan":3083,"Ġindonesia":3084,"ĠAh":3085,"Ġkapan":3086,"ĠHar":3087,"ĠII":3088,"aitan":3089,"Ġpenderita":3090,"tarik":3091,"ĠSebagai":3092,"Ġpendek":3093,"Ġhand":3094,"Ġmenimb":3095,"etik":3096,"ĠMuh":3097,"evel":3098,"Ġberlaku":3099,"uci":3100,"Ġistri":3101,"Ġmengembangkan":3102,"Ġtamu":3103,"agia":3104,"Ġlistrik":3105,"Ġemas":3106,"ast":3107,"isnis":3108,"ĠSy":3109,"Ġulang":3110,"Ġtokoh":3111,"Ġdiantaranya":3112,"Ġpakaian":3113,"Ġperawatan":3114,"Ġbanyaknya":3115,"ade":3116,"fikasi":3117,"Ġ199":3118,"entasi":3119,"Ġdaging":3120,"Ġam":3121,"omba":3122,"Ġtergantung":3123,"Ġenergi":3124,"air":3125,"ayani":3126,"Ġminum":3127,"Ġsempurna":3128,"Ġketahui":3129,"Ġpintu":3130,"Ġkesel":3131,"Ġberikutnya":3132,"ĠPoker":3133,"oni":3134,"sur":3135,"Ġtotal":3136,"Ġartinya":3137,"tup":3138,"orit":3139,"ĠLalu":3140,"ĠGr":3141,"ono":3142,"ujan":3143,"19":3144,"ock":3145,"Ġrata":3146,"Ġkomunikasi":3147,"Ġev":3148,"our":3149,"umb":3150,"erjakan":3151,".\"":3152,"Ġberhubungan":3153,"Ġiklan":3154,"ungguhnya":3155,"Ġuc":3156,"Ġ#":3157,"Ġinvestasi":3158,"Ġdalamnya":3159,"Ġmencegah":3160,"rav":3161,"Mem":3162,"uluh":3163,"isiko":3164,"Ġmengunjungi":3165,"Ġkul":3166,"angkap":3167,"Ġcari":3168,"erang":3169,"Ġdaun":3170,"Ġkenapa":3171,"Dari":3172,"Ġdikar":3173,"Ġq":3174,"ening":3175,"TA":3176,"Ġseharusnya":3177,"Ġtemp":3178,"ce":3179,"Ġkak":3180,"Ġpoin":3181,"Ġpenjual":3182,"Ġisi":3183,"Ġ25":3184,"Ġberbagi":3185,"tra":3186,"ĠIbu":3187,"Ġrutin":3188,"Ġdaripada":3189,"Ġbin":3190,"Ġpulau":3191,"Ġlahir":3192,"Ġpenduduk":3193,"dang":3194,"yataan":3195,"aransi":3196,"Ġtekan":3197,"ĠDin":3198,"ll":3199,"emi":3200,"ĠMin":3201,"ĠSD":3202,"iksa":3203,"Ġdiambil":3204,"Ġtogel":3205,"Ġenak":3206,"yo":3207,"aliknya":3208,"ansi":3209,"Ġpikiran":3210,"audara":3211,"Ġkeputusan":3212,"Ġmembayar":3213,"iru":3214,"Ġjantung":3215,"Ġtas":3216,"Ġent":3217,"ĠNegara":3218,"Ġpec":3219,"ĠUS":3220,"olog":3221,"Ġ2014":3222,"Ġdiberi":3223,"Ġbib":3224,"ĠMak":3225,"Ġberapa":3226,"Ġmelawan":3227,"entang":3228,"Ġkre":3229,"por":3230,"Ġkaryawan":3231,"ros":3232,"Ġtrading":3233,"Ġhamil":3234,"abila":3235,"Ġkelebihan":3236,"omatis":3237,"Ġringan":3238,"ĠBar":3239,"Ġwis":3240,"Ġstandar":3241,"Ġpenjualan":3242,"Ġterbuat":3243,"Ġmenghilangkan":3244,"idaknya":3245,"Ġkamera":3246,"Ġperc":3247,"Ġpemimpin":3248,"PS":3249,"Ġaturan":3250,"Ġtertarik":3251,"Ġmengaku":3252,"osok":3253,"ĠUtara":3254,"Ġaj":3255,"erintahan":3256,"ampung":3257,"ĠSurabaya":3258,"hit":3259,"ayakan":3260,"buhkan":3261,"11":3262,"Ġberhenti":3263,"abel":3264,"!!":3265,"Ġmenimbulkan":3266,"Ġkerj":3267,"Ġbaca":3268,"Ġtahap":3269,"ĠIntern":3270,"ewati":3271,"Ġterm":3272,"Ġberbicara":3273,"Ġmemainkan":3274,"Ġbutuh":3275,"uji":3276,"adiah":3277,"dari":3278,"Ġterbukti":3279,"Ġmembuatnya":3280,"Ġkeinginan":3281,"Ġkelamin":3282,"Ġsiang":3283,"unda":3284,"ĠKr":3285,"Ġtampilan":3286,"Ġmengirim":3287,"Ġperj":3288,"fa":3289,"iliar":3290,"iling":3291,"Ġbandar":3292,"ĠSementara":3293,"Ġbenda":3294,"Ġhijau":3295,"esus":3296,"Ġzaman":3297,"Ġmembahas":3298,"Ġmengingat":3299,"Ġmenjawab":3300,"uny":3301,"Ġdipas":3302,"ĠIr":3303,"Ġmenutup":3304,"okasi":3305,"Ġperbedaan":3306,"Ġbaju":3307,"uskan":3308,"askan":3309,"Ġpendaftaran":3310,"Ġperut":3311,"isti":3312,"indah":3313,"Ġkesalahan":3314,"endiri":3315,"ĠOk":3316,"Ġtitik":3317,"Ġditerima":3318,"sh":3319,"asino":3320,"Ġbumi":3321,"ĠProvinsi":3322,"Ġbukti":3323,"Ġ|":3324,"elar":3325,"aksa":3326,"NS":3327,"ĠIb":3328,"Ġkunci":3329,"Ġbukanlah":3330,"asul":3331,"Ġjalur":3332,"Ġmenghadapi":3333,"ert":3334,"Ġpertemuan":3335,"Ġmendatang":3336,"Ġnyata":3337,"Ġpernikahan":3338,"ĠObat":3339,"Ġpublik":3340,"bul":3341,"igi":3342,"Ġterkena":3343,"irip":3344,"ema":3345,"Ġpemesanan":3346,"Ġhabis":3347,"ĠAkan":3348,"Ġgo":3349,"ĠNo":3350,"Ġsayang":3351,"juan":3352,"Ġpetu":3353,"ĠBukan":3354,"Ġbul":3355,"ï¿":3356,"edung":3357,"ĠNegeri":3358,"irasi":3359,"Ġmelaksanakan":3360,"Ġmenyampaikan":3361,"ampang":3362,"Ġtertu":3363,"Ġminuman":3364,"ï¿½":3365,"Ġbilang":3366,"Ġme":3367,"Ġberwarna":3368,"ahu":3369,"Ġthe":3370,"ĠPi":3371,"Ġguna":3372,"orex":3373,"Ġmengubah":3374,"Jadi":3375,"Ġpohon":3376,"angguan":3377,"Ġkebanyakan":3378,"Ġposting":3379,"ĠAnak":3380,"utr":3381,"Ġmenghar":3382,"Ġgenerasi":3383,"mainkan":3384,"ĠOrang":3385,"Ġlembaga":3386,"Ġperl":3387,"ontr":3388,"Ġnormal":3389,"Ġlel":3390,"mer":3391,"ancar":3392,"Ġdikarenakan":3393,"itis":3394,"Ġdihad":3395,"ĠBank":3396,"Ġmal":3397,"Ġburung":3398,"Ġpres":3399,"Ġujar":3400,"Ġemail":3401,"Ġbe":3402,"Ġmandi":3403,"Ġfokus":3404,"ivid":3405,"udahan":3406,"atat":3407,"Ġkuliah":3408,"Ġkejadian":3409,"Meng":3410,"Salah":3411,"Ġterima":3412,"Ġditaw":3413,"Karena":3414,"empatkan":3415,"ĠTNI":3416,"esuaikan":3417,"Ġkaum":3418,"Bagi":3419,"impinan":3420,"Ġsikap":3421,"Ġkering":3422,"ĠTh":3423,"Ġjarak":3424,"hl":3425,"Peng":3426,"ĠSen":3427,"tifikasi":3428,"ĠMa":3429,"Ġinternasional":3430,"ww":3431,"Ġseper":3432,"Ġresep":3433,"asia":3434,"inding":3435,"ĠSebab":3436,"Ġmempert":3437,"Ġrencana":3438,"Ġmil":3439,"Ġmuslim":3440,"sik":3441,"Ġdikirim":3442,"dus":3443,"do":3444,"baiki":3445,"ĠSMA":3446,"angani":3447,"ibur":3448,"Ġdap":3449,"Ġband":3450,"alat":3451,"Ġbertahan":3452,"Ġsusah":3453,"ton":3454,"Ġmelayani":3455,"Ġdeposit":3456,"Ġamb":3457,"ĠEk":3458,"Ġlawan":3459,"Ġsay":3460,"âĢĿ,":3461,"Ġperi":3462,"rat":3463,"udahkan":3464,"Ġpelaku":3465,"Ġsituasi":3466,"harga":3467,"Ġmenikah":3468,"Ġsebagaimana":3469,"ĠLiga":3470,"oritas":3471,"ĠMuham":3472,"Ġotomatis":3473,"ower":3474,"ĠEro":3475,"ĠDunia":3476,"Ġdilengkapi":3477,"erd":3478,"ick":3479,"ĠApalagi":3480,"Ġmemerlukan":3481,"Ġpengembangan":3482,"ategori":3483,"sihkan":3484,"th":3485,"Ġrum":3486,"Ġpasi":3487,"ĠPara":3488,"Sementara":3489,"AB":3490,"ĠTengah":3491,"ĠPulau":3492,"Ġkaya":3493,"masalahan":3494,"no":3495,"Ġpenjelasan":3496,"Ġseksual":3497,"intai":3498,"ampai":3499,"Ġsepatu":3500,"ĠHari":3501,"Sek":3502,"amkan":3503,"orea":3504,"Ġhujan":3505,"Ġkadang":3506,"Ġbelanja":3507,"ĠMisalnya":3508,"ĠAgen":3509,"Ġseng":3510,"Ġmakin":3511,"Ġdimainkan":3512,"Ġpember":3513,"Ġditawarkan":3514,"Ġamp":3515,"Ġrasanya":3516,"Ġreg":3517,"Ġbing":3518,"uransi":3519,"Ġkisah":3520,"enuh":3521,"Ġperp":3522,"Ġlantai":3523,"Ġbersifat":3524,"Ġberguna":3525,"Ġharapan":3526,"ĠSE":3527,"Ġayat":3528,"ĠBat":3529,"ungkapkan":3530,"ead":3531,"lat":3532,"Ġsingkat":3533,"IB":3534,"Ġpembelajaran":3535,"Ġpeningkatan":3536,"iasaan":3537,"ips":3538,"dan":3539,"ĠEropa":3540,"Ġgl":3541,"Ġkapasitas":3542,"Ġkereta":3543,"itra":3544,"Ġpelaksana":3545,"ĠUmum":3546,"wisata":3547,"Ġfr":3548,"Ġcab":3549,"Ġperan":3550,"Ġhasilnya":3551,"Ġinter":3552,"Ġmengatur":3553,"Ġarti":3554,"bi":3555,"Ġperasaan":3556,"Ġtradisional":3557,"ograf":3558,"Ġungk":3559,"PT":3560,"anian":3561,"urang":3562,"epon":3563,"Ġkomunitas":3564,"omer":3565,"place":3566,"Ġberfungsi":3567,"asah":3568,"asana":3569,"Ġberkaitan":3570,"waj":3571,"ool":3572,"egal":3573,"ĠPal":3574,"ON":3575,"Ġ2013":3576,"aji":3577,"Ġmempengaruhi":3578,"Ġbab":3579,"ĠAceh":3580,"Ġx":3581,"Ġotak":3582,"Ġberani":3583,"Ġtarget":3584,"Ġlum":3585,"Ġmatahari":3586,"mb":3587,"Ġmeski":3588,"Ġjangka":3589,"Ġmeter":3590,"Ġtop":3591,"Ġnasi":3592,"Ġkepad":3593,"ĠLa":3594,"Ġkecepatan":3595,"Ġingat":3596,"Ġlink":3597,"Ġder":3598,"ullah":3599,"Kalau":3600,"Ġulasan":3601,"ĠÐ":3602,"yakarta":3603,"ĠNov":3604,"unjuk":3605,"Ġusah":3606,"Ġinfeksi":3607,"Ġmengerti":3608,"ĠDinas":3609,"toran":3610,"ĠMakan":3611,"Ġkeduanya":3612,"Ġmemenangkan":3613,"Ġkalo":3614,"DI":3615,"ĠMes":3616,"ass":3617,"uruan":3618,"sek":3619,"ANG":3620,"Itu":3621,"asnya":3622,"Ġok":3623,"undang":3624,"ĠYesus":3625,"ren":3626,"ĠPendidikan":3627,"istiwa":3628,"eferensi":3629,"ĠYog":3630,"Ġlaporan":3631,"Ġamat":3632,"gen":3633,"ĠKh":3634,"Sebelum":3635,"indahan":3636,"Ġandroid":3637,"Ġkekurangan":3638,"ment":3639,"taf":3640,"ulitan":3641,"Ġinfo":3642,"Ġsimp":3643,"Ġgangguan":3644,"Ġdingin":3645,"Ġindivid":3646,"ĠNasional":3647,"Ġtahan":3648,"Ġsuper":3649,"Ġmelainkan":3650,"ebr":3651,"elajari":3652,"Ġberakhir":3653,"wit":3654,"ĠPadahal":3655,"ĠDep":3656,"Ġberusia":3657,"Ġsobat":3658,"Ġremaja":3659,"Ġkin":3660,"ĠDir":3661,"ĠMeskipun":3662,"Ġgigi":3663,"Ġunit":3664,"ny":3665,"Pem":3666,"irikan":3667,"dagangan":3668,"Ġhewan":3669,"Ġpenerb":3670,"Ġkursi":3671,"emar":3672,"Ġlemak":3673,"Ġpenampilan":3674,"Ġsemb":3675,"Ġumat":3676,"Ġdimaksud":3677,"ternatif":3678,"Ġmengisi":3679,"osan":3680,"Ġali":3681,"Ġwalaupun":3682,"ektur":3683,"avorit":3684,"Ġbalik":3685,"egan":3686,"Ġhadiah":3687,"Ġmarketplace":3688,"Ġserius":3689,"Ġreview":3690,"ĠBupati":3691,"tiba":3692,"aim":3693,"Ġdiskon":3694,"Ġmemudahkan":3695,"unikasi":3696,"was":3697,"asama":3698,"akaan":3699,"apnya":3700,"uf":3701,"Ġkapal":3702,"Ġterjadinya":3703,"ĠTi":3704,"ipta":3705,"Ġmanis":3706,"unjungan":3707,"tivasi":3708,"ĠSab":3709,"engaruh":3710,"Ġgerakan":3711,"ĠSetiap":3712,"utkan":3713,"ou":3714,"Ġlapangan":3715,"Ġvari":3716,"ilaku":3717,"Ġsl":3718,"isipasi":3719,"entingan":3720,"alahkan":3721,"Ġhid":3722,"Ġro":3723,"TI":3724,"Ġsuasana":3725,"mat":3726,"egara":3727,"Ġmembentuk":3728,"Ġmengaj":3729,"Ġmenyebutkan":3730,"OS":3731,"ial":3732,"iriman":3733,"ĠPeny":3734,"Ġmenyelesaikan":3735,"abiskan":3736,"abatan":3737,"Ġpembelian":3738,"Ġbikin":3739,"istrasi":3740,"Ġmom":3741,"ash":3742,"ental":3743,"Ġmemperhatikan":3744,"Ġfor":3745,"Ġgue":3746,"se":3747,"Ġklub":3748,"Ġterjangkau":3749,"ly":3750,"enting":3751,"ĠDaerah":3752,"elang":3753,"Ġpemerintahan":3754,"Ġliburan":3755,"ektr":3756,"Ġhendak":3757,"Ġrisiko":3758,"Ġmelanjutkan":3759,"Ġkok":3760,"ĠRI":3761,"date":3762,"ĠIm":3763,"Ġsahabat":3764,"unuh":3765,"enya":3766,"ĠAgustus":3767,"Ġmenemp":3768,"Ġkesulitan":3769,"Ġlatihan":3770,"ĠPut":3771,"Ġperg":3772,"edakan":3773,"ĠBagaimana":3774,"Ġpermasalahan":3775,"ĠGubernur":3776,"Ġspesi":3777,"rata":3778,"Ġtema":3779,"Ġkredit":3780,"ater":3781,"Ġungg":3782,"Ġterbatas":3783,"Ġbertambah":3784,"ĠSebelum":3785,"eal":3786,"Ġramah":3787,"Ġlaptop":3788,"Ketika":3789,"awaran":3790,"Ġpenis":3791,"Ġteb":3792,"Ġdll":3793,"Ġlahan":3794,"egaw":3795,"ox":3796,"Ġberbahaya":3797,"Ġoptim":3798,"ĠAtau":3799,"Ġgagal":3800,"Ġtanggung":3801,"ner":3802,"ke":3803,"ost":3804,"ikiran":3805,"ovasi":3806,"usakan":3807,"amakan":3808,"ĠBila":3809,"imia":3810,"Ġperiode":3811,"ES":3812,"Ġkemarin":3813,"sinya":3814,"Ġpri":3815,"asiun":3816,"Ġpartai":3817,"Ġrupiah":3818,"Ġkutil":3819,"Ġkonten":3820,"Sebagai":3821,"andai":3822,"abrik":3823,"Ġpemer":3824,"Ġspesifikasi":3825,"Ġgaris":3826,"idah":3827,"Ġsadar":3828,"Ġselamat":3829,"Ġsegi":3830,"PP":3831,"Ġsc":3832,"itamin":3833,"indungi":3834,"Ġbingung":3835,"egiatan":3836,"Ġdigital":3837,"Ġgadis":3838,"Ġ$":3839,"Ġmenampilkan":3840,"olan":3841,"Ġtekanan":3842,"Ġtenang":3843,"Ġdipilih":3844,"anduan":3845,"Ġsusu":3846,"rid":3847,"Ġsepeda":3848,"Ġmesti":3849,"ĠRasul":3850,"Ġanggaran":3851,"Ġwisat":3852,"Ġdini":3853,"Ġtambah":3854,"ðŁ":3855,"fi":3856,"Ġmirip":3857,"Mesk":3858,"ebaran":3859,"alatan":3860,"Ġkonsumsi":3861,"intas":3862,"Ġrusak":3863,"Ġ)":3864,"owi":3865,"Ġmenghindari":3866,"Ġharganya":3867,"Ġpelajaran":3868,"Ġpasien":3869,"umur":3870,"Ġmenyimpan":3871,"Ġkun":3872,"erai":3873,"Ġtes":3874,"ambung":3875,"Ġminimal":3876,"Ġjuara":3877,"Ġmanajemen":3878,"Ġawalnya":3879,"ĠBisa":3880,"Ġnas":3881,"ĠAsia":3882,"Ġkategori":3883,"Ġang":3884,"bah":3885,"utur":3886,"ive":3887,"Ġmelewati":3888,"Ġbatas":3889,"entunya":3890,"untungkan":3891,"its":3892,"ĠJan":3893,"rop":3894,"??":3895,"\".":3896,"ĠSil":3897,"entuan":3898,"Ġberisi":3899,"intaan":3900,"andiri":3901,"Ġmulut":3902,"ĠTentu":3903,"Ġmelakukannya":3904,"ĠOp":3905,"ĠYogyakarta":3906,"Yang":3907,"Ġmiliar":3908,"Seperti":3909,"ĠRam":3910,"ravel":3911,"Ġtek":3912,"Ġsebelah":3913,"insip":3914,"Ġhutan":3915,"Ġdiperoleh":3916,"ĠContoh":3917,"Ġdownload":3918,"ĠTekn":3919,"Ġberper":3920,"ril":3921,"itasi":3922,"ĠHasil":3923,"Ġcem":3924,"ĠJer":3925,"atian":3926,"Ġkanan":3927,"tis":3928,"15":3929,"ull":3930,"Ġdiam":3931,"imu":3932,"tusi":3933,"Ġsyarat":3934,"Ġdisediakan":3935,"ĠKer":3936,"ĠNabi":3937,"Ġhalnya":3938,"Pen":3939,"Ġteks":3940,"airan":3941,"Ġanaknya":3942,"ĠMat":3943,"ilitas":3944,"Ad":3945,"ĠMed":3946,"Ġsegar":3947,"anggil":3948,"Ġumur":3949,"iksaan":3950,"wak":3951,"Kita":3952,"ki":3953,"inkan":3954,"Ġalternatif":3955,"ĠGer":3956,"nas":3957,"Ġkenc":3958,"Ġmenjalani":3959,"Ġistilah":3960,"Ġdampak":3961,"Ġkawasan":3962,"Ġkeper":3963,"Ġragu":3964,"Ġstudi":3965,"Ġsekedar":3966,"Banyak":3967,"Ġterkadang":3968,"Ġambil":3969,"ĠEl":3970,"Ġsemacam":3971,"orasi":3972,"Ġtemb":3973,"Ġkonf":3974,"Ġangk":3975,"Ġbakteri":3976,"imat":3977,"ĠHP":3978,"Ġbintang":3979,"Ġsetidaknya":3980,"ober":3981,"okowi":3982,"Ġsaham":3983,"old":3984,"Ġund":3985,"Ġcatatan":3986,"Ġvirus":3987,"ĠMod":3988,"Ġoper":3989,"Ġfavorit":3990,"Ġjawaban":3991,"Ġtersendiri":3992,"ĠProduk":3993,"angkit":3994,"onda":3995,"ĠSMP":3996,"adilan":3997,"88":3998,"Ġgam":3999,"sung":4000,"ĠKesehatan":4001,"Ġkepentingan":4002,"lihat":4003,"umpulkan":4004,"percayaan":4005,"Ġtelur":4006,"omendasikan":4007,"Ġmenyadari":4008,"Ġanalis":4009,"Ġterletak":4010,"IM":4011,"Ġengg":4012,"Ġkebiasaan":4013,"imbang":4014,"ĠNew":4015,"Ġcek":4016,"irm":4017,"bab":4018,"Ġaksi":4019,"Ġalias":4020,"otak":4021,"Ġbaiknya":4022,"Ġserv":4023,"aing":4024,"Ġgampang":4025,"eien":4026,"atinya":4027,"Ġ40":4028,"Ġdomino":4029,"Ġdibangun":4030,"oli":4031,"ral":4032,"ilm":4033,"Ġkinerja":4034,"lus":4035,"Ġbekas":4036,"jo":4037,"ĠKon":4038,"Ġwisatawan":4039,"ĠBP":4040,"onen":4041,"orkan":4042,"Ġperbuatan":4043,"ect":4044,"Ġpastikan":4045,"ID":4046,"Ġsangatlah":4047,"ingatkan":4048,"omi":4049,"Ġsec":4050,"Ġmembuktikan":4051,"Ġdetail":4052,"Ġmar":4053,"Ġjudul":4054,"Ġjari":4055,"oro":4056,"Ġpuas":4057,"Ġsungguh":4058,"onis":4059,"Ġdinding":4060,"cak":4061,"are":4062,"ĠDesember":4063,"US":4064,"Ġpetugas":4065,"Ġcender":4066,"oris":4067,"2018":4068,"ET":4069,"ows":4070,"Ġhebat":4071,"ĠBola":4072,"Ġluka":4073,"ĠMalang":4074,"kar":4075,"Ġmis":4076,"ĠKap":4077,"ĠSitus":4078,"kata":4079,"aring":4080,"Ġmempr":4081,"Ġout":4082,"UM":4083,"Ġ21":4084,"una":4085,"ahankan":4086,"antangan":4087,"Ġserangan":4088,"urunan":4089,"Ġmengobati":4090,"Ġmengajak":4091,"ĠSul":4092,"ĠUs":4093,"Ġmendorong":4094,"Ġindividu":4095,"Ġgen":4096,"osis":4097,"Ġcenderung":4098,"Ġmembu":4099,"ĠKorea":4100,"ĠPK":4101,"Ġasam":4102,"Ġdeh":4103,"Ġnon":4104,"âĢ¦]":4105,"anah":4106,"ftware":4107,"ge":4108,"Ġpap":4109,"akaian":4110,"etan":4111,"Ġpembaca":4112,"hati":4113,"ĠBahasa":4114,"ĠTel":4115,"ahaman":4116,"Ġmenyukai":4117,"EM":4118,"coin":4119,"Ġberkunjung":4120,"nah":4121,"Ġmenghabiskan":4122,"Ġasuransi":4123,"agram":4124,"Ġkode":4125,"Ġtimbul":4126,"likasikan":4127,"ida":4128,"Ġzat":4129,"ĠBaru":4130,"ayang":4131,"Ġaspek":4132,"cel":4133,"Ġkunjungan":4134,"ĠSatu":4135,"Ġbuka":4136,"ĠFak":4137,"osa":4138,"Pro":4139,"Ġperdagangan":4140,"elih":4141,"Kem":4142,"PA":4143,"ikirkan":4144,"asiat":4145,"Ġsetempat":4146,"Ġnaf":4147,"Ġmaju":4148,"spirasi":4149,"ĠMei":4150,"Ġbertanggung":4151,"olis":4152,"Ġmelip":4153,"dasarkan":4154,"Ġpal":4155,"Ġkabar":4156,"Ġujarnya":4157,"net":4158,"ertian":4159,"iarkan":4160,"ĠSing":4161,"Ġklas":4162,"Ġsampah":4163,"edag":4164,"eku":4165,"jak":4166,"ĠWIB":4167,"BM":4168,"Ġmengkonsumsi":4169,"Ġperaturan":4170,"Ġkeny":4171,"Ġberbasis":4172,"Ġpac":4173,"Ġbuk":4174,"Ġkabupaten":4175,"Ġgunung":4176,"lem":4177,"Ġkematian":4178,"Ġth":4179,"etes":4180,"uasai":4181,"ĠSur":4182,"beda":4183,"Ġsab":4184,"Ġpengaruh":4185,"udang":4186,"ujudkan":4187,"iknya":4188,"ĠBiasanya":4189,"tober":4190,"Ġoff":4191,"Ġident":4192,"ĠUl":4193,"ĠMo":4194,"yu":4195,"Ġpor":4196,"Ġibadah":4197,"eliti":4198,"Ġperalatan":4199,"enaran":4200,"ampur":4201,"Ġmengungkapkan":4202,"otong":4203,"Tapi":4204,"Ġsarana":4205,"Ġex":4206,"ĠBelanda":4207,"Ġklik":4208,"Ġsaudara":4209,"Dia":4210,"ress":4211,"Ġsektor":4212,"Ġmenguntungkan":4213,"anto":4214,"Ġperistiwa":4215,"Ġdasarnya":4216,"Ġhangat":4217,"ashi":4218,"Ġkecuali":4219,"Beberapa":4220,"itcoin":4221,"osting":4222,"ribusi":4223,"oot":4224,"Ġpekan":4225,"satunya":4226,"Ġsaluran":4227,"Ġdibawa":4228,"Ġkerusakan":4229,"Ġkotor":4230,"Ġfl":4231,"ubang":4232,"pro":4233,"Ġmenerapkan":4234,"Ġpajak":4235,"ka":4236,"hargaan":4237,"ajuan":4238,"lind":4239,"Ġmendaftar":4240,"Ġmenganggap":4241,"ĠPP":4242,"Ġpayudara":4243,"ĠSecara":4244,"ĠTV":4245,"Ġpadahal":4246,"ĠIl":4247,"Ġkenal":4248,"apus":4249,"16":4250,"Ġlumayan":4251,"Ġjerawat":4252,"wajib":4253,"evisi":4254,"Ġpelaksanaan":4255,"Ak":4256,"embuhkan":4257,"ĠSal":4258,"alanya":4259,"Ġgatal":4260,"ĠWakil":4261,"Ġlip":4262,"Ġdiet":4263,"ĠKet":4264,"ĠRi":4265,"ĠAmb":4266,"Ġmemasuki":4267,"EL":4268,"Ġaneh":4269,"Ġsesungguhnya":4270,"Ġpemilihan":4271,"Ġemosi":4272,"Ġ[âĢ¦]":4273,"Ġtegas":4274,"Ġno":4275,"auan":4276,"Ġresiko":4277,"epan":4278,"ular":4279,"tinggi":4280,"Ġmimpi":4281,"Ġtomb":4282,"Ġlembut":4283,"Ġcap":4284,"ĠTogel":4285,"Ġrekan":4286,"Ġberbentuk":4287,"Ġkepercayaan":4288,"Ġdo":4289,"Ġmenyus":4290,"anggih":4291,"indows":4292,"Ġpemuda":4293,"akkan":4294,"Ġsengaja":4295,"Ġmengec":4296,"arikan":4297,"ĠPart":4298,"Ġdek":4299,"Ġteh":4300,"Ġkompl":4301,"amaan":4302,"Ġunsur":4303,"Ġlevel":4304,"Ġmengganggu":4305,"ĠKen":4306,"Ġsebaliknya":4307,"pe":4308,"Ġpil":4309,"ĠPiala":4310,"ompet":4311,"juangan":4312,"hirnya":4313,"udut":4314,"Ġsetengah":4315,"Ġsungai":4316,"Ġnegatif":4317,"Ġsepenuh":4318,"edagang":4319,"Ġpsik":4320,"Ġbangun":4321,"ĠDKI":4322,"Ġkiri":4323,"ĠDPRD":4324,"Ġelektr":4325,"tama":4326,"ading":4327,"Ġsepertinya":4328,"za":4329,"Ġ22":4330,"artemen":4331,"Ġkari":4332,"Ġmantan":4333,"Ġtaman":4334,"ĠJuli":4335,"aruhan":4336,"ĠJokowi":4337,"Ġberkom":4338,"ĠHotel":4339,"Ġbertujuan":4340,"Ġciri":4341,"lash":4342,"Ġujung":4343,"alang":4344,"Selengkapnya":4345,"ĠJuni":4346,"kuat":4347,"Ġmenginginkan":4348,"ĠProgram":4349,"Ġminta":4350,"ĠMent":4351,"Ġpelatihan":4352,"Ġsol":4353,"Ġalamat":4354,"eritakan":4355,"umpang":4356,"IS":4357,"awal":4358,"Ġterang":4359,"Ġdidapatkan":4360,"Ð¾":4361,"ingkali":4362,"intah":4363,"Ġmens":4364,"Ġpenurunan":4365,"ĠMaret":4366,"Ġdiinginkan":4367,"lahan":4368,"ĠMeski":4369,"ĠSumat":4370,"Ġdel":4371,"umkan":4372,"ĠðŁ":4373,"Ġbibir":4374,"Ġgula":4375,"Ġkomentar":4376,"Ġsip":4377,"ĠUnit":4378,"Ġwasir":4379,"Ġdibuka":4380,"anji":4381,"antara":4382,"obi":4383,"Ġkain":4384,"portasi":4385,"Ġ2012":4386,"ĠSum":4387,"Ġmengakibatkan":4388,"Ġmenghubungi":4389,"ĠSekarang":4390,"jikan":4391,"Ġmengej":4392,"inter":4393,"Ġstatus":4394,"alih":4395,"13":4396,"terior":4397,"ĠBadan":4398,"OR":4399,"ĠPerusahaan":4400,"ĠNomor":4401,"Ġmenyi":4402,"Ġpemandangan":4403,"Ġdiperk":4404,"ood":4405,"elan":4406,"Ġkompetisi":4407,"Ġdapur":4408,"irakan":4409,"Ð°":4410,"Ġmenyerang":4411,"ĠFacebook":4412,"Ġrat":4413,"arif":4414,"Ġtelepon":4415,"ayaan":4416,"ĠBegitu":4417,"Ġgedung":4418,"200":4419,"Ġpengiriman":4420,"obal":4421,"upsi":4422,"ancang":4423,"olaan":4424,"Ġkontak":4425,"obet":4426,"?âĢĿ":4427,"Ġbud":4428,"Ġmembagi":4429,"ĠâĢĿ":4430,"olahan":4431,"Ġmemperk":4432,"Ġharinya":4433,"ĠWar":4434,"Ġur":4435,"ebak":4436,"osisi":4437,"II":4438,"ĠSerikat":4439,"ĠLe":4440,"KM":4441,"Ġpemula":4442,"Ġmengadakan":4443,"qu":4444,"ubung":4445,"UN":4446,"Ðµ":4447,"Ġmenekan":4448,"ach":4449,"emahan":4450,"ehe":4451,"Ġdist":4452,"jab":4453,"ĠSun":4454,"illah":4455,"Ġkertas":4456,"ĠApabila":4457,"Ġkimia":4458,"Ġkue":4459,"utrisi":4460,"udaya":4461,"Ġditambah":4462,"uaran":4463,"bola":4464,"Ġheran":4465,"indak":4466,"ihatan":4467,"Ġlancar":4468,"ĠMobil":4469,"Ġgaransi":4470,"Ġpemas":4471,"Ġtemukan":4472,"truksi":4473,"amar":4474,"ĠMuhammad":4475,"Ġenam":4476,"Ġrangka":4477,"Berikut":4478,"Ġrestoran":4479,"Ġdiab":4480,"Ġdetik":4481,"Ġmelindungi":4482,"Ġskor":4483,"go":4484,"Ġmemperbaiki":4485,"Ġbeserta":4486,"Ġdiantara":4487,"ribut":4488,"Ġvitamin":4489,"ingatan":4490,"Ġdiikuti":4491,"Ġberangkat":4492,"Ġdibagi":4493,"itor":4494,"Ġplas":4495,"ancis":4496,"Ġkolam":4497,"Ġdibanding":4498,"zin":4499,"Ġcanggih":4500,"operasi":4501,"Ġmengus":4502,"unggulan":4503,"Ġkomponen":4504,"acara":4505,"use":4506,"Ġco":4507,"dusen":4508,"Ġdisebutkan":4509,"emui":4510,"Ġurusan":4511,"ĠJalan":4512,"Ġkampus":4513,"Ġmasjid":4514,"estinasi":4515,"Ġmenonton":4516,"ajah":4517,"ĠEx":4518,"ĠOktober":4519,"Ġsekitarnya":4520,"sip":4521,"Ġditetapkan":4522,"Ġpedagang":4523,"Ġtuk":4524,"Ġkontrak":4525,"egawai":4526,"Ġ23":4527,"Ġperilaku":4528,"Ġera":4529,"Ġparah":4530,"Ġmaksud":4531,"Ġpandangan":4532,"Ġpendukung":4533,"Ġbahagia":4534,"uruhan":4535,"Ġmon":4536,"Ġmengal":4537,"Ġfakta":4538,"uruf":4539,"Ġpabrik":4540,"Ġmembersihkan":4541,"SM":4542,"Ġcaranya":4543,"ilu":4544,"Ġkreatif":4545,"Ġpraktis":4546,"ĠFr":4547,"inf":4548,"ps":4549,"epak":4550,"ĠMah":4551,"25":4552,"yal":4553,"ĠPantai":4554,"enanya":4555,"Ġcust":4556,"intar":4557,"ogor":4558,"Ġsens":4559,"Ġpetani":4560,"tore":4561,"Ġgrup":4562,"ambang":4563,"Ġpenerbangan":4564,"tung":4565,"Ġsign":4566,"ariwisata":4567,"Ġditulis":4568,"Ġhalus":4569,"Ġpermukaan":4570,"ĠAngk":4571,"ĠBandar":4572,"ite":4573,"Ġpuncak":4574,"Ġbawa":4575,"ucing":4576,"gunaan":4577,"Ġpasaran":4578,"unga":4579,"Ġsis":4580,"Ġminimalis":4581,"ĠJanuari":4582,"Ġrekening":4583,"\",":4584,"ora":4585,"bak":4586,"Ġdisampaikan":4587,"Ġketerangan":4588,"Ġberlebihan":4589,"Ġpemeriksaan":4590,"ĠRep":4591,"onik":4592,"Ġbeda":4593,"Ġlepas":4594,"Ġperd":4595,"ultas":4596,"Ġketidak":4597,"app":4598,"tember":4599,"ĠMuslim":4600,"waktu":4601,"uaskan":4602,"Ġdimanfaatkan":4603,"ashion":4604,"Ġni":4605,"Ġpolisi":4606,"Ġlampu":4607,"ĠAngg":4608,"Ġmempelajari":4609,"ontrol":4610,"Ġlebar":4611,",,":4612,"Ġprestasi":4613,"Ġsib":4614,"ome":4615,"kadang":4616,"ĠEm":4617,"Ġmenolak":4618,"entuh":4619,"Ġtanya":4620,"enterian":4621,"bobet":4622,"Ġsudut":4623,"pr":4624,"angit":4625,"Ġkenyamanan":4626,"18":4627,"set":4628,"Ġmenyiapkan":4629,"atangan":4630,"Ġpermintaan":4631,"Ġseputar":4632,"Ġterlibat":4633,"ĠGunung":4634,"endapat":4635,"amilan":4636,"oalan":4637,"Ġotot":4638,"Ġdiperhatikan":4639,"land":4640,"angkaian":4641,"entikan":4642,"ream":4643,"odoh":4644,"Ġforex":4645,"Ġdipercaya":4646,"anggup":4647,"Ġperang":4648,"Ġpenyedia":4649,"ahasan":4650,"audi":4651,"embatan":4652,"ĠSamsung":4653,"Ġpingg":4654,"Ġpeduli":4655,"ng":4656,"abar":4657,"Ġtuan":4658,"Ġtombol":4659,"Ġpaham":4660,"Ġobjek":4661,"Ġpromosi":4662,"isahkan":4663,"irian":4664,"tt":4665,"ĠNovember":4666,"word":4667,"ĠPan":4668,"UR":4669,"ucu":4670,"xy":4671,"ado":4672,"itmen":4673,"Ġkonv":4674,"ahanan":4675,"Ġpemenang":4676,"Ġsosok":4677,"Ġkeren":4678,"sed":4679,"Ġhany":4680,"Set":4681,"umpulan":4682,"Ġpengusaha":4683,"Ġkasino":4684,"irman":4685,"Ġdidukung":4686,"Ġhidupnya":4687,"ĠCity":4688,"Ġpelatih":4689,"Ġbicara":4690,"ĠLebih":4691,"atuan":4692,"Ġleg":4693,"ish":4694,"umbu":4695,"Ġefisi":4696,"Ġbeban":4697,"Ġpenghasilan":4698,"Ġcahaya":4699,"Ġtermurah":4700,"adem":4701,"Ġkerap":4702,"ĠInformasi":4703,"alin":4704,"Ġampuh":4705,"Ġpemahaman":4706,"de":4707,"Ġpencarian":4708,"Ia":4709,"Ġmenak":4710,"Ġmemakan":4711,"ering":4712,"Ġkira":4713,"Ġtransfer":4714,"Ġsepenuhnya":4715,"Ġlapak":4716,"Ġblogger":4717,"ĠPers":4718,"Ġpenghargaan":4719,"uy":4720,"Ġkepem":4721,"Ġpinj":4722,"PB":4723,"Ġtantangan":4724,"Ġmenilai":4725,"of":4726,"Ġlemah":4727,"irahat":4728,"Ġpostingan":4729,"timewa":4730,"Ġshar":4731,"Ġdoa":4732,"Mer":4733,"ĠHonda":4734,"Ġtransportasi":4735,"ejabat":4736,"Ġ=":4737,"Ġ08":4738,"vasi":4739,"Ġtertinggi":4740,"otan":4741,"ĠMulai":4742,"Ġdokumen":4743,"Ġcasino":4744,"ith":4745,"inga":4746,"Ġmemasang":4747,"ĠBek":4748,"Ġraja":4749,"ĠPap":4750,"ĠApril":4751,"Ġmenderita":4752,"Ġkemudahan":4753,"Ġvag":4754,"ĠMenteri":4755,"uhu":4756,"Ġbulu":4757,"Ġditentukan":4758,"ahter":4759,"ĠAC":4760,"Ġcel":4761,"Ġdestinasi":4762,"Ġkeberadaan":4763,"Ġmelah":4764,"Ġkeseluruhan":4765,"ĠJerman":4766,"ĠIns":4767,"ografi":4768,"Ġmeliputi":4769,"ĠMi":4770,"ne":4771,"Ġpembeli":4772,"lindungan":4773,"Ġreferensi":4774,"Ġdisel":4775,"Ġmedis":4776,"Ġkeindahan":4777,"Ġketingg":4778,"ling":4779,"ĠRasulullah":4780,"olat":4781,"ĠMedan":4782,"jian":4783,"Ġgelar":4784,"tual":4785,"45":4786,"ĠSumatera":4787,"Ġkebenaran":4788,"engarkan":4789,"Ġnet":4790,"ĠPes":4791,"Ġmewah":4792,"Ġmay":4793,"obot":4794,"okter":4795,"anye":4796,"ĠKons":4797,"Ġberpeng":4798,"ĠDemikian":4799,"Ø§":4800,"ero":4801,"Ġgar":4802,"uhkan":4803,"iar":4804,"Ġbaterai":4805,"Ġkaos":4806,"ĠWeb":4807,"ĠSemarang":4808,"ron":4809,"Ġsibuk":4810,"ikmat":4811,"Ġplat":4812,"ĠSekolah":4813,"ĠMemang":4814,"Ġsoftware":4815,"ĠArab":4816,"Ġreal":4817,"ĠJam":4818,"pen":4819,"ĠSudah":4820,"pert":4821,"lain":4822,"yaratan":4823,"Ġberpengaruh":4824,"ahl":4825,"Ke":4826,"Ġperjudian":4827,"Ġmemesan":4828,"Ġdijalan":4829,"irinya":4830,"ĠKali":4831,"els":4832,"enuhi":4833,"efin":4834,"Ġrelatif":4835,"Ġturut":4836,"Ġujian":4837,"ĠNg":4838,"tahun":4839,"elly":4840,"17":4841,"Ġtulang":4842,"Demikian":4843,"hasilan":4844,"Ġsuku":4845,"Ġkeg":4846,"apura":4847,"ĠBapak":4848,"Pr":4849,"awas":4850,"ĠBay":4851,"ĠInst":4852,"Ġhorm":4853,"Ġpendapatan":4854,"Ġmemuaskan":4855,"Ġkalimat":4856,"luan":4857,"Jangan":4858,"ĠCl":4859,"Ġpenyel":4860,"Ġmakna":4861,"endara":4862,"Ġ60":4863,"Ġdipastikan":4864,"Ġangin":4865,"Ġperform":4866,"Ġit":4867,"Ġpenasaran":4868,"ĠSeptember":4869,"Ġaliran":4870,"Ġpertimb":4871,"Ġmengangkat":4872,"ĠChina":4873,"Ġserupa":4874,"ĠUU":4875,"ĠMari":4876,"ĠMet":4877,"Ġbetul":4878,"Ġajang":4879,"hluk":4880,"yangkan":4881,"ĠAplikasi":4882,"ĠEd":4883,"Ġengk":4884,"Ġmelibatkan":4885,"ĠTempat":4886,"stem":4887,"Ġtata":4888,"Ġmempersiapkan":4889,"Ġjaman":4890,"siapan":4891,"vari":4892,"Ġmaaf":4893,"Ġbeliau":4894,"ĠSk":4895,"iu":4896,"Ġhanyalah":4897,"14":4898,"ugian":4899,"Ġdosa":4900,"Ġsore":4901,"esain":4902,"Ġpangg":4903,"ĠYo":4904,"ĠPusat":4905,"Ġcerd":4906,"Ġsir":4907,"Ġramai":4908,"Ġmendek":4909,"Apa":4910,"anch":4911,"Ġhuruf":4912,"reen":4913,"ĠNus":4914,"ãģ":4915,"Ġdisana":4916,"Ġtep":4917,"Ġtengg":4918,"Ġstruk":4919,"PI":4920,"Ġdihasilkan":4921,"Ġkm":4922,"enalkan":4923,"Ġperingkat":4924,"owongan":4925,"jawab":4926,"60":4927,"Ġkesan":4928,"Ġkeperluan":4929,"Tak":4930,"icu":4931,"//":4932,"ucapkan":4933,"Ġmempertahankan":4934,"AD":4935,"atau":4936,"kota":4937,"Ġpulsa":4938,"Ġdar":4939,"Ġberas":4940,"Ġmengakses":4941,"Ġbot":4942,"ĠInf":4943,"Ġbabak":4944,"Ġbesi":4945,"Ġde":4946,"Ar":4947,"alia":4948,"mm":4949,"ĠProf":4950,"Apakah":4951,"Ġprinsip":4952,"Ġpotongan":4953,"ĠMadrid":4954,"ĠKedua":4955,"TM":4956,"Ġbakar":4957,"Ġditerapkan":4958,"Ġcok":4959,"99":4960,"ikul":4961,"uncurkan":4962,"Ġmenahan":4963,"upan":4964,"Ġmengerjakan":4965,"akuan":4966,"angkal":4967,"Ġlulus":4968,"Ġkuliner":4969,"ĠSes":4970,"jah":4971,"Ġkucing":4972,"Ġsanggup":4973,"ĠTa":4974,"Mas":4975,"Ġkil":4976,"ĠMic":4977,"Ġialah":4978,"Ġwajar":4979,"Ġbiar":4980,"OL":4981,"ance":4982,"orial":4983,"urasi":4984,"bit":4985,"Ġpihaknya":4986,"Ġengkau":4987,"Ġdikonsumsi":4988,"80":4989,"Ġseru":4990,"Ġmencetak":4991,"ĠPC":4992,"hamdul":4993,"Ġdikel":4994,"pertimb":4995,"Ġmelahirkan":4996,"ĠBogor":4997,"Ġnutrisi":4998,"utaan":4999,"Ġkotak":5000,"tic":5001,"kes":5002,"ektor":5003,"awi":5004,"Ġkebaikan":5005,"Ġkomb":5006,"ĠCar":5007,"Ġseringkali":5008,"Ġ@":5009,"Ġberak":5010,"lebih":5011,"ologis":5012,"oper":5013,"ĠSebuah":5014,"ĠPenyakit":5015,"afe":5016,"Ġmerusak":5017,"aporkan":5018,"Ġir":5019,"Ġtun":5020,"rol":5021,"enom":5022,"Ġbuatan":5023,"Ġketentuan":5024,"ujuh":5025,"ĠDaftar":5026,",-":5027,"Ġseolah":5028,"ĠRaja":5029,"gin":5030,"PR":5031,"ambarkan":5032,"Ġsat":5033,"Ġjabatan":5034,"udd":5035,"Si":5036,"Ġdikembangkan":5037,"Ġ27":5038,"Ġpenip":5039,"enyum":5040,"Ġtrik":5041,"ĠCo":5042,"amatkan":5043,"Ġpenyimp":5044,"ĠYah":5045,"Ġtepatnya":5046,"Ġlho":5047,"Ġrahasia":5048,"etulan":5049,"Ġpemasaran":5050,"Ġgraf":5051,"be":5052,"atanya":5053,"itia":5054,"Ġberbuat":5055,"Ġpembahasan":5056,"ĠPertama":5057,"utasi":5058,"Kep":5059,"Ġmental":5060,"Ġpemberian":5061,"Ġcairan":5062,"Ġ:)":5063,"Ġratusan":5064,"ajat":5065,"Ġdimas":5066,"Ġmembel":5067,"Mungkin":5068,"oreng":5069,"arm":5070,"Ġpuluhan":5071,"Ġmaterial":5072,"Ġdimin":5073,"ĠiP":5074,"irmasi":5075,"Ġrapat":5076,"ĠPil":5077,"Itulah":5078,"izi":5079,"aa":5080,"dr":5081,"gar":5082,"Sed":5083,"ĠÂ":5084,"UL":5085,"idana":5086,"Ġkekalahan":5087,"Ġmenguasai":5088,"Ġmurid":5089,"put":5090,"ĠLap":5091,"aluasi":5092,"ĠSej":5093,"Ġben":5094,"pertimbangkan":5095,"Ġteratur":5096,"alikan":5097,"Ġmelepas":5098,"ear":5099,"wakilan":5100,"TP":5101,"awar":5102,"Ġtelevisi":5103,"Ġentah":5104,"Ġmemperc":5105,"engkapan":5106,"Ġpuasa":5107,"ĠBatu":5108,"embuny":5109,"Ġmi":5110,"Ġmemin":5111,"ĠPartai":5112,"Ġkirim":5113,"Ġbed":5114,"Ġed":5115,"Ġstab":5116,"orl":5117,"ĠKan":5118,"ĠBuk":5119,"lien":5120,"Ġbarat":5121,"Ġlar":5122,"Ġsembuh":5123,"ree":5124,"Ġgelap":5125,"ajin":5126,"Ġback":5127,"Ġ2010":5128,"Ġpersoalan":5129,"Ġmuka":5130,"ubur":5131,"ĠAdapun":5132,"Ġeksp":5133,"Ġakr":5134,"Ġenggak":5135,"Ġprediksi":5136,"ogja":5137,"Ġtidaklah":5138,"anyi":5139,"Ġkeunggulan":5140,"Ġstruktur":5141,"Ġizin":5142,"asannya":5143,"Ġkehad":5144,"Ġsekian":5145,"Kamu":5146,"Ġserver":5147,"imakasih":5148,"Ġmu":5149,"anyol":5150,"Ġakurat":5151,"ĠDom":5152,"otik":5153,"omendasi":5154,"ĠJasa":5155,"umpul":5156,"Ġgoogle":5157,"Ġta":5158,"Ġprodusen":5159,"Ġlomba":5160,"Ġmarah":5161,"GB":5162,"jur":5163,"Ùİ":5164,"Ġinternal":5165,"ĠTerbaik":5166,"ĠTerpercaya":5167,"Ġsignif":5168,"Ġplay":5169,"Ġlun":5170,"Ġprovinsi":5171,"Ġmengingatkan":5172,"uw":5173,"Ġmemproduksi":5174,"ĠKris":5175,"Ġdibilang":5176,"Ġpi":5177,"Ġperintah":5178,"Ġpus":5179,"Ġtutup":5180,"Ġsewa":5181,"Ġcm":5182,"://":5183,"Ġteg":5184,"Ġdomain":5185,"unggal":5186,"eluarga":5187,"Ġkewajib":5188,"jaya":5189,"Ġperjuangan":5190,"ĠKerja":5191,"Ġ2011":5192,"Ġslot":5193,"kom":5194,"po":5195,"mar":5196,"ĠWanita":5197,"ĠGam":5198,"amen":5199,"Ġberperan":5200,"Ġteori":5201,"embalikan":5202,"Ġ28":5203,"ampi":5204,"Ġris":5205,"Ġpresiden":5206,"Ġpasir":5207,"Ġmenempatkan":5208,"Ġkosong":5209,"ĠBarang":5210,"ran":5211,"yam":5212,"Ġmengab":5213,"Ġperbaikan":5214,"Ġsant":5215,"Ġwakil":5216,"ĠTern":5217,"Ġmengakui":5218,"Ġpanduan":5219,"Ġkrim":5220,"Ġcerdas":5221,"ĠKamis":5222,"Ġdosen":5223,"Ġpengelolaan":5224,"Ġpokok":5225,"ĠRusia":5226,"yan":5227,"Ġpecinta":5228,"Ġmakhluk":5229,"aju":5230,"Ġpertanian":5231,"la":5232,"Ġpasang":5233,"ader":5234,"Ġharta":5235,"Ġkaca":5236,"Ġsamb":5237,"ĠDapat":5238,"ĠPur":5239,"ĠPria":5240,"Ġsignifikan":5241,"Ya":5242,"Ġmemikirkan":5243,"sb":5244,"Ġcustomer":5245,"Ġgas":5246,"Ġpinjaman":5247,"Ġdigelar":5248,"Ġcamp":5249,"Ġplastik":5250,"truktur":5251,"Ġ+":5252,"isinya":5253,"anam":5254,"Ġseber":5255,"Ġkerugian":5256,"otensi":5257,"Ġpenumpang":5258,"eum":5259,"ĠStr":5260,"Ġsaran":5261,"Ġribuan":5262,"Ġmerawat":5263,"Ġradi":5264,"Ġpenggemar":5265,"akaran":5266,"Ġabad":5267,"%.":5268,"adai":5269,"Ġaktifitas":5270,"Ġpip":5271,"irah":5272,"egaskan":5273,"ĠBlog":5274,"iss":5275,"Ġpernyataan":5276,"Mel":5277,"ĠKomisi":5278,"ime":5279,"Ġmembunuh":5280,"Ġberkel":5281,"ĠReal":5282,"Ġperhatikan":5283,"ĠTerbaru":5284,"IK":5285,"Ġbayar":5286,"ĠTanpa":5287,"idi":5288,"ĠMinggu":5289,"iliun":5290,"Ġdialami":5291,"Ġtubuhnya":5292,"untung":5293,"ekali":5294,"Ġsuam":5295,"Ġmemat":5296,"Ġketat":5297,"ote":5298,"âĢĵ":5299,"Ġmengumpulkan":5300,"ĠBal":5301,"rang":5302,"ĠPermainan":5303,"ĠJumat":5304,"Ġperoleh":5305,"Ġulama":5306,"Ġstaf":5307,"ĠMahasiswa":5308,"Ġpengan":5309,"Ġlo":5310,"Ġkecantikan":5311,"entuhan":5312,"ĠKomp":5313,"Ġkombinasi":5314,"Ġpersyaratan":5315,"Ġmenyembuhkan":5316,"Ġpemikiran":5317,"ebruari":5318,"ĠUN":5319,"Ġupdate":5320,"Ġbettor":5321,"ĠRabu":5322,"Ġraya":5323,"jen":5324,"Ġvia":5325,"ĠPar":5326,"ĠAgar":5327,"Ġdikeluarkan":5328,"ĠSenin":5329,"hitungan":5330,"Ġperlindungan":5331,"Ġdiadakan":5332,"Ġhemat":5333,"Ġglobal":5334,"Ġpejabat":5335,"Ġinves":5336,"amai":5337,"Ġet":5338,"Ġpark":5339,"aket":5340,"emas":5341,"Ġcabang":5342,"ĠJuga":5343,"bel":5344,"witter":5345,"utuh":5346,"Ġcita":5347,"Ġkemajuan":5348,"utip":5349,"Ġsekalipun":5350,"wanya":5351,"laim":5352,"elis":5353,"ĠBo":5354,"aktunya":5355,"24":5356,"Ġpintar":5357,"ĠPh":5358,"Ġtujuh":5359,"Ġkelah":5360,"inary":5361,"Ġkarna":5362,"ile":5363,"Ġjag":5364,"Ġhp":5365,"Ġperkara":5366,"Ġbrand":5367,"ĠKementerian":5368,"Ġmasakan":5369,"Ġekstr":5370,"untuk":5371,"arkoba":5372,"Ġtut":5373,"ech":5374,"ĠPS":5375,"Ġbersaing":5376,"ĠKur":5377,"ĠAustr":5378,"Ġdiaj":5379,"ributor":5380,"ukah":5381,"ajikan":5382,"Ð¸":5383,"Ġgitu":5384,"ataan":5385,"Ġkonsult":5386,"Ġkehamilan":5387,"ony":5388,"ĠUnited":5389,"Ġpetunjuk":5390,"Ġpentingnya":5391,"Ġbutuhkan":5392,"--":5393,"21":5394,"Ġgaji":5395,"Ġki":5396,"illa":5397,"uaca":5398,"umumkan":5399,"Ġtravel":5400,"Ġgamb":5401,"wang":5402,"tian":5403,"ĠID":5404,"Ġpegawai":5405,"anjian":5406,"ED":5407,"Ġdisert":5408,"Ġmengajar":5409,"onj":5410,"Ġmisi":5411,"Ġterjun":5412,"Ġtunggu":5413,"Ġambeien":5414,"ombang":5415,"Ġbetapa":5416,"Ġsebut":5417,"ripsi":5418,"Ġmencintai":5419,"Ġnyeri":5420,"Ġpersiapan":5421,"ĠRak":5422,"ĠKas":5423,"Ġpam":5424,"ulusan":5425,"odi":5426,"Ġpenyelengg":5427,"ĠSuk":5428,"Ġstrategis":5429,"Ġbiru":5430,"Ġadik":5431,"Ġmengelola":5432,"ĠJu":5433,"ĠPasal":5434,"yukur":5435,"Ġkalinya":5436,"ĠTrans":5437,"idat":5438,"Ġtimur":5439,"Ġmenceritakan":5440,"Ġstasiun":5441,"eam":5442,"adangan":5443,"hamdulillah":5444,"Ġdiabetes":5445,"Ġtur":5446,"aplikasikan":5447,"Ġshalat":5448,"Ġ2019":5449,"Ġmengirimkan":5450,"oman":5451,"ĠSelama":5452,"ĠSistem":5453,"iro":5454,"Ġberharga":5455,"mudah":5456,"Ġmerk":5457,"Ġsenj":5458,"Ġcac":5459,"Ġmenginap":5460,"wasta":5461,"Ġtipis":5462,"ĠTujuan":5463,"Ġorangtua":5464,"Ġidentitas":5465,"ĠSw":5466,"Ġjadikan":5467,"mana":5468,"Ġsapi":5469,"Ġpesta":5470,"Ġsisa":5471,"ĠWindows":5472,"uasan":5473,"23":5474,"iaomi":5475,"olos":5476,"ras":5477,"agar":5478,"Ġterbentuk":5479,"okrasi":5480,"Ġpalsu":5481,"Ġsimak":5482,"bum":5483,"Ġmemegang":5484,"Ġhiburan":5485,"Ġkepadanya":5486,"inggris":5487,"emuk":5488,"Ġsuhu":5489,"Ġtangk":5490,"Ġminat":5491,"AP":5492,"antang":5493,"urahan":5494,"Ġwaktunya":5495,"Ġpengertian":5496,"ayangnya":5497,"ĠSelasa":5498,"uler":5499,"adaran":5500,"Ġtarik":5501,"Ġbac":5502,"Ġberpengalaman":5503,"agn":5504,"Ġsurv":5505,"onor":5506,"ĠPapua":5507,"Ġniat":5508,"Ġpindah":5509,"Produk":5510,"olar":5511,"Ġselaku":5512,"iakan":5513,"ĠTentunya":5514,"Ġdirasakan":5515,"AW":5516,"ĠRo":5517,"MI":5518,"ĠRed":5519,"ĠWah":5520,"ĠKPU":5521,"umahan":5522,"Ġberdua":5523,"Ġkerjasama":5524,"Ġpenonton":5525,"angkut":5526,"Ġmainkan":5527,"arahan":5528,"anjung":5529,"Ġlubang":5530,"ĠSub":5531,"ĠPasalnya":5532,"Ġnih":5533,"Ġ500":5534,"ĠSang":5535,"Ġlintas":5536,"Ġmenjamin":5537,"Ind":5538,"Ġkolom":5539,"ĠBekasi":5540,"Ġjaminan":5541,"Ġmotivasi":5542,"amah":5543,"Ġmengant":5544,"aysia":5545,"Ġ2009":5546,"âĢĶ":5547,"Ġ26":5548,"Ġrumahnya":5549,"Ġmatang":5550,"Ġsesi":5551,"negara":5552,"Ġpeman":5553,"Ġlapisan":5554,"akup":5555,"ement":5556,"entrasi":5557,"Ġsm":5558,"Ġaset":5559,"Ġkunjungi":5560,"ĠApp":5561,"Ġfot":5562,"arak":5563,"ĠMul":5564,"Ġmalu":5565,"ĠNur":5566,"tan":5567,"Ġtutur":5568,"Ġkelapa":5569,"ake":5570,"Setiap":5571,"Ġurut":5572,"Ġdisertai":5573,"ĠWalaupun":5574,"Ġkawan":5575,"araf":5576,"ĠIlmu":5577,"eck":5578,"eher":5579,"Ġhtt":5580,"alas":5581,"Ġideal":5582,"ewek":5583,"impulan":5584,"Ġpapan":5585,"Ġinggris":5586,"Ġtersenyum":5587,"ĠMasyarakat":5588,"Ġbencana":5589,"Ġantaranya":5590,"alo":5591,"Ġmadu":5592,"elek":5593,"Ġpenawaran":5594,"ĠSabtu":5595,"tip":5596,"son":5597,"Ġpertimbangan":5598,"Ġsinar":5599,"Ġkatakan":5600,"ĠKa":5601,"âĢ¦.":5602,"Ġkeker":5603,"ĠAbu":5604,"Ġpis":5605,"Ġkewajiban":5606,"Ġmengganti":5607,"Ġlangit":5608,"Ġdiny":5609,"atangkan":5610,"KP":5611,"Ġketua":5612,"Ġgereja":5613,"ĠNama":5614,"encanakan":5615,"Ġbatik":5616,"rig":5617,"angkutan":5618,"ĠAkhirnya":5619,"Harga":5620,"fr":5621,"indar":5622,"Ġmotif":5623,"ĠHy":5624,"Ġpemakaian":5625,"itual":5626,"Ġroda":5627,"Ġ80":5628,"Ġsenjata":5629,"Ġwah":5630,"ĠBe":5631,"Ġketerampilan":5632,"pot":5633,"Ġundangan":5634,"Ġberedar":5635,"Ġnov":5636,"Ġditutup":5637,"ÑĤ":5638,"Ġbervari":5639,"anggar":5640,"ĠSeg":5641,"Ġkorupsi":5642,"ĠSpanyol":5643,"ĠBet":5644,"Ġmemberit":5645,"ĠIndia":5646,"Ġdisesuaikan":5647,"ugikan":5648,"Ġplatform":5649,"Ġevent":5650,"Ġdijelaskan":5651,"Ġunggul":5652,"Ġklien":5653,"Ġgolongan":5654,"tein":5655,"ÙĦ":5656,"ĠKol":5657,"dapat":5658,"Ġdinilai":5659,"Ġmeyak":5660,"Ġkala":5661,"utang":5662,"Ġtriliun":5663,"Ġrespon":5664,"ĠBesar":5665,"ematika":5666,"ĠInternet":5667,"ĠSelanjutnya":5668,"ĠAri":5669,"Ġkac":5670,"Ġmenyesuaikan":5671,"Ġsosi":5672,"Ġmenegaskan":5673,"ĠPa":5674,"ĠBlack":5675,"Ġkenaikan":5676,"Obat":5677,"Ġperlahan":5678,"Ġfashion":5679,"sal":5680,"ulah":5681,"masalah":5682,"hats":5683,"Ġmenyak":5684,"ilaian":5685,"Ġdikunjungi":5686,"ĠHam":5687,"Ġberukuran":5688,"Ġletak":5689,"asiswa":5690,"ĠSeri":5691,"Ġpantas":5692,"ĠDe":5693,"adhan":5694,"eral":5695,"ĠBaik":5696,"elakaan":5697,"Ġmenangis":5698,"ĠRah":5699,"Ġbapak":5700,"ĠDik":5701,"kita":5702,"barang":5703,"Ġartis":5704,"22":5705,"Ġsetia":5706,"Ġcuaca":5707,"nu":5708,"Ġisu":5709,"Ġmemandang":5710,"Ġopsi":5711,"ĠJaya":5712,"Ġkarenanya":5713,"ergi":5714,"ĠFakultas":5715,"ten":5716,"Ol":5717,"Ġsesama":5718,"alaxy":5719,"elahan":5720,"Ġperforma":5721,"Ġnak":5722,"titusi":5723,"ence":5724,"ĠItal":5725,"udayaan":5726,"gag":5727,"Ġkoneksi":5728,"irik":5729,"Ġsantai":5730,"ĠIk":5731,"Ġketur":5732,"Ġpenyimpanan":5733,"Ġprop":5734,"ĠTernyata":5735,"ï¿½ï¿½":5736,"ĠPo":5737,"acu":5738,"sihan":5739,"Ġjelasnya":5740,"CA":5741,"ombok":5742,"Ġterdaftar":5743,"Ġrenang":5744,"ody":5745,"caman":5746,"zi":5747,"ĠRaya":5748,"Ġmenggunakannya":5749,"roup":5750,"Ġbersamaan":5751,"ĠGuru":5752,"ĠLem":5753,"Ġsampaikan":5754,"Ġbatang":5755,"Ġmendengarkan":5756,"Ġha":5757,"Ġlatar":5758,"ĠSar":5759,"Ġpatut":5760,"idan":5761,"Ġgizi":5762,"yakinan":5763,"Ġvagina":5764,"tanya":5765,"injal":5766,"IT":5767,"Ġinterior":5768,"Ġkonsisten":5769,"Ġgadget":5770,"produk":5771,"Ġbermin":5772,"Ġ*":5773,"ĠLi":5774,"out":5775,"sedur":5776,"Ġuji":5777,"odo":5778,"Ġkecewa":5779,"Ġbuang":5780,"ĠAll":5781,"upuk":5782,"ose":5783,"Ġmor":5784,"Ġterdekat":5785,"owo":5786,"ekar":5787,"ĠSampai":5788,"ĠRepublik":5789,"Para":5790,"ĠHukum":5791,"antau":5792,"Ġdiminta":5793,"eni":5794,"Ġterbilang":5795,"Ġkelahiran":5796,"Ġelektronik":5797,"iskin":5798,"Ġterdengar":5799,"ĠFebruari":5800,"Ġpenipuan":5801,"SD":5802,"ajaan":5803,"Ġkampung":5804,".,":5805,"Ġservice":5806,"atim":5807,"Ġseberapa":5808,"Ġsetu":5809,"encanaan":5810,"ĠTeknik":5811,"Ġmengalahkan":5812,"besar":5813,"ĠSebagian":5814,"ahatan":5815,"Ġdiser":5816,"Ġfacebook":5817,"Ġmemasukkan":5818,"Ġmenyebar":5819,"ĠTas":5820,"lihatkan":5821,"Ġsekalian":5822,"ĠUp":5823,"Ġflash":5824,"Ġlambat":5825,"Ġmenghadirkan":5826,"ĠKor":5827,"ĠData":5828,"ĠPEN":5829,"elenggarakan":5830,"ulauan":5831,"oss":5832,"etakan":5833,"ĠSebenarnya":5834,"40":5835,"inci":5836,"Ġmomen":5837,"antaran":5838,"awesi":5839,"Ġkelihatan":5840,"Ġseiring":5841,"angku":5842,"ĠTerima":5843,"trans":5844,"Ġdu":5845,"endela":5846,"Ġsejauh":5847,"ĠBisnis":5848,"Ġkehadiran":5849,"Ġkampanye":5850,"Ġdiduga":5851,"Ġberjuang":5852,"Ġakal":5853,"Ġbiji":5854,"Ġkadar":5855,"500":5856,"Ġsabar":5857,"Ġjutaan":5858,"Ġmenger":5859,"Ġteknis":5860,"ĠInilah":5861,"Ġmengenakan":5862,"antiasa":5863,"Ġberjudul":5864,"Ġkag":5865,"Ġdat":5866,"Ġikuti":5867,"ĠDimana":5868,"Ġkoleksi":5869,"ahabat":5870,"anchester":5871,"Ġanalisis":5872,"esa":5873,"ĠSat":5874,"Pas":5875,"Ġjurusan":5876,"empa":5877,"Ġmenetapkan":5878,"ĠBBM":5879,"Ġproperti":5880,"Ġterpilih":5881,"sus":5882,"embuhan":5883,"Ġbrow":5884,"ajian":5885,"Ġ90":5886,"ĠHer":5887,"oner":5888,"ĠKata":5889,"Ġbau":5890,"ahnya":5891,"Ġdidik":5892,"Ġformat":5893,"Ġkedalam":5894,"Ġterpenting":5895,"angerang":5896,"Ġdidalamnya":5897,"Semua":5898,"Ġhobi":5899,"Ġgw":5900,"imantan":5901,"ĠTinggi":5902,"sc":5903,"ĠSelamat":5904,"ume":5905,"apt":5906,"Ġbotol":5907,"Ġdeb":5908,"sul":5909,"esta":5910,"Ġpuluh":5911,"Ġputri":5912,"ĠPlay":5913,"Ġpeneliti":5914,"ĠSuper":5915,"ĠItalia":5916,"Ġkuning":5917,"Ġanj":5918,"Ġbertaruh":5919,"Ġistimewa":5920,"ancurkan":5921,"Ġmemasak":5922,"Ġmake":5923,"Ġrekomendasi":5924,"iranya":5925,"Ġarus":5926,"ĠSW":5927,"oks":5928,"ĠKu":5929,"ĠToko":5930,"Ġterjamin":5931,"Ġinovasi":5932,"Ġakadem":5933,"Ġtersangka":5934,"Ġleher":5935,"resiasi":5936,"Ġfit":5937,"ekaan":5938,"Ġmassa":5939,"ĠMaj":5940,"Ġrasakan":5941,"Ġjembatan":5942,"Ġpimpinan":5943,"Ġtergolong":5944,"ight":5945,"imbol":5946,"Ġsenantiasa":5947,"Ġmengajukan":5948,"ambahan":5949,"utihan":5950,"unjukkan":5951,"Ġselatan":5952,"Ġmemori":5953,"Ġkhasiat":5954,"ezat":5955,"Ġpelajar":5956,"Ġkekuasaan":5957,".[":5958,"ĠMalaysia":5959,"Ġtersebar":5960,"anjar":5961,"Ġoptimal":5962,"Ġri":5963,"Ġmenengah":5964,"ĠDI":5965,"ĠItulah":5966,"Ġterbang":5967,"lemen":5968,"ĠAustralia":5969,"ĠPet":5970,"Ġdicari":5971,"Ġmandiri":5972,"alog":5973,"Ġ197":5974,"Ġmencakup":5975,"Ġtand":5976,"ĠIT":5977,"isikan":5978,"Ġrapi":5979,"Ġperhitungan":5980,"ĠBas":5981,"Ġjamur":5982,"Ġsuci":5983,"ĠTaman":5984,"Ġdiskusi":5985,"celona":5986,"ĠFor":5987,"Ġdidirikan":5988,"ĠWid":5989,"lakukan":5990,"Ġdirilis":5991,"erahan":5992,"Ġvarian":5993,"onf":5994,"ĠBag":5995,"meng":5996,"Ġtebal":5997,"ĠMotor":5998,"ahagia":5999,"tidak":6000,"Ġdiar":6001,"ĠBand":6002,"ĠKab":6003,"Ġistr":6004,"Ġsaksi":6005,"Ġant":6006,"ning":6007,"itanya":6008,"Ġterjaga":6009,"Ġsepakbola":6010,"antian":6011,"Ġmenyambut":6012,"str":6013,"urnal":6014,"yi":6015,"Ġmemeriksa":6016,"Dis":6017,"Ġsentuhan":6018,"Ġkesadaran":6019,"ulir":6020,"Ġkayak":6021,"uksesan":6022,"UD":6023,"ype":6024,"Ġcampuran":6025,"Ġberkurang":6026,"Oleh":6027,"Ð½":6028,"Ġdiselenggarakan":6029,"Ġpariwisata":6030,"Ġmenangani":6031,"ift":6032,"omod":6033,"UH":6034,"alangan":6035,"eed":6036,"Ġlunak":6037,"Ġibunya":6038,"ven":6039,"Ġkeluarganya":6040,"igh":6041,"ĠPL":6042,"ĠTur":6043,"Ġ70":6044,"imaan":6045,"ĠMana":6046,"Ġdilanjutkan":6047,"ĠGame":6048,"Ġefisien":6049,"Ġkecelakaan":6050,"ĠDen":6051,"anjikan":6052,"andu":6053,"Ġep":6054,"ĠInstagram":6055,"Ġginjal":6056,"Ġdisarankan":6057,"Ġdiatur":6058,"umpai":6059,"Ġpembicara":6060,"ĠWisata":6061,"Ġmemimpin":6062,"Ġkey":6063,"Ġbercerita":6064,"Ġlidah":6065,"Ġmiliter":6066,"Ġatap":6067,"Ġmenyarankan":6068,"ĠAli":6069,"Ġom":6070,"jar":6071,"Ġkeberhasilan":6072,"Ġancaman":6073,"Ġstabil":6074,"Ġpesanan":6075,"Ked":6076,"Ġinvestor":6077,"ĠSEO":6078,"Ġmengucapkan":6079,"Ġdrama":6080,"YA":6081,"ĠIsra":6082,"Ġjep":6083,"ampaknya":6084,"hy":6085,"PNS":6086,"ordinasi":6087,"Ġbersangkutan":6088,"Ġkabel":6089,"roses":6090,"ubungkan":6091,"Ġberkat":6092,"Ġkarir":6093,"Ġmenyajikan":6094,"Ġ198":6095,"Ġsayuran":6096,"ĠFl":6097,"ĠKenapa":6098,"Meskipun":6099,"ĠMengapa":6100,"Ġsemata":6101,"so":6102,"Ġsholat":6103,"Ġseny":6104,"Ġatlet":6105,"Ġgambaran":6106,"ĠJenis":6107,"Ġpengen":6108,"Ġpemasangan":6109,"Ġ29":6110,"sen":6111,"ĠManchester":6112,"ĠEr":6113,"Ġsetuju":6114,"iasa":6115,"Ġwalau":6116,"asir":6117,"Kes":6118,"Kemudian":6119,"ÂŃ":6120,"Ġperguruan":6121,"miah":6122,"ĠiPhone":6123,"Ġpub":6124,"walnya":6125,"ancing":6126,"Ġlucu":6127,"Ġmenular":6128,"Ġmengalir":6129,"elompok":6130,"kada":6131,"ĠSulawesi":6132,"Ġsing":6133,"Ġvisi":6134,"mail":6135,"Ġajaran":6136,"ĠSingapura":6137,"Bagaimana":6138,"ĠTok":6139,"Ġdisajikan":6140,"Ġsinyal":6141,"oles":6142,"Ġsop":6143,"assar":6144,"atap":6145,"ĠJo":6146,"esif":6147,"etap":6148,"bahan":6149,"Ġtelinga":6150,"enomena":6151,"ĠBu":6152,"Ġtol":6153,"Ġputra":6154,"Ġbangga":6155,"pan":6156,"Ġtutorial":6157,"ĠWaktu":6158,"yanya":6159,"ĠGalaxy":6160,"ĠSeorang":6161,"Ġbasah":6162,"Maka":6163,"ĠAgung":6164,"Ġketurunan":6165,"ÑĢ":6166,"ilas":6167,"Ġsiapapun":6168,".(":6169,"aktif":6170,"ouc":6171,"anganan":6172,"ĠKeuangan":6173,"Ġmeres":6174,"ĠJogja":6175,"opy":6176,"Ġbersyukur":6177,"ĠGB":6178,"Ġjujur":6179,"omm":6180,"Ġtopik":6181,"Ġmempermudah":6182,"egr":6183,"Pel":6184,"Ġberdampak":6185,"amaha":6186,"Ġmenel":6187,"ayat":6188,"Ġpanggilan":6189,"ĠXiaomi":6190,"Ġmusuh":6191,"tempat":6192,"Ġmitra":6193,"Ġbertindak":6194,"Ġbengk":6195,"ansir":6196,"Ġru":6197,"udukan":6198,"Ġperek":6199,"antum":6200,"Ġsasaran":6201,"orld":6202,"Ġlelah":6203,"Ġcelana":6204,"gian":6205,"Ġmiskin":6206,"Ġmewujudkan":6207,"Ġlezat":6208,"Ġselera":6209,"Ġsipilis":6210,"Ġkomitmen":6211,"Ġpeg":6212,"Ġmemaks":6213,"ediaan":6214,"OB":6215,"Ġpandang":6216,"Ġberhati":6217,"elihara":6218,"Ġvol":6219,"ikator":6220,"ĠProses":6221,"Ġmenyaksikan":6222,"eki":6223,"adis":6224,"COM":6225,"Ġmengonsumsi":6226,"ĠTaruhan":6227,"Ġbo":6228,"Ġungkap":6229,"Ġkandang":6230,"erifikasi":6231,"ĠMP":6232,"ider":6233,"adari":6234,"Ġsarapan":6235,"ĠLakukan":6236,"ĠArtinya":6237,"ĠKegiatan":6238,"Ġâ":6239,"adik":6240,"NE":6241,"ym":6242,"Meski":6243,"Ġprotein":6244,"ĠSangat":6245,"Ġayahnya":6246,"Ġpengaturan":6247,"Ġbeg":6248,"Ġsystem":6249,"Ġpendekatan":6250,"ĠSip":6251,"ĠTu":6252,"isar":6253,"batasan":6254,"Ġdinyatakan":6255,"ĠRS":6256,"ĠRiau":6257,"Ġnampak":6258,"bankan":6259,"ancur":6260,"tawa":6261,"kali":6262,"Ġkonvensi":6263,"ĠSya":6264,"ature":6265,"oyota":6266,"OP":6267,"Ġtrend":6268,"ektif":6269,"ĠSejak":6270,"Ġkejahatan":6271,"ujian":6272,"Ġmembedakan":6273,"Ġtampaknya":6274,"ĠSMS":6275,"ĠBant":6276,"ĠDua":6277,"Ġvis":6278,"Ġimpian":6279,"UT":6280,"ayangan":6281,"Ġkew":6282,"uto":6283,"Ġmenyes":6284,"Ġ2008":6285,"andainya":6286,"Ġditampilkan":6287,"Ġyah":6288,"Ġganti":6289,"sis":6290,"Ġlelaki":6291,"Sedangkan":6292,"indahkan":6293,"enek":6294,"Ġprosedur":6295,"ich":6296,"ĠUM":6297,"Ġ35":6298,"Ġwww":6299,"Ġcerah":6300,"Ġmembiarkan":6301,"iture":6302,"ler":6303,"Ġfin":6304,"Ġdipert":6305,"ĠMurah":6306,"Ġperingatan":6307,"ĠPasar":6308,"Ġsetahun":6309,"Mereka":6310,"Ġpengin":6311,"baca":6312,"Ġuniversitas":6313,"agukan":6314,"ike":6315,"Ġsuaminya":6316,"Ġparkir":6317,"Ġrangkaian":6318,"Ġfurn":6319,"ĠASI":6320,"Ġpasal":6321,"Ġberdoa":6322,"Ġtertutup":6323,"Ġmembagikan":6324,"ĠPD":6325,"ĠBitcoin":6326,"Ġkis":6327,"lasi":6328,"Ġnovel":6329,"Ġ32":6330,"Ġkerajaan":6331,"edera":6332,"Ġadat":6333,"Ġdijalankan":6334,"Ġmohon":6335,"Ġseminggu":6336,"iraan":6337,"Ġfinal":6338,"akangan":6339,"Ġmenjelang":6340,"iteria":6341,"ĠSemakin":6342,"etail":6343,"ĠDem":6344,"ĠSMK":6345,"Ġkecamatan":6346,"Ġswasta":6347,"ĠKalimantan":6348,"Ġkebersihan":6349,"ĠTanah":6350,"ĠPemilihan":6351,"MA":6352,"gerakan":6353,"Ġberin":6354,"Ġberkomunikasi":6355,"osk":6356,"Ġdiciptakan":6357,"ĠTengg":6358,"angkatan":6359,"alikota":6360,"Ġmenuntut":6361,"IV":6362,"ĠAhmad":6363,"ĠPat":6364,"ĠIst":6365,"Ġdikerjakan":6366,"Ġberhak":6367,"ĠSup":6368,"Ġongk":6369,"Ġnikmat":6370,"Ġpadat":6371,"ĠKhusus":6372,"bet":6373,"macam":6374,"endam":6375,"indu":6376,"Ġhubungi":6377,"icarakan":6378,"obalah":6379,"Sebelumnya":6380,"Ġprot":6381,"Ġdibayar":6382,"Ġbahaya":6383,"Ġpe":6384,"ĠBagian":6385,"peng":6386,"Ġdisukai":6387,"ĠLombok":6388,"ĠDewan":6389,"Ġdipenuhi":6390,"Ġkakak":6391,"âĢĻ.":6392,"Ġbroker":6393,"awali":6394,"Ġtumbuhan":6395,"Ġsedih":6396,"ĠØ":6397,"ripsikan":6398,"Ġlayaknya":6399,"ĠIS":6400,"Ġjendela":6401,"Ġdikenakan":6402,"Ġelemen":6403,"uruk":6404,"ĠKi":6405,"way":6406,"ĠKantor":6407,"ational":6408,"ary":6409,"Ġkitab":6410,"Ġpenilaian":6411,"Ġnarkoba":6412,"ambu":6413,"ĠBuat":6414,"ebasan":6415,"Ġmembah":6416,"ĠIII":6417,"Ġori":6418,"Ġtaj":6419,"Bila":6420,"ustakaan":6421,"Ġtunggal":6422,"Ġtarif":6423,"olisian":6424,"pem":6425,"Ġmekan":6426,"Ġalbum":6427,"unggung":6428,"ecil":6429,"awanan":6430,"ĠJoh":6431,"Ġkian":6432,"Ġhatinya":6433,"Ġkeluhan":6434,"Ġharap":6435,"Ñģ":6436,"Ġcar":6437,"Ġemp":6438,"Ġsupport":6439,"ĠRAM":6440,"Ġkond":6441,"linya":6442,"Ġcewek":6443,"Sebenarnya":6444,"ins":6445,"ahap":6446,"Ġterpisah":6447,"Ġdibeli":6448,"ejahter":6449,"les":6450,"Ġtangannya":6451,"Ġkebetulan":6452,"rut":6453,"ĠSolo":6454,"Ġanus":6455,"Ġpembuluh":6456,"Ġdengannya":6457,"Ġterkesan":6458,"bing":6459,"eme":6460,"Ġdirancang":6461,"ign":6462,"daftarkan":6463,"Ġmenangkap":6464,"Ġtren":6465,"Ġdiproduksi":6466,"ebarkan":6467,"wancara":6468,"Ġmemec":6469,"Ġsejenis":6470,"Ġdelapan":6471,"arget":6472,"Ġstres":6473,"jub":6474,"Ġseleksi":6475,"ĠBarcelona":6476,"ory":6477,"Ġdiakses":6478,"Ġbermacam":6479,"Ġbinary":6480,"Ġdong":6481,"Ġdiv":6482,"Ġakrab":6483,"Ġucapan":6484,"Ġpesat":6485,"Ġdif":6486,"ĠPolres":6487,"ĠSWT":6488,"Ġmask":6489,"tifikat":6490,"identifikasi":6491,"Ġcr":6492,"Ġlaman":6493,"amina":6494,"Ġloh":6495,"OK":6496,"jam":6497,"Ġmenghitung":6498,"eskripsikan":6499,"enteng":6500,"ahlian":6501,"enderal":6502,"Ġkesuksesan":6503,"Ġmanual":6504,"ongkok":6505,"Ġgug":6506,"board":6507,"urian":6508,"Ġkepuasan":6509,"endalikan":6510,"Ġpadanya":6511,"lar":6512,"Sekarang":6513,"Ġrokok":6514,"Ġtertulis":6515,"ĠKristen":6516,"Ġmari":6517,"ĠDomino":6518,"Ġkeyakinan":6519,"ĠDit":6520,"Ġhandphone":6521,"van":6522,"Ġmembuang":6523,"erjasama":6524,"Ġbook":6525,"Ġtercatat":6526,"Ġkonflik":6527,"ĠMasih":6528,"ewatkan":6529,"ĠTangerang":6530,"ĠCina":6531,"ĠAbdul":6532,"Ġelegan":6533,"28":6534,"EK":6535,"Ġmenghapus":6536,"Ġbinatang":6537,"Ġlolos":6538,"Ġspesial":6539,"Ġmembandingkan":6540,"Ġharian":6541,"ĠAng":6542,"Ġadministrasi":6543,"bawa":6544,"Ġbahas":6545,"ĠJelly":6546,"Ġmalas":6547,"Ġkeselamatan":6548,"Ġmembelinya":6549,"organ":6550,"Ġutamanya":6551,"Ġmempertimbangkan":6552,"ĠPang":6553,"ikulum":6554,"ĠKini":6555,"Ġ150":6556,"Ġislam":6557,"Ġaneka":6558,"Orang":6559,"Ġmerugikan":6560,"ĠBerdasarkan":6561,"ĠSB":6562,"ĠSl":6563,"Ġsak":6564,"unjukan":6565,"ĠGol":6566,"Ġ!":6567,"Ġjah":6568,"Ġbervariasi":6569,"ĠPerk":6570,"ĠIsrael":6571,"ãĥ":6572,"Ġmencer":6573,"lak":6574,"emari":6575,"Lalu":6576,"asang":6577,"Keb":6578,"Ġpass":6579,"ometer":6580,"Ġ31":6581,"Sudah":6582,"ĠSa":6583,"Ġkekayaan":6584,"Ġmenyentuh":6585,"Ġkonvensional":6586,"Ġmemanggil":6587,"Ses":6588,"Ġberuntung":6589,"umuman":6590,"Ġsaatnya":6591,"Ġragam":6592,"allah":6593,"Ġhormon":6594,"ĠPR":6595,"Ġkant":6596,"Ġcedera":6597,"Ġoffline":6598,"lon":6599,"ĠWi":6600,"Ġjumlahnya":6601,"Ġpenutup":6602,"Ġusai":6603,"Ġmenanyakan":6604,"Ġmut":6605,"ĠMembuat":6606,"ĠGamat":6607,"As":6608,"ĠKristus":6609,"ĠSurat":6610,"Ġmengar":6611,"Ġpu":6612,"iam":6613,"Ġdiperkirakan":6614,"ĠLampung":6615,"ĠST":6616,"ĠAz":6617,"Ġterapi":6618,"Ġstat":6619,"Ġintim":6620,"Ġkenyataan":6621,"ĠMakassar":6622,"ĠTanjung":6623,"akili":6624,"ĠBaca":6625,"Ġkencing":6626,"anjutan":6627,"oft":6628,"Ġmag":6629,"vestasi":6630,"ĠSilahkan":6631,"Ġkup":6632,"Ġmengand":6633,"Ġjas":6634,"hasil":6635,"stal":6636,"ĠPeraturan":6637,"san":6638,"anjakan":6639,"Ġmenggambarkan":6640,"Ġutara":6641,"row":6642,"Ġgemb":6643,"Ġilmiah":6644,"hawat":6645,"ĠHo":6646,"Ġputus":6647,"Ġditempat":6648,"27":6649,"Ġliga":6650,"etakkan":6651,"uth":6652,"ohonan":6653,"Ġpembuat":6654,"Ġmenemb":6655,"ĠKPK":6656,"Ġ45":6657,"Ġkeempat":6658,"untutan":6659,"Ġsbobet":6660,"ĠCap":6661,"aker":6662,"Ġcl":6663,"Ġdipahami":6664,"ense":6665,"ews":6666,"owok":6667,"Ġsuk":6668,"utube":6669,"Ġkotoran":6670,"egahan":6671,"Ġmunculnya":6672,"va":6673,"Ġmengajarkan":6674,"Secara":6675,"Ġrahim":6676,"Ġberga":6677,"ambatan":6678,"Ġlantaran":6679,"pres":6680,"Ġditandai":6681,"ĠSc":6682,"Ġhalal":6683,"Ġsia":6684,"Ġdiluar":6685,"aingan":6686,"Selanjutnya":6687,"Ġbosan":6688,"estinya":6689,"Ġpengemb":6690,"lok":6691,"Ġklasik":6692,"imbing":6693,"Ġturn":6694,"saya":6695,"Ġcur":6696,"Ġkendala":6697,"AI":6698,"Ġpenanganan":6699,"Ġtag":6700,"ĠSepatu":6701,"Ġkarb":6702,"Ġdada":6703,"Ġwadah":6704,"ĠSiapa":6705,"Ġkompleks":6706,"Ġpremi":6707,"Ġsalahnya":6708,"ekuensi":6709,"onc":6710,"Ġmenyelamatkan":6711,"Ġkekerasan":6712,"Ġterbiasa":6713,"Semoga":6714,"Qur":6715,"Ġgimana":6716,"ainan":6717,"Ġpencari":6718,"Ġmerekomendasikan":6719,"ĠGar":6720,"Ġmendatangkan":6721,"ikro":6722,"Ġdiakui":6723,"ĠGames":6724,"Ġliter":6725,"imalkan":6726,"ĠContohnya":6727,"Ġterbar":6728,"Ġdisek":6729,"CO":6730,"ĠHak":6731,"ĠMandiri":6732,"Ġdinas":6733,"aktor":6734,"pol":6735,"Ġsport":6736,"ĠHan":6737,"ĠPenelitian":6738,"estiv":6739,"ĠMakanan":6740,"Ġedit":6741,"Ġsyari":6742,"ĠUsaha":6743,"antap":6744,"Ġpungk":6745,"Ġbawang":6746,"Ġmenyimp":6747,"iq":6748,"Ġmobile":6749,"Ġdepannya":6750,"retaris":6751,"Ġpunggung":6752,"Ġpersaingan":6753,"ĠFitur":6754,"Ġsediakan":6755,"Ġbandara":6756,"yakan":6757,"Jakarta":6758,"zah":6759,"Ġmempercepat":6760,"afs":6761,"Ġshare":6762,"Ġmenerus":6763,"ĠKat":6764,"Ġinspirasi":6765,"oso":6766,"Ġperih":6767,"Ġkontrol":6768,"atural":6769,"UK":6770,"Ġmemicu":6771,"Ġgudang":6772,"Ġbaku":6773,"Ġmemperlihatkan":6774,"ĠStudi":6775,"Ġmengam":6776,"Ġlantas":6777,"Ġmenyusun":6778,"ekatan":6779,"ĠPadang":6780,"Ġmerubah":6781,"by":6782,"ĠJumlah":6783,"Ġvariasi":6784,"Ġbeasiswa":6785,"Ġduga":6786,"elsea":6787,"lahraga":6788,"Ġkg":6789,"Ġpraktek":6790,"ĠMeny":6791,"ĠHingga":6792,"ominasi":6793,"ĠRoh":6794,"Ġdiminati":6795,"alisme":6796,"ingkatkan":6797,"Ġpidana":6798,"epsi":6799,"estival":6800,"Apabila":6801,"ĠUndang":6802,"Ġmenghentikan":6803,"Ġmendekati":6804,"Ġdibaca":6805,"Ġdengar":6806,"Ð¾Ð":6807,"Ġroh":6808,"ĠMakanya":6809,"jukan":6810,"Ġforum":6811,"utnya":6812,"antren":6813,"seb":6814,"Ġperwakilan":6815,"tel":6816,"65":6817,"IP":6818,"Ġmenolong":6819,"Ġkud":6820,"Ġditemp":6821,"Ġtahapan":6822,"nanya":6823,"Ġhijab":6824,"Ġdibentuk":6825,"Ġdolar":6826,"Ġmengharapkan":6827,"iwayat":6828,"hiri":6829,"wujud":6830,"Ġriset":6831,"ĠBur":6832,"aham":6833,"pet":6834,"ĠCari":6835,"29":6836,"Ġperencanaan":6837,"Ġval":6838,"Ġgoreng":6839,"Ġpasukan":6840,"ĠPB":6841,"ica":6842,"ĠFilm":6843,"Ġistirahat":6844,"eet":6845,"ĠPenc":6846,"jir":6847,"Ġwarung":6848,"ternal":6849,"Ġmenghargai":6850,"Ġtump":6851,"Ġberoperasi":6852,"Lebih":6853,"lig":6854,"Ġgaram":6855,"Ġnonton":6856,"Ġbergantung":6857,"pool":6858,"ĠMaha":6859,"ilikinya":6860,"ĠMasalah":6861,"Ġjahat":6862,"nilai":6863,"Ġpant":6864,"Ġtrader":6865,"Berdasarkan":6866,"Ġhukuman":6867,"Ġmewakili":6868,"kira":6869,"Ġadil":6870,"Ġtindak":6871,"isal":6872,"Ġusus":6873,"ĠBah":6874,"Ġnah":6875,"Ġmemperkuat":6876,"Ġpangan":6877,"ĠKut":6878,"Ġge":6879,"ĠDirektur":6880,"Ġalum":6881,"Ġkeahlian":6882,"ido":6883,"Ġceme":6884,"Ġmelihatnya":6885,"Ġdihadiri":6886,"ric":6887,"Ġton":6888,"ĠToyota":6889,"33":6890,"Ġchat":6891,"ĠApple":6892,"ux":6893,"ĠðŁĺ":6894,"Ġdirek":6895,"EG":6896,"Ġmasukan":6897,"Ġsewaktu":6898,"Ġspir":6899,"ĠPolri":6900,"Ġ300":6901,"ĠPerlu":6902,"Ġmengundang":6903,"Ġhard":6904,"Ġplan":6905,"imer":6906,"Ġtetangga":6907,"enan":6908,"ĠBerbagai":6909,"Ġcontohnya":6910,"acun":6911,"Ġuntung":6912,"ĠMesin":6913,"Ġcor":6914,"Ġbesarnya":6915,"ies":6916,"Ġbijak":6917,"Ġgempa":6918,"Ġaudi":6919,"2017":6920,"Ġlab":6921,"ging":6922,"sih":6923,"Ġrom":6924,"angsing":6925,"langkah":6926,"Ġmaya":6927,"Ġmelatih":6928,"ĠKeh":6929,"erdekaan":6930,"Ġpenjara":6931,"UI":6932,"Ġputaran":6933,"mem":6934,"ĠKo":6935,"ĠTenggara":6936,"Ġbut":6937,"ĠRamadhan":6938,"Ġmelebih":6939,"Ġpelanggaran":6940,"aib":6941,"osiasi":6942,"Ġhttp":6943,"Ġbagikan":6944,"hu":6945,"enjolan":6946,"ĠSus":6947,"Ġkus":6948,"Ġseakan":6949,"Memang":6950,"Ġdiangkat":6951,"Ġsesudah":6952,"ĠGe":6953,"ĠSri":6954,"ĠBuku":6955,"Ġcetak":6956,"OT":6957,"Ġkarakteristik":6958,"ĠOS":6959,"Ġlari":6960,"ĠGl":6961,"26":6962,"bitkan":6963,"ask":6964,"Ġmengandalkan":6965,"ĠUang":6966,"awah":6967,"ambangan":6968,"Ġberulang":6969,"madi":6970,"Ġkemasan":6971,"Ġvs":6972,"Ġpensi":6973,"Ġkemb":6974,"ujung":6975,"rik":6976,"Ġmayoritas":6977,"ĠPastikan":6978,"ĠYamaha":6979,"Ġmurni":6980,"ihi":6981,"Ġmengembalikan":6982,"foto":6983,"ĠCPNS":6984,"aksasa":6985,"Ġpacar":6986,"Ġsepuluh":6987,"Ġpanitia":6988,"Ġreaksi":6989,"Ġiya":6990,"arto":6991,"Ġlipat":6992,"Ġlive":6993,"wasan":6994,"Ġmendirikan":6995,"ĠEf":6996,"ĠImam":6997,"Ġkambing":6998,"abah":6999,"io":7000,"Ġmenghemat":7001,"omodasi":7002,"Ġreputasi":7003,"Ġtawaran":7004,"Ġrec":7005,"ise":7006,"ĠMemb":7007,"ĠAnggota":7008,"Ġph":7009,"gagalan":7010,"Ġpengeluaran":7011,"Ġinstan":7012,"ĠMudah":7013,"Hari":7014,"Ġdideskripsikan":7015,"Ġred":7016,"akwa":7017,"ĠArt":7018,"ĠCukup":7019,"olehkan":7020,"Ġkemana":7021,"ĠIN":7022,"Ġekor":7023,"kas":7024,"ungkap":7025,"Ġhaji":7026,"ĠMedia":7027,"erat":7028,"Ġmengu":7029,"ĠBanjar":7030,"Ġurutan":7031,"Ġpemin":7032,"ebalan":7033,"Ġmengul":7034,"ĠKemen":7035,"ĠCor":7036,"ãĤ":7037,"asy":7038,"Ġjan":7039,"etulnya":7040,"Ġuser":7041,"ĠManaj":7042,"alisis":7043,"Ġhadits":7044,"Ġdri":7045,"Ġbumbu":7046,"Ġmelaporkan":7047,"ĠÙ":7048,"Ġdicapai":7049,"emani":7050,"Ġsurga":7051,"TV":7052,"Ġskala":7053,"epakatan":7054,"Ġprioritas":7055,"Ġcoklat":7056,"Ġmenghancurkan":7057,"Ġmutu":7058,"Ġoperator":7059,"etur":7060,"Ġmelengkapi":7061,"adak":7062,"ĠMag":7063,"tusias":7064,"omosikan":7065,"elat":7066,"dalam":7067,"Ġsayur":7068,"ĠBunga":7069,"Ġfull":7070,"Ġmenunjukan":7071,"Ġarsit":7072,"Ġkonsentrasi":7073,"Ġdikutip":7074,"ĠPay":7075,"Ġdiisi":7076,"Ġkelemahan":7077,"ĠDesain":7078,"Ġlulusan":7079,"Ġpengolahan":7080,"Ġmanajer":7081,"unkan":7082,"Ġtingg":7083,"iet":7084,"ombongan":7085,"Ġtenda":7086,"Ġmenunjang":7087,"Ġroti":7088,"uddin":7089,"Ġtahunan":7090,"ampau":7091,"ĠMu":7092,"Ġdibahas":7093,"Ġkelak":7094,"dy":7095,"Ġhosting":7096,"Ġkeputihan":7097,"Ġsimbol":7098,"JS":7099,"Ġinstansi":7100,"yawa":7101,"Ġkriteria":7102,"pes":7103,"empro":7104,"banyak":7105,"Su":7106,"aluan":7107,"ĠStore":7108,"ĠSayangnya":7109,"efinisi":7110,"Ġpake":7111,"jaan":7112,"Ġpower":7113,"Ġberalih":7114,"AC":7115,"ove":7116,"Ġpenerimaan":7117,"ĠBen":7118,"ĠDian":7119,"Ġnafsu":7120,"alaikat":7121,"ĠKartu":7122,"Ġbertugas":7123,"ejahteraan":7124,"Ġdipimpin":7125,"ĠPlus":7126,"sian":7127,"Ġterlepas":7128,"Ġcuci":7129,"35":7130,"Ġpenginapan":7131,"ĠSumber":7132,"ondok":7133,"Ah":7134,"ium":7135,"ĠUk":7136,"Ġistrinya":7137,"Selama":7138,"Ġperlengkapan":7139,"ĠBelum":7140,"etapan":7141,"ĠChelsea":7142,"Ġport":7143,"ĠBahan":7144,"Ġmencatat":7145,"ventu":7146,"Ġmengejar":7147,"indo":7148,"Bahkan":7149,"ĠPNS":7150,"Ġren":7151,"Ġpengurus":7152,"Ġperson":7153,"ĠMon":7154,"wat":7155,"Ġbusana":7156,"Ġkepemimpinan":7157,"Ġdiingat":7158,"Sebuah":7159,"Ġseragam":7160,"Ġfase":7161,"untansi":7162,"kitab":7163,"Ġkasar":7164,"Ġpersis":7165,"able":7166,"KB":7167,"husus":7168,"ĠBany":7169,"astra":7170,"Ġberumur":7171,"Ġmemperkenalkan":7172,"karena":7173,"esterol":7174,"Ġbandingkan":7175,"Ġbanjir":7176,"ĠAyah":7177,"ejakulasi":7178,"ĠBus":7179,"ulunya":7180,"Ġditujukan":7181,"Ġmelanggar":7182,"ĠTI":7183,"Ġrumit":7184,"Ġobyek":7185,"Ġditinggal":7186,"Ġditanya":7187,"Ġiman":7188,"ĠJoko":7189,"Ġpengembalian":7190,"Ġmemadai":7191,"Ġtajam":7192,"Ġapartemen":7193,"Ġ..":7194,"Ġdesk":7195,"Ġ2007":7196,"imbah":7197,"Ġbend":7198,"rosoft":7199,"Ġinti":7200,"ĠBlu":7201,"Ġref":7202,"ribadian":7203,"Ġperjanjian":7204,"Ġmenempel":7205,"ĠBumi":7206,"Ġperumahan":7207,"Ġdipasang":7208,"Ġolah":7209,"ĠBatam":7210,"ĠVal":7211,"Ġmulia":7212,"Ġorder":7213,"Ġtempatnya":7214,"Ġhamba":7215,"PM":7216,"ĠManusia":7217,"ING":7218,"ebus":7219,"ĠRos":7220,"Ġsekadar":7221,"Ġdipr":7222,"Ġdikelola":7223,"Ġmoral":7224,"uro":7225,"ARTA":7226,"Ġfenomena":7227,"Ġderajat":7228,"Ġkebun":7229,"Ġinform":7230,"usikan":7231,"roh":7232,"Satu":7233,"Ġoperasional":7234,"Ġcomp":7235,"ego":7236,"Ġserat":7237,"Ġmenaik":7238,"erjaan":7239,"Ġaslinya":7240,"Ġterhindar":7241,"ahagiaan":7242,"timbang":7243,"Ġdinam":7244,"Ġklasemen":7245,"ewi":7246,"Ġsilakan":7247,"Ġkacang":7248,"Ġrupa":7249,"ĠSan":7250,"onomian":7251,"mur":7252,"ĠInternasional":7253,"ella":7254,"emangat":7255,"essi":7256,"Ġucap":7257,"ĠTeknologi":7258,"Ġerat":7259,"Ġmelebihi":7260,"Ġlainya":7261,"tin":7262,"Ġberencana":7263,"ĠCont":7264,"Ġmenemui":7265,"Ġrute":7266,"Ġdirumah":7267,"Ġformal":7268,"Ġterpaksa":7269,"Ġmode":7270,"buang":7271,"Ġbertahun":7272,"Ġterhubung":7273,"Ġmenand":7274,"Ġkeju":7275,"Ġsebutan":7276,"Ġmengund":7277,"ĠSebelumnya":7278,"irus":7279,"Ġkedatangan":7280,"ĠPertanyaan":7281,"ĠJenderal":7282,"imalis":7283,"Ġbakat":7284,"kandung":7285,"esuai":7286,"Ġpengec":7287,"Ġrez":7288,"ampingi":7289,"ĠAlat":7290,"oucher":7291,"atin":7292,"Ġpemilih":7293,"iki":7294,"Ġbersikap":7295,"ĠPor":7296,"iber":7297,"Ġtukang":7298,"tawan":7299,"Ġsebentar":7300,"Ġnasib":7301,"Ġmm":7302,"Ġkompetensi":7303,"Ġejakulasi":7304,"iverpool":7305,"esifik":7306,"adium":7307,"ĠNas":7308,"Ġkonstruksi":7309,"Ġpergerakan":7310,"Ġboc":7311,"Ġ2000":7312,"olok":7313,"Ġliar":7314,"ehehe":7315,"eteksi":7316,"Ġmenjauh":7317,"jubkan":7318,"ĠFil":7319,"Ġterganggu":7320,"ĠPri":7321,"ĠBab":7322,"ernaan":7323,"ĠKondisi":7324,"Ġwith":7325,"Ġgur":7326,"Ġtali":7327,"Ġlurus":7328,"77":7329,"Ġupacara":7330,"cam":7331,"Ġakar":7332,"ĠHD":7333,"Ġrajin":7334,"Ġvital":7335,"versi":7336,"ito":7337,"Ġmenyerahkan":7338,"orium":7339,"isir":7340,"Ġnenek":7341,"ailand":7342,"ney":7343,"Ġsim":7344,"Ġmengumumkan":7345,"ĠPark":7346,"Ġrela":7347,"!âĢĿ":7348,"Ġjanji":7349,"ĠBUM":7350,"Ġproduktif":7351,"Ġkuota":7352,"ealer":7353,"100":7354,"Ġrent":7355,"imbangan":7356,"Ġner":7357,"Ġandalan":7358,"Ġmac":7359,"Ġmelepaskan":7360,"yataannya":7361,"Ġfurniture":7362,"sy":7363,"org":7364,"udik":7365,"sungguh":7366,"Ġkegagalan":7367,"atatan":7368,"ĠBak":7369,"Ġberpendapat":7370,"atik":7371,"tem":7372,"ĠRakyat":7373,"apaian":7374,"onan":7375,"Ġterbarunya":7376,"Ġmula":7377,"Ġtawarkan":7378,"ĠBanten":7379,"Ġtra":7380,"Ġberi":7381,"ukis":7382,"Ġgan":7383,"ĠOb":7384,"Ġmatanya":7385,"Ġmarketing":7386,"Ġekonom":7387,"usinya":7388,"Ġcream":7389,"Tetapi":7390,"Ġlogo":7391,"Ġdimensi":7392,"Ġsiapkan":7393,"ĠKepulauan":7394,"aria":7395,"Ġgram":7396,"Ġmengeks":7397,"ingkungan":7398,"Ġkesimpulan":7399,"Ġdisip":7400,"ĠChampi":7401,"Ġmendaftarkan":7402,"Ġmenjabat":7403,"oyal":7404,"Ġraksasa":7405,"Ġramuan":7406,"ye":7407,"Ġkekasih":7408,"ĠTab":7409,"Ġantusias":7410,"DA":7411,"ĠKapol":7412,"Ġmenjanjikan":7413,"ĠPalembang":7414,"ifi":7415,"Ġrepot":7416,"Ġhadapan":7417,"Ġtat":7418,"Ġkuda":7419,"Ġberolahraga":7420,"Ġditemui":7421,"Ġtertawa":7422,"Bukan":7423,"inder":7424,"Ġsensit":7425,"ĠNusantara":7426,"uansa":7427,"erdasan":7428,"Ġtuntutan":7429,"Ġterkej":7430,"Ġnot":7431,"empurn":7432,"Ġseminar":7433,"Ġover":7434,"itr":7435,"Ġketinggalan":7436,"ultan":7437,"Ġsam":7438,"alapak":7439,"Ġpanggung":7440,"angsang":7441,"Ġgelas":7442,"usuf":7443,"ĠPurw":7444,"rim":7445,"ĠAgama":7446,"ĠAkibat":7447,"ĠEntah":7448,"esaran":7449,"ĠTips":7450,"Ġdiajak":7451,"ĠYun":7452,"Ġala":7453,"ungkus":7454,"Adapun":7455,"ewakan":7456,"Ġwawasan":7457,"ĠPrab":7458,"ĠSama":7459,"ene":7460,"rak":7461,"Ġtunt":7462,"ĠKl":7463,"omotif":7464,"amankan":7465,"Ġbentuknya":7466,"Ġjeruk":7467,"Ġlibur":7468,"ĠSakit":7469,"editasi":7470,"arch":7471,"Ġmenuliskan":7472,"Ġkantong":7473,"ĠWarna":7474,"Ġdisiplin":7475,"jana":7476,"Ġend":7477,"Ġnanah":7478,"Ġgua":7479,"?\"":7480,"ĠSK":7481,"Ġasupan":7482,"Ġalergi":7483,"ĠCinta":7484,"Ġungkapnya":7485,"55":7486,"aper":7487,"Ġmenakjubkan":7488,"Ġmenyerah":7489,"Ġmanfaatnya":7490,"hh":7491,"ajang":7492,"ackpot":7493,"ĠUd":7494,"zuki":7495,"Tentunya":7496,"Ġpembentukan":7497,"Ġitem":7498,"Ġhead":7499,"ambi":7500,"cita":7501,"Ġkonser":7502,"Ġkena":7503,"ele":7504,"Ġpencernaan":7505,"alk":7506,"TE":7507,"etuj":7508,"Ġpassword":7509,"Ġwartawan":7510,"Ġindikator":7511,"Ġkeberuntungan":7512,"Ġpoint":7513,"Ġbibit":7514,"Ġmasker":7515,"ĠKej":7516,"Ġgrafis":7517,"ĠðŁĻ":7518,"Ġlowongan":7519,"ASI":7520,"ĠBiaya":7521,"ativ":7522,"ĠMasjid":7523,"ĠNT":7524,"ĠPanc":7525,"UAN":7526,"Ġkesepakatan":7527,"Ġspesifik":7528,"ĠBangun":7529,"Ġgelombang":7530,"ĠHa":7531,"encan":7532,"Ġdilarang":7533,"Ġbekerjasama":7534,"Ġseter":7535,"Ġbangkit":7536,"AKARTA":7537,"ean":7538,"Ġkebakaran":7539,"ĠSpesifikasi":7540,"Ġsw":7541,"Ġbitcoin":7542,"Ġlengan":7543,"ĠEs":7544,"Ġsper":7545,"ibah":7546,"Ġeng":7547,"Ġtabel":7548,"Ġmenyakit":7549,"Ġisinya":7550,"ĠDepok":7551,"Ġbelakangan":7552,"Ġpemilu":7553,"70":7554,"Ġjajaran":7555,"Ġdius":7556,"ĠAcara":7557,"ungsinya":7558,"Ġmencuri":7559,"ĠStasiun":7560,"ikkan":7561,"ko":7562,"ĠServ":7563,"alap":7564,"rastruktur":7565,"Ġgubernur":7566,"ontok":7567,"Ġklin":7568,"ĠOlahraga":7569,"Ġcowok":7570,"Ġhat":7571,"Ġdistributor":7572,"TS":7573,"ĠWhats":7574,"infeksi":7575,"ĠGereja":7576,"Berb":7577,"Sejak":7578,"Ġmenyusui":7579,"Ġmengurus":7580,"Ġketimbang":7581,"niat":7582,"Ġvolume":7583,"Ġu":7584,"Ġriwayat":7585,"Ġdirimu":7586,"Ġdira":7587,"Ġkerana":7588,"Ġdisimpan":7589,"ĠPaket":7590,"Ġevaluasi":7591,"Ġmenutupi":7592,"ĠAyam":7593,"ĠBeli":7594,"Ġkebudayaan":7595,"Ġereksi":7596,"ĠTerlebih":7597,"Ġinduk":7598,"Ġ36":7599,"ĠPrancis":7600,"Ġpengu":7601,"ĠIP":7602,"Ġberlibur":7603,"Ġmatematika":7604,"Ġbiarkan":7605,"Ġmembesar":7606,"Ġberlari":7607,"Ġsenyum":7608,"ĠKarya":7609,"ĠModel":7610,"Ġpertahanan":7611,"Ġpenulisan":7612,"Ġberkons":7613,"ley":7614,"Ġagenda":7615,"Ġpengawasan":7616,"ubuk":7617,"Ġnan":7618,"Ġkebahagiaan":7619,"Ġkencang":7620,"Ġturnamen":7621,"Ġvoucher":7622,"imasi":7623,"GA":7624,"tanda":7625,"entangan":7626,"Ġbetting":7627,"inaan":7628,"Ġtuanya":7629,"ĠLayanan":7630,"ding":7631,"IL":7632,"nam":7633,"Ġyuk":7634,"ĠTiongkok":7635,"Ġfans":7636,"Ġdiganti":7637,"Ġdugaan":7638,"Ġsofa":7639,"ĠDar":7640,"elajah":7641,"agen":7642,"Ġberfikir":7643,"Ġjati":7644,"Ġtahunnya":7645,"sil":7646,"Ġsetara":7647,"onjol":7648,"Ġlaba":7649,"ĠAdmin":7650,"Ġmendalam":7651,"Ġwawancara":7652,"Ġberpotensi":7653,"Ġsenyawa":7654,"Ġtablet":7655,"Ġberes":7656,"faatan":7657,"Ġskill":7658,"bungan":7659,"azada":7660,"Ġmematikan":7661,"ĠâĢĶ":7662,"Ġkonteks":7663,"Ġsabun":7664,"ative":7665,"nai":7666,"Kedua":7667,"Ġmic":7668,"Ġkesejahteraan":7669,"ĠLiverpool":7670,"arung":7671,"ĠAM":7672,"ĠInter":7673,"Ġsik":7674,"Ġpeta":7675,"umas":7676,"Ġpensiun":7677,"Ġpisang":7678,"Peny":7679,"aras":7680,"metik":7681,"Ġketinggian":7682,"Ġmineral":7683,"Ġdijamin":7684,"madiyah":7685,"Seorang":7686,"Ġtentara":7687,"Ġbelas":7688,"ĠMax":7689,"antis":7690,"Ġsensasi":7691,"Ġketemu":7692,"ĠSak":7693,"Ġbad":7694,"Ġberkas":7695,"Ġganda":7696,"Ġditangani":7697,"Ġmengklaim":7698,"Ġserba":7699,"Ġkeman":7700,"Ġprofit":7701,"Ġberminat":7702,"ĠSAW":7703,"Ġcak":7704,"itam":7705,"Ġsemester":7706,"Ġmembahayakan":7707,"Ġwajahnya":7708,"ĠJl":7709,"Ġdipengaruhi":7710,"Ġhun":7711,"Ġbudget":7712,"ky":7713,"Ġrelev":7714,"Ġmerokok":7715,"embunyi":7716,"Ġkuno":7717,"Ġdef":7718,"Ġhel":7719,"Ġlogin":7720,"Ġlemari":7721,"ordin":7722,"iaan":7723,"ecuali":7724,"aptasi":7725,"iayaan":7726,"Ġlambung":7727,"back":7728,"Ġresolusi":7729,"Ġbuj":7730,"que":7731,"lish":7732,"Ġdihadapi":7733,"Ġpengganti":7734,"ĠDapatkan":7735,"Ġditambahkan":7736,"Kegiatan":7737,"Ġtunai":7738,"Ġline":7739,"Ġlaku":7740,"Ġburuh":7741,"sion":7742,"Ġmenggelar":7743,"roke":7744,"ĠMelalui":7745,"Ġbaginya":7746,"ĠSH":7747,"ĠThailand":7748,"Ġaroma":7749,"enci":7750,"Ġberkumpul":7751,"enak":7752,"Indonesia":7753,"agama":7754,"reasi":7755,"bayar":7756,"awang":7757,"Ġkurir":7758,"Ġbukit":7759,"Ġradio":7760,"Seh":7761,"Ġpraktik":7762,"Ġpenyembuhan":7763,"Ġplus":7764,"yle":7765,"ire":7766,"Ġberenang":7767,"ĠChampions":7768,"arannya":7769,"ĠWorld":7770,"Ġplayer":7771,"ĠJual":7772,"older":7773,"gu":7774,"Ġternama":7775,"Ġsayangnya":7776,"orokan":7777,"BC":7778,"umpa":7779,"Ġsendirian":7780,"tib":7781,"adz":7782,"Ġmencuci":7783,"idaya":7784,"Ġher":7785,"ĠPul":7786,"Ġditempatkan":7787,"Ġresp":7788,"esin":7789,"sity":7790,"Ġteam":7791,"Ku":7792,"Ġmini":7793,"Ġsatuan":7794,"ager":7795,"Tr":7796,"ĠJepara":7797,"Ġkepribadian":7798,"ander":7799,"enger":7800,"Ġdinikmati":7801,"Ġdanau":7802,"Ġzona":7803,"Ġberlalu":7804,"Ġlong":7805,"Ġterkejut":7806,"Ġtemen":7807,"Ġkeram":7808,"obrol":7809,"ole":7810,"ensif":7811,"Ġkalori":7812,"ĠPus":7813,"sem":7814,"engahan":7815,"So":7816,"Ġbooking":7817,"upun":7818,"Ġdemokrasi":7819,"eur":7820,"ĠArs":7821,"Ġ196":7822,"ĠId":7823,"ambilan":7824,"Ġmenggantikan":7825,"eser":7826,"amaah":7827,"ĠRead":7828,"ject":7829,"Ġberniat":7830,"Ġgerak":7831,"ĠHidup":7832,"oter":7833,"asio":7834,"opedia":7835,"ror":7836,"Ġkub":7837,"istensi":7838,"Ġmisteri":7839,"Ġbir":7840,"Ġtuh":7841,"Ġjakarta":7842,"ĠMend":7843,"Ġberlanjut":7844,"Menurutnya":7845,"ĠPos":7846,"dengan":7847,"ĠMay":7848,"Ġbersedia":7849,"Ġperekonomian":7850,"Ġproduknya":7851,"ĠIbnu":7852,"Pertama":7853,"rama":7854,"bukan":7855,"Ġkolesterol":7856,"Ġmasak":7857,"idasi":7858,"ahi":7859,"Ġnabi":7860,"ĠTK":7861,"adapan":7862,"isis":7863,"alif":7864,"imanapun":7865,"ĠTwitter":7866,"indung":7867,"ĠAsli":7868,"late":7869,"aritas":7870,"Ġtest":7871,"Ġberlatih":7872,"ĠPremi":7873,"satu":7874,"Ġjalanan":7875,"Ġngga":7876,"Ã¢":7877,"ikh":7878,"Ġanjing":7879,"etujui":7880,"OG":7881,"ape":7882,"ĠPemain":7883,"Ġnada":7884,"Ġdgn":7885,"ilbab":7886,"Ġpembukaan":7887,"ĠCS":7888,"entasikan":7889,"otanya":7890,"ĠðŁĻĤ":7891,"anggapi":7892,"ilainya":7893,"under":7894,"ĠPemilu":7895,"lay":7896,"ĠAPB":7897,"ĠVideo":7898,"Ġseterusnya":7899,"num":7900,"48":7901,"ĠSch":7902,"ĠCasino":7903,"Ġbaja":7904,"shop":7905,"ĠDo":7906,"Ġmajalah":7907,"esis":7908,"iker":7909,"Ġketak":7910,"gabungkan":7911,"Pemb":7912,"ĠKend":7913,"Ġmikro":7914,"urit":7915,"Ġlegal":7916,"atorium":7917,"ĠDil":7918,"ĠWidodo":7919,"Ġpencegahan":7920,"ĠPutih":7921,"Ġlogam":7922,"Hasil":7923,"Ġterlambat":7924,"ĠCaranya":7925,"Ġsosialisasi":7926,"Ġmempromosikan":7927,"Ġkebebasan":7928,"ĠBengk":7929,"eluk":7930,"Ġimbang":7931,"Ġlebaran":7932,"âĪ":7933,"Ġpakar":7934,"ekor":7935,"endaknya":7936,"Ġditangkap":7937,"mata":7938,"emah":7939,"ĠMil":7940,"Ġberbahan":7941,"Ġbener":7942,"Ġhidung":7943,"Ġsemula":7944,"lang":7945,"Ġmenghadiri":7946,"olongan":7947,"ĠTerdapat":7948,"Ġmeluncurkan":7949,"Ġtekstur":7950,"ede":7951,"Ġundang":7952,"Ġtiada":7953,"Ġpembagian":7954,"Ġjawabannya":7955,"ĠMilan":7956,"minal":7957,"ĠPaling":7958,"Ġunggulan":7959,"angannya":7960,"Ġdipandang":7961,"ĠBermain":7962,"ĠMesir":7963,"Ġmemf":7964,"Ġpembers":7965,"duc":7966,"Ġmenyewa":7967,"ĠKud":7968,"Ġasp":7969,"etahu":7970,"ĠAL":7971,"ph":7972,"ompa":7973,"Ġsimple":7974,"Ġkonsultasi":7975,"ebunan":7976,"undur":7977,"aiknya":7978,"ĠWebsite":7979,"Ġsertifikat":7980,"sib":7981,"Ġbuy":7982,"Ġmemuat":7983,"eld":7984,"adion":7985,"Ġekstra":7986,"ago":7987,"Ġmendownload":7988,"Ġterinfeksi":7989,"mudahan":7990,"Ġtemannya":7991,"nel":7992,"akwah":7993,"Ġeksternal":7994,"ĠSand":7995,"Ġrobot":7996,"Ġdiraih":7997,"Ġbegini":7998,"ikalau":7999,"OD":8000,"Ġinstal":8001,"ĠKamar":8002,"onore":8003,"Ġtersisa":8004,"Ġsifatnya":8005,"Ġmenghubungkan":8006,"orn":8007,"Ġsecepat":8008,"ĠAngka":8009,"ĠForex":8010,"ehan":8011,"Ġraga":8012,"Ġdianj":8013,"enam":8014,"isian":8015,"The":8016,"pu":8017,"ĠPember":8018,"val":8019,"Ġselamanya":8020,"ohol":8021,"sun":8022,"Ġamal":8023,"Ġ2006":8024,"ĠBidang":8025,"Ġpupuk":8026,"ĠBerk":8027,"Ġwujud":8028,"Ġdiperb":8029,"Ġsempit":8030,"ĠAsian":8031,"buku":8032,"ensa":8033,"Ġmengecek":8034,"anggal":8035,"Ġpenerima":8036,"ĠBPJS":8037,"Ġperbandingan":8038,"ĠSosial":8039,"ĠSIM":8040,"pergian":8041,"ĠKak":8042,"Ġmenyal":8043,"ulian":8044,"unculan":8045,"Bi":8046,"Ġbesok":8047,"Ġmanapun":8048,"Sej":8049,"Ġinfrastruktur":8050,"ĠMac":8051,"wakan":8052,"Ġretur":8053,"Ġdianjurkan":8054,"PN":8055,"St":8056,"Ġhandal":8057,"Ġrib":8058,"ĠManfaat":8059,"Ġkomisi":8060,"luas":8061,"lass":8062,"Ġberganti":8063,"ĠSungai":8064,"Ġdiaplikasikan":8065,"37":8066,"ĠTour":8067,"ush":8068,"Ġmengatas":8069,"ujur":8070,"Ġlimbah":8071,"jin":8072,"Ġjus":8073,"Ġsidang":8074,"**":8075,"Ġtenggorokan":8076,"ĠGambar":8077,"esak":8078,"Ġbenjolan":8079,"ĠHindari":8080,"Ã©":8081,"awasi":8082,"Ġtime":8083,"artisipasi":8084,"ĠBulan":8085,"Ġmenjalin":8086,"Ġaksesoris":8087,"Ġvisual":8088,"www":8089,"Ġberupaya":8090,"Ġalih":8091,"manen":8092,"pasar":8093,"Ġanalisa":8094,"Ġlist":8095,"ĠWalikota":8096,"ĠKelebihan":8097,"ĠLembaga":8098,"Ġbrowser":8099,"ĠOff":8100,"Ġmengolah":8101,"Ġpasca":8102,"Ġmengusung":8103,"ĠPin":8104,"Ġinteraksi":8105,"ante":8106,"Ġpusing":8107,"ĠTravel":8108,"Ġtik":8109,"Ġmengarah":8110,"ĠPoint":8111,"Kepala":8112,"Ġkemerdekaan":8113,"ĠMicrosoft":8114,"ĠPembangunan":8115,"Ġdiragukan":8116,"Sebagian":8117,"ĠLo":8118,"iaga":8119,"UP":8120,"GP":8121,"Ġtembak":8122,"Ġkaret":8123,"Ġdikasih":8124,"Ġmenatap":8125,"ĠPrediksi":8126,"Ġpela":8127,"ĠBerb":8128,"abut":8129,"nama":8130,"Ġdemam":8131,"ĠCD":8132,"Ġberhadapan":8133,"Ġsebabnya":8134,"RA":8135,"Masih":8136,"Ġpameran":8137,"ĠHad":8138,"spot":8139,"yun":8140,"ĠMemiliki":8141,"ĠMA":8142,"eo":8143,"Ġkecerdasan":8144,"frika":8145,"Pert":8146,"impah":8147,"resh":8148,"Ġdimasukkan":8149,"egrasi":8150,"ĠBRI":8151,"Ġterbagi":8152,"âĪŀ":8153,"Ġberkar":8154,"lic":8155,"Ġpedas":8156,"Ġsendirinya":8157,"Ġketu":8158,"Ġkumpulan":8159,"tak":8160,"inda":8161,"Ġutang":8162,"90":8163,"Ġmendatangi":8164,"Ġmengontrol":8165,"Ġtok":8166,"Ġmeyakinkan":8167,"KN":8168,"Ġrupanya":8169,"âĪŀâĪŀ":8170,"HR":8171,"usianya":8172,"Ġmengendalikan":8173,"Ġtour":8174,"Ġli":8175,"ĠPerancis":8176,"ormati":8177,"Ġharapkan":8178,"eknik":8179,"press":8180,"ĠEv":8181,"Ġmark":8182,"Ġsalam":8183,"Ġorganik":8184,"Ġimpor":8185,"Ġperpustakaan":8186,"ĠTerb":8187,"Ġberjumlah":8188,"Ġpenyelenggaraan":8189,"BI":8190,"unitas":8191,"entr":8192,"Ġmainan":8193,"Ġtanam":8194,"Ġsperma":8195,"Ġkembang":8196,"ĠCr":8197,"erajaan":8198,"Ġkader":8199,"Ġdurasi":8200,"asila":8201,"ativitas":8202,"usa":8203,"otivasi":8204,"lawan":8205,"irnya":8206,"titu":8207,"play":8208,"Ġpanen":8209,"Ġketi":8210,"ure":8211,"Dik":8212,"Ġpengumuman":8213,"turut":8214,"ts":8215,"ekerjaan":8216,"Ġ%":8217,"ĠPilih":8218,"Ġest":8219,"Ġsenior":8220,"Ġsurvei":8221,"acking":8222,"ty":8223,"Ġperihal":8224,"aining":8225,"Ġmerilis":8226,"Ġutuh":8227,"interaksi":8228,"ĠKun":8229,"Ġby":8230,"ĠKy":8231,"Ġdamai":8232,"upai":8233,"Ġsejati":8234,"enggarakan":8235,"angkok":8236,"Ġnaskah":8237,"Ġpenggunanya":8238,"tera":8239,"Ġketakutan":8240,"enai":8241,"Ġmenghadap":8242,"Ġcon":8243,"ARA":8244,"Ġnikmati":8245,"apas":8246,"bal":8247,"Ġkedepan":8248,"eling":8249,"ĠUniver":8250,"Ġtangguh":8251,"cess":8252,"Ġ99":8253,"Ġaktor":8254,"ĠBul":8255,"Ġkurangnya":8256,"Ġpembicaraan":8257,"ĠTri":8258,"Ġkerjanya":8259,"unungan":8260,"abang":8261,"ĠMy":8262,"Ġemang":8263,"Ġoption":8264,"Ġformulir":8265,"aduan":8266,"ahaha":8267,"ĠQn":8268,"Ġkaget":8269,"Ġbatuk":8270,"ĠBudi":8271,"Ġhidangan":8272,"Ġceritanya":8273,"Ġikh":8274,"ĠKeluarga":8275,"Ġkonfirmasi":8276,"Ġberbahasa":8277,"Ġmit":8278,"count":8279,"ĠPrabowo":8280,"ze":8281,"ĠLagu":8282,"Ġdisekitar":8283,"bud":8284,"Ġmedan":8285,"Ġeksek":8286,"Ġterkandung":8287,"ias":8288,"Ġ2004":8289,"Ġhe":8290,"Ġmenempati":8291,"ĠNa":8292,"Ġsepi":8293,"tumbuh":8294,"arab":8295,"36":8296,"inansial":8297,"ĠResep":8298,"Siapa":8299,"ĠPemuda":8300,"Ġkursus":8301,"irannya":8302,"link":8303,"ohong":8304,"Ġmerata":8305,"ico":8306,"Ġsegalanya":8307,"Ġmenonjol":8308,"ĠMerah":8309,"round":8310,"ĠUtama":8311,"Ġsya":8312,"Ġyo":8313,"arjo":8314,"Ġaf":8315,"ĠTerl":8316,"ĠSebaliknya":8317,"ĠTurki":8318,"Ġjaket":8319,"opa":8320,"ayar":8321,"ĠOh":8322,"gkau":8323,"App":8324,"Ġgagasan":8325,"Ġjualan":8326,"Ġpeb":8327,"ĠHerbal":8328,"enjang":8329,"Ġlini":8330,"nik":8331,"ĠKutil":8332,"akannya":8333,"Ġkepolisian":8334,"ĠPemk":8335,"akapan":8336,"tiap":8337,"Ġmembant":8338,"oney":8339,"ĠLihat":8340,"ukota":8341,"anjangan":8342,"utut":8343,"ward":8344,"ĠKau":8345,"Ġbatasan":8346,"Ġdiluncurkan":8347,"arinya":8348,"emahkan":8349,"ĠRa":8350,"à¸":8351,"ĠAman":8352,"ĠKelas":8353,"Ġrugi":8354,"ĠEkonomi":8355,"Ġtype":8356,"Ġ250":8357,"argetkan":8358,"ahuan":8359,"Ġsarankan":8360,"ohan":8361,"Ġkoperasi":8362,"Ġvariabel":8363,"Ket":8364,"Ġberpartisipasi":8365,"Ġagan":8366,"Ġbaga":8367,"entral":8368,"ĠKlik":8369,"Ġpandai":8370,"Ġsoalnya":8371,"samaan":8372,"Ġpecah":8373,"Ġhancur":8374,"ĠUSD":8375,"Ġmendidik":8376,"Ġcipta":8377,"ĠCir":8378,"ĠYou":8379,"Ġland":8380,"ĠIngat":8381,"IF":8382,"Ġsand":8383,"Ġkilometer":8384,"ĠWon":8385,"Ġpenya":8386,"Ġnom":8387,"ĠManado":8388,"alisasikan":8389,"anjur":8390,"amanannya":8391,"PD":8392,"Ġpep":8393,"RT":8394,"ewas":8395,"ion":8396,"Ġbulat":8397,"optim":8398,"ĠMenc":8399,"Ġbeton":8400,"Ġmemelihara":8401,"Ġtujuannya":8402,"ĠBa":8403,"Ġdon":8404,"Ġpenambahan":8405,"ĠTemukan":8406,"Ġberinteraksi":8407,"Ġsedemikian":8408,"Ġrumus":8409,"Ġmenyerap":8410,"Ġpanc":8411,"Ġpersonal":8412,"Ġsajikan":8413,"Ġregistrasi":8414,"Ġdekorasi":8415,"Ġanggap":8416,"ĠRob":8417,"Ġsensitif":8418,"Ġrap":8419,"Ġmemecahkan":8420,"ĠMenurutnya":8421,"ĠJohn":8422,"ĠDav":8423,"Ġcom":8424,"abung":8425,"ilingi":8426,"okteran":8427,"epannya":8428,"epend":8429,"Ġliat":8430,"Ġdibantu":8431,"ĠSoekar":8432,"ventus":8433,"Ma":8434,"ĠLaut":8435,"itakan":8436,"'s":8437,"Ġfam":8438,"ĠAmbeien":8439,"win":8440,"Ġsn":8441,"Ġangkat":8442,"pel":8443,"Ġpenyanyi":8444,"Ġpengambilan":8445,"ĠBin":8446,"Ġverifikasi":8447,"Ġsebetulnya":8448,"buahan":8449,"Ġfungsinya":8450,"ebel":8451,"Ġmekanisme":8452,"ĠArsenal":8453,"lima":8454,"Ġacuan":8455,"Ġmelarang":8456,"Ġpenerapan":8457,"Ġdihitung":8458,"Ġdibiarkan":8459,"umput":8460,"istis":8461,"ingnya":8462,"Ġmemaksa":8463,"Ġlabel":8464,"Ken":8465,"endor":8466,"Ġhip":8467,"Ġmengenali":8468,"ĠEng":8469,"Begitu":8470,"Ġprofil":8471,"Ġbon":8472,"Ġjanin":8473,"ĠVer":8474,"utamakan":8475,"Ġpertengahan":8476,"ayangkan":8477,"eller":8478,"ĠWasir":8479,"Ġkerjakan":8480,"Ġdipanggil":8481,"ĠSmart":8482,"Ġbepergian":8483,"!!!":8484,"Ġdiubah":8485,"ĠGroup":8486,"Ġjurnal":8487,"Ġberkisar":8488,"Ġpop":8489,"Ġmemotong":8490,"Ġklaim":8491,"Ġrombongan":8492,"Ġdiolah":8493,"mo":8494,"Mu":8495,"Ġjanganlah":8496,"isl":8497,"Ġ33":8498,"ĠDownload":8499,"ĠFC":8500,"emudi":8501,"ĠWord":8502,"ĠYuk":8503,"CD":8504,"Kel":8505,"ĠYahudi":8506,"Ġrentan":8507,"ĠEfek":8508,"ĠAlam":8509,"Ġberjualan":8510,"Ġmendadak":8511,"ĠRoma":8512,"Ġmendapatkannya":8513,"icip":8514,"ĠNilai":8515,"olik":8516,"ĠMore":8517,"Ġsambut":8518,"Ġmenempuh":8519,"ĠBandara":8520,"ancarkan":8521,"ĠCoba":8522,"Ġpenjualnya":8523,"Ġtimnya":8524,"uasi":8525,"ĠDip":8526,"ĠUr":8527,"rosir":8528,"Agen":8529,"Ġmengag":8530,"sor":8531,"ĠDasar":8532,"Ġbox":8533,"Ġseimbang":8534,"Ġbacaan":8535,"Ġjitu":8536,"ancangan":8537,"Ġwaspada":8538,"BA":8539,"Ġsensor":8540,"omat":8541,"Ġpemegang":8542,"Ġmembakar":8543,"canya":8544,"isika":8545,"Ġpagar":8546,"umnya":8547,"Ġkritis":8548,"Ġsuplemen":8549,"ii":8550,"Ġkrisis":8551,"ĠOne":8552,"osh":8553,"ĠGold":8554,"oratorium":8555,"ĠMuhammadiyah":8556,"agon":8557,"emput":8558,"ilikan":8559,"Ġintens":8560,"Ġsms":8561,"âĢĻ,":8562,"Ġmelupakan":8563,"Ġnikah":8564,"Ġtercinta":8565,"akso":8566,"ukisan":8567,"aborasi":8568,"ette":8569,"tiket":8570,"ĠLangkah":8571,"ĠOrgan":8572,"Ġmaskapai":8573,"Ġterbit":8574,"work":8575,"imbingan":8576,"Ġmenantang":8577,"Ġpelajari":8578,"ĠPER":8579,"ĠIV":8580,"ahulu":8581,"ĠForm":8582,"ogen":8583,"Ġdibuktikan":8584,"ĠKamp":8585,"ĠTe":8586,"ĠRasa":8587,"Ġmemunc":8588,"emuka":8589,"hak":8590,"betul":8591,"Ġinstr":8592,"Ġbupati":8593,"ajurit":8594,"Ġpenjaga":8595,"Tentu":8596,"yik":8597,"kel":8598,"Ġhehe":8599,"ĠCel":8600,"akna":8601,"Ġpopulasi":8602,"Ġmenampung":8603,"ongkong":8604,"Ġfinansial":8605,"Ġawet":8606,"ollar":8607,"ĠPM":8608,"Ġgembira":8609,"encananya":8610,"Ġsajian":8611,"ĠDana":8612,"ĠRup":8613,"Ġkurikulum":8614,"aitkan":8615,"ĠAD":8616,"Wah":8617,"Ġnafas":8618,"Ġberist":8619,"Ġpenyebabnya":8620,"Ġnatural":8621,"Ġpej":8622,"ĠPutri":8623,"Ġmore":8624,"ĠMT":8625,"ĠPekan":8626,"Ġcair":8627,"Ġgitar":8628,"Ġdituntut":8629,"Ġdiman":8630,"ĠPilkada":8631,"Ġmengup":8632,"ĠMenjadi":8633,"Ġmenekankan":8634,"umpah":8635,"ath":8636,"ĠMata":8637,"ĠHIV":8638,"Ġberpr":8639,"ingkah":8640,"Ġditur":8641,"enarkan":8642,"Ġakomodasi":8643,"Ġporsi":8644,"Ġkokoh":8645,"Ġgawang":8646,"Ġberan":8647,"Ġmalaikat":8648,"arai":8649,"pura":8650,"ife":8651,"Ġmembicarakan":8652,"ĨĴ":8653,"Ġmembayangkan":8654,"ĠGedung":8655,"ister":8656,"ĠKek":8657,"ĠGaransi":8658,"ollow":8659,"Ġlamanya":8660,"ĠIkan":8661,"__":8662,"acak":8663,"Ġtuntas":8664,"BS":8665,"panjang":8666,"Ġsaldo":8667,"oleskan":8668,"Ġbos":8669,"Ġ1000":8670,"Kar":8671,"Ġstress":8672,"ejo":8673,"data":8674,"dian":8675,"Akan":8676,"Ġnel":8677,"blog":8678,"Ġperbankan":8679,"Ġ2005":8680,"ajinan":8681,"ĠAfrika":8682,"Ġdarat":8683,"Ġaq":8684,"astian":8685,"Ġmenyangkut":8686,"ebas":8687,"Ġjalannya":8688,"ĠUniversity":8689,"ĠSmartphone":8690,"juk":8691,"Ġsingle":8692,"%,":8693,"Ġbody":8694,"Ġekspor":8695,"Ġdisiapkan":8696,"ĠRev":8697,"ĠAN":8698,"Ġrilis":8699,"inggung":8700,"ujuk":8701,"Ġchip":8702,"Ġbor":8703,"ĠMbak":8704,"Ġmeneg":8705,"ĠSekali":8706,"Ġbaris":8707,"Ġcobalah":8708,"andan":8709,"ĠNet":8710,"ĠRT":8711,"Ġpremium":8712,"Ġsukai":8713,"Ġsiklus":8714,"ĠBuah":8715,"Ġspek":8716,"ical":8717,"Ġtemui":8718,"Ġpertaruhan":8719,"Ġberlokasi":8720,"Ġkenyataannya":8721,"opsi":8722,"otaan":8723,"adanya":8724,"Ġselengkapnya":8725,"imum":8726,"ĠKelurahan":8727,"Ġmengejutkan":8728,"ĠSP":8729,"ahukan":8730,"elai":8731,"Ġhutang":8732,"umbuh":8733,"unggah":8734,"Ġstok":8735,"Ġimbuh":8736,"Ġkomod":8737,"ÙĨ":8738,"Ġmenyerupai":8739,"Ġpakan":8740,"iskinan":8741,"Ġdiselesaikan":8742,"Ġhunian":8743,"Ġberlebih":8744,"uduki":8745,"adaannya":8746,"Ġprosesor":8747,"anaman":8748,"lusif":8749,"Ġpipa":8750,"Ġtransp":8751,"onfirmasi":8752,"Kota":8753,"Ġstroke":8754,"ĠWil":8755,"ĠSuzuki":8756,"izen":8757,"Ġkosmetik":8758,"ĠAhok":8759,"Ġtabungan":8760,"ĠManajemen":8761,"Ġolahan":8762,"uch":8763,"lagi":8764,"Ġmengger":8765,"ĠSud":8766,"adukan":8767,"Ġmanc":8768,"adaban":8769,"Ġsetting":8770,"Ġdiajarkan":8771,"Ġsusunan":8772,"Ġsantri":8773,"Ġmundur":8774,"Anak":8775,"Ġbagai":8776,"Ġsilat":8777,"ĠJa":8778,"Ġkisaran":8779,"Ġkurun":8780,"Ġmemaksimalkan":8781,"Ġberdarah":8782,"ĠBunda":8783,"Ġutk":8784,"Ġekonomis":8785,"ĠUSB":8786,"inasikan":8787,"Ġenggan":8788,"abase":8789,"ĠMau":8790,"Ġbermasalah":8791,"ĠSiswa":8792,"Ġpahlawan":8793,"ping":8794,"ĠKudus":8795,"ĠSerta":8796,"Ġmenyebarkan":8797,"Ġtepi":8798,"Allah":8799,"ipat":8800,"Ð»":8801,"Ġsebulan":8802,"Ġkajian":8803,"Ġberiman":8804,"ehat":8805,"ooth":8806,"Ġbernilai":8807,"Ġpetern":8808,"Ġkeuntungannya":8809,"ĠMur":8810,"ĠDokter":8811,"Ġdiajukan":8812,"jil":8813,"Ġsilam":8814,"Ġbersemangat":8815,"ehkan":8816,"Ġtangkas":8817,"Ġmembatasi":8818,"ĠIM":8819,"Ġpermanen":8820,"Ġspesies":8821,"ĠDisini":8822,"Ġdosis":8823,"Ġmemul":8824,"Ġkarang":8825,"imen":8826,"Ġkuasa":8827,"ĠBro":8828,"naf":8829,"ĠPKS":8830,"Ġtewas":8831,"Ġsul":8832,"Ġidentik":8833,"yono":8834,"ix":8835,"ĠAlkitab":8836,"anaknya":8837,"anjak":8838,"alil":8839,"Ġnilainya":8840,"Ġtri":8841,"Ġsela":8842,"ĠNusa":8843,"ĠPerb":8844,"ongkar":8845,"ĠSekretaris":8846,"EO":8847,"Ġmenyuruh":8848,"ĠSaudi":8849,"emukakan":8850,"Ġpost":8851,"Ġkomposisi":8852,"Ġaparat":8853,"Ġracun":8854,"Ġaktiv":8855,"ĠTermasuk":8856,"Ġpemainnya":8857,"Ġdimakan":8858,"Ġkeamanannya":8859,"Ġpinggir":8860,"ewaan":8861,"deka":8862,"ario":8863,"Ġmenimp":8864,"Ġmuseum":8865,"intanya":8866,"ĠBUMN":8867,"ĠTingkat":8868,"Undang":8869,"Ġsenilai":8870,"Ġketerl":8871,"Ġpermohonan":8872,"Ġtruk":8873,"Ġtertinggal":8874,"Ġmenaruh":8875,"Ġgila":8876,"uhur":8877,"Ġrelevan":8878,"Ġpengelola":8879,"BAB":8880,"Ġ>":8881,"Ġromantis":8882,"utif":8883,"Ġkunjung":8884,"zz":8885,"Ġjackpot":8886,"Ġleb":8887,"Ġteliti":8888,"unikan":8889,"omunikasi":8890,"Ġhendaknya":8891,"ensinya":8892,"Ġtimnas":8893,"Ġpelayan":8894,"ungkiri":8895,"ĠDim":8896,"Ġsor":8897,"ferensi":8898,"isensi":8899,"rit":8900,"Ġmembela":8901,"Ġdiyak":8902,"ĠKong":8903,"Ġternak":8904,"Ġdirekomendasikan":8905,"Ġdesign":8906,"Ġkontribusi":8907,"ĠTerutama":8908,"ĠâĨĴ":8909,"Ġduit":8910,"Ġbunda":8911,"Ġperkiraan":8912,"Ġsembilan":8913,"qq":8914,"Ġaut":8915,"Ġperayaan":8916,"incian":8917,"Ġapresiasi":8918,"ĠRuang":8919,"Ġdebu":8920,"Ġkutu":8921,"Ġakademik":8922,"ĠBor":8923,"Ġmengancam":8924,"Ġwork":8925,"Ġpengembang":8926,"Ġkad":8927,"Ġmenelan":8928,"Ġmiliknya":8929,"Ġoknum":8930,"uty":8931,"ĠEngkau":8932,"okia":8933,"Ġblack":8934,"Ġhakim":8935,"Ġseandainya":8936,"ikmatan":8937,"Ġbendera":8938,"ĠPembuatan":8939,"Ġilmuwan":8940,"Ġself":8941,"ube":8942,"gia":8943,"ector":8944,"Ġalk":8945,"Ġmengukur":8946,"Ġcemas":8947,"ĠTai":8948,"Ġsoci":8949,"ily":8950,"ukupi":8951,"obaan":8952,"Ġharuslah":8953,"dik":8954,"Ġsaw":8955,"Ġsusun":8956,"Aplikasi":8957,"Akhirnya":8958,"ript":8959,"SIS":8960,"Pern":8961,"Ġmemak":8962,"ĠQnC":8963,"ektar":8964,"Ġbunuh":8965,"antungan":8966,"Ġfleksi":8967,"HP":8968,"ĠPajak":8969,"Ġmbak":8970,"Ġtambahnya":8971,"Ġkualitasnya":8972,"Ġwali":8973,"siapa":8974,"ĠKerajaan":8975,"Ġdiriku":8976,"Ġbujet":8977,"Ġparu":8978,"entak":8979,"ĠStaf":8980,"ĠWat":8981,"ĠKomunikasi":8982,"Ġdibagikan":8983,"ormatan":8984,"ĠJuventus":8985,"ĠQu":8986,"Ġdisusun":8987,"Ġkritik":8988,"Ġdown":8989,"Ġkaf":8990,"Ġprob":8991,"keb":8992,"Buat":8993,"ahit":8994,"ilet":8995,"Ġhas":8996,"Ġukurannya":8997,"etas":8998,"Ġmemohon":8999,"75":9000,"Ġpertunjukan":9001,"ĠPed":9002,"Ġdirasa":9003,"Ġnasabah":9004,"Ġteror":9005,"Ġtambang":9006,"Ġdisaat":9007,"Ġotomotif":9008,"Ġra":9009,"Ġberangg":9010,"Ġapel":9011,"alifikasi":9012,"Ġadegan":9013,"asari":9014,"Ġmenyed":9015,"ĠAwalnya":9016,"ster":9017,"Ġkesibu":9018,"Ġsetan":9019,"Ġjaga":9020,"ĠBentuk":9021,"Ġpesantren":9022,"idato":9023,"embunyikan":9024,"31":9025,"Ġdefinisi":9026,"entase":9027,"ency":9028,"Acara":9029,"Ġanime":9030,"Ġmengamati":9031,"Ġdiartikan":9032,"enov":9033,"GM":9034,"ĠUKM":9035,"Ġsembar":9036,"Ġpelabuhan":9037,"Ġmengarahkan":9038,"ĠFoto":9039,"Ġmemutar":9040,"Ġberistirahat":9041,"ĠFir":9042,"ĠAlhamdulillah":9043,"Ġsembarangan":9044,"Ġharam":9045,"Ġdilansir":9046,"ĠSport":9047,"endaki":9048,"ĠMart":9049,"grasi":9050,"Ġret":9051,"kait":9052,"Ketua":9053,"Ġtercapai":9054,"oki":9055,"Ġanggur":9056,"Ġdicoba":9057,"tick":9058,"Ġdial":9059,"ĠAlex":9060,"ĠRonal":9061,"ĠBang":9062,"ĠHp":9063,"Ġterin":9064,"Ġabu":9065,"Contoh":9066,"incin":9067,"teriak":9068,"Ġlanjutan":9069,"cl":9070,"fungsi":9071,"ĠSbobet":9072,"ebon":9073,"Ġimb":9074,"Ġkental":9075,"Ġ75":9076,"Selamat":9077,"ĠJi":9078,"ĠBenar":9079,"Ġtembok":9080,"ĠBAB":9081,"Ġkemaluan":9082,"Ġmenurutnya":9083,"ipan":9084,"Ġintinya":9085,"ĠTop":9086,"Tips":9087,"Ġterwujud":9088,"Ġgames":9089,"ĠDetail":9090,"ĠAlami":9091,"sense":9092,"Ġmenghilang":9093,"info":9094,"sing":9095,"ekah":9096,"andungan":9097,"ontak":9098,"seperti":9099,"Ġhias":9100,"Ġmanfaatkan":9101,"ĠUlasan":9102,"Ġqu":9103,"Ġfree":9104,"Ġlapar":9105,"ulangan":9106,"Ġperadangan":9107,"Ġspot":9108,"Ġshop":9109,"angkas":9110,"Ġberpindah":9111,"ĠLingkungan":9112,"ĠKadang":9113,"uaya":9114,"Ġinstitusi":9115,"Ġ400":9116,"Ġmengap":9117,"ĠKart":9118,"Ġtuturnya":9119,"Ġdidasarkan":9120,"berry":9121,"saf":9122,"ĠAkibatnya":9123,"Ġmerencanakan":9124,"ĠCon":9125,"Ġperkebunan":9126,"ĠKecil":9127,"Ġmempers":9128,"enjak":9129,"Ġmelangkah":9130,"ĠTepat":9131,"ĠGunakan":9132,"Ġmentah":9133,"Ġmenanam":9134,"Ġkeringat":9135,"Ġhindari":9136,"ĠMasa":9137,"44":9138,"ĠDel":9139,"atangani":9140,"ĠSin":9141,"ĠTelkom":9142,"Ġtempuh":9143,"ohid":9144,"ĠLokasi":9145,"ĠKim":9146,"ekal":9147,"endang":9148,"etujuan":9149,"ĠOm":9150,"Ġhubungannya":9151,"inho":9152,"buk":9153,"2016":9154,"ukasi":9155,"Ġcheck":9156,"Ġperanan":9157,"Ġmenyelenggarakan":9158,"Ġdimaksudkan":9159,"ĠPenggunaan":9160,"Situs":9161,"Ġdikab":9162,"Ġseharga":9163,"Ġsolid":9164,"visi":9165,"Ġjaj":9166,"embah":9167,"Ġbodoh":9168,"ĠATM":9169,"Ġbursa":9170,"Ġmemprediksi":9171,"Langkah":9172,"rof":9173,"unjang":9174,"ĠDewi":9175,"injau":9176,"ĠNU":9177,"Ġinstagram":9178,"Hanya":9179,"Ġstar":9180,"Ġdiatasi":9181,"umbuhkan":9182,"allahu":9183,"ĠYaitu":9184,"eliharaan":9185,"Ġgabungan":9186,"tifkan":9187,"oyo":9188,"Ġnyar":9189,"Ġbersalah":9190,"ound":9191,"ĠBima":9192,"Ġditurunkan":9193,"ĠIndustri":9194,"unuhan":9195,"ogo":9196,"alinan":9197,"Makan":9198,"lum":9199,"Ġpresentasi":9200,"Ġpriv":9201,"Ġpadi":9202,"asilitasi":9203,"ĠHand":9204,"Ġbij":9205,"Ġtambahkan":9206,"ĠFit":9207,"Ġkenangan":9208,"Ser":9209,"Ġmemberitahu":9210,"'.":9211,"Ġplanet":9212,"Ġbersumber":9213,"ĠSamp":9214,"esuaian":9215,"oid":9216,"Ġlensa":9217,"ition":9218,"ĠPancasila":9219,"Ġpemberit":9220,"Ġmenghal":9221,"Ġmengantisipasi":9222,"rumah":9223,"Ġberkendara":9224,"ria":9225,"erasi":9226,"angkali":9227,"Ġdewan":9228,"Ġpew":9229,"ĠBonus":9230,"ultasi":9231,"Ġtertera":9232,"Ġsan":9233,"ĠQur":9234,"Ġperahu":9235,"Ġlangka":9236,"tig":9237,"ĠJambi":9238,"angkitkan":9239,"Ġanimasi":9240,"ague":9241,"Ġdibidang":9242,"ĠPower":9243,"ĠComp":9244,"Ġdewa":9245,"Ġsertifikasi":9246,"Ġkoordinasi":9247,"ble":9248,"abisan":9249,"antumkan":9250,"Ġsopan":9251,"Ġmutlak":9252,"ture":9253,"Ġtir":9254,"Ġdiawali":9255,"ĠPasti":9256,"Ġkeluaran":9257,"unch":9258,"ĠGolkar":9259,"Ġpenyelenggara":9260,"Ġmenghambat":9261,"Ġtingginya":9262,"Ġmedi":9263,"Ġmodifikasi":9264,"acker":9265,"Ġpengantin":9266,"Ġdompet":9267,"Ġmenguji":9268,"Ġmelekat":9269,"Ġmengaplikasikan":9270,"Ġbertanding":9271,"ipis":9272,"Ġditunjukkan":9273,"Ġpenyebaran":9274,"Ġsubur":9275,"Ġkafe":9276,"ginal":9277,"Ġpemberitahuan":9278,"udin":9279,"Ġterbakar":9280,"Ġberputar":9281,"Ġpatung":9282,"Ġpras":9283,"ondon":9284,"Ġaudio":9285,"Ġmuk":9286,"oster":9287,"ĠStar":9288,"Ġmembalas":9289,"Ġusahakan":9290,"Ġane":9291,"nes":9292,"ĠMarket":9293,"esm":9294,"ĠKeber":9295,"Ġkronis":9296,"acamata":9297,"bagian":9298,"Ġkenikmatan":9299,"Ġpsikologis":9300,"ĠÂ»":9301,"ĠKB":9302,"ĠDig":9303,"ĠGus":9304,"En":9305,"Permainan":9306,"Ġmulti":9307,"ĠBerbeda":9308,"Ġdealer":9309,"32":9310,"Res":9311,"Ġemosional":9312,"ahtera":9313,"anksi":9314,"eon":9315,"uhannya":9316,"Ġmenyesal":9317,"Ġbareng":9318,"Ġ;":9319,"Sampai":9320,"Ġmenghibur":9321,"Ġlazim":9322,"edak":9323,"ĠKari":9324,"ĠPDI":9325,"Ġsimpel":9326,"abaran":9327,"Sep":9328,"pt":9329,"Ġgerb":9330,"Tempat":9331,"Tahun":9332,"Ġsepakat":9333,"Ġpengakuan":9334,"ĠRek":9335,"Ġpengend":9336,"ĠAtas":9337,"Ġdidesain":9338,"EB":9339,"ĠAdam":9340,"Ġdigemari":9341,"Ġasap":9342,"ĠFlor":9343,"awannya":9344,"unakan":9345,"Ġdinamakan":9346,"tengah":9347,"ĠMetode":9348,"lamasi":9349,"ĠLED":9350,"Ġketerbatasan":9351,"ĠAf":9352,"Ġberwisata":9353,"Ġwarnanya":9354,"Ġkn":9355,"Ġterkemuka":9356,"Us":9357,"bur":9358,"ĠShop":9359,"atukan":9360,"Ġdijaga":9361,"ĠWali":9362,"Ġradik":9363,"Ġgil":9364,"iness":9365,"ingungan":9366,"ĠSemuanya":9367,"eritanya":9368,"Ġsumb":9369,"usuk":9370,"Ġmulus":9371,"otis":9372,"Ġmenemani":9373,"ohidrat":9374,"IA":9375,"ilin":9376,"salam":9377,"Ġpesaing":9378,"Ġpemakai":9379,"Ġmengakhiri":9380,"atasan":9381,"ks":9382,"epot":9383,"essional":9384,"Ġmenump":9385,"Ġgal":9386,"yanto":9387,"Ġneraka":9388,"Ġmenawan":9389,"Ġcadangan":9390,"Ġekstrak":9391,"Ġpungkasnya":9392,"ĠSuatu":9393,"isode":9394,"enta":9395,"Ġkemiskinan":9396,"Ġpemanfaatan":9397,"Ġmie":9398,"Ġkum":9399,"Ġangkatan":9400,"Kon":9401,"Ġangkutan":9402,"Ġmenggel":9403,"Ġusahanya":9404,"ĠHitam":9405,"ĠCenter":9406,"ĠJatim":9407,"Ġkedepannya":9408,"ĠLin":9409,"tapi":9410,"Ġbayangkan":9411,"Ġpencapaian":9412,"Ġkesayangan":9413,"Ġgul":9414,"39":9415,"Biasanya":9416,"Ġsemesta":9417,"Ġcacat":9418,"kesmas":9419,"ĠPerg":9420,"ĠSim":9421,"mel":9422,"Ġalasannya":9423,"gy":9424,"Ġsendi":9425,"dua":9426,"enalan":9427,"Ġpengadilan":9428,"ĠGel":9429,"Ġmenembus":9430,"Ġpenja":9431,"Ġpegunungan":9432,"Ġsaraf":9433,"Ġmerangk":9434,"Ġmencob":9435,"Ġdibersihkan":9436,"okrat":9437,"Ġjelaskan":9438,"ĠWal":9439,"Ġuk":9440,"ĠCil":9441,"Ġlag":9442,"ĠKebanyakan":9443,"kala":9444,"Ġblok":9445,"Ġimpikan":9446,"Ġakuntansi":9447,"Ġpemak":9448,"Ġmerebut":9449,"Ðº":9450,"ĠMelihat":9451,"Ġterkini":9452,"atalkan":9453,"Ġtercipta":9454,"Ġmerayakan":9455,"asuh":9456,"Ġsastra":9457,"ĠKulit":9458,"ĠPA":9459,"ĠMr":9460,"EP":9461,"Ġtolong":9462,"ĠGreen":9463,"inue":9464,"over":9465,"pertinya":9466,"enovo":9467,"Ġsemestinya":9468,"ĠTangan":9469,"lama":9470,"Ġdistribusi":9471,"Ġberagama":9472,"aksanaan":9473,"ĠHid":9474,"operasikan":9475,"Ġcokelat":9476,"38":9477,"ĠMe":9478,"Ġkarpet":9479,"Ġberkali":9480,"my":9481,"Ġdiset":9482,"empuran":9483,"Ġsayap":9484,"Ġprinter":9485,"Ġbulanan":9486,"ĠCalon":9487,"ĠSn":9488,"ĠOt":9489,"onic":9490,"intik":9491,"ĠMengh":9492,"Ġgem":9493,"erm":9494,"Ġbertahap":9495,"ĠInfo":9496,"Ġdiyakini":9497,"Ġucapnya":9498,"Ġpiala":9499,"ublikasikan":9500,"Ġlembar":9501,"Ġpenyus":9502,"ĠNy":9503,"eimbangan":9504,"Ġditempuh":9505,"Ġsejuk":9506,"Ġpenyer":9507,"Ġmengabaikan":9508,"Ġpenguasa":9509,"alisa":9510,"ä¸":9511,"entina":9512,"ĠSDM":9513,"Ġkreativitas":9514,"Ġdipelajari":9515,"ĠDaya":9516,"opuler":9517,"Ġkemampuannya":9518,"ĠAngkatan":9519,"endidikan":9520,"luk":9521,"Ġmenggi":9522,"Ġterimakasih":9523,"Ġcampur":9524,"ĠRom":9525,"Ġberawal":9526,"Ġkeda":9527,"ĠCepat":9528,"ĠSegera":9529,"Ġmemancing":9530,"Ġpotong":9531,"ustrasi":9532,"estina":9533,"ĠWalau":9534,"apasitas":9535,"Ġberw":9536,"Ġkesal":9537,"Ġberaneka":9538,"Ùħ":9539,"ayasan":9540,"Ġmengacu":9541,"ĠDrs":9542,"âĢ¦âĢ¦":9543,"Ġdipergunakan":9544,"Ġnyawa":9545,"ompat":9546,"Ġsipil":9547,"aruan":9548,"tions":9549,"Ġtwitter":9550,"Ġkeag":9551,"Ġditinggalkan":9552,"Ġbalita":9553,"grade":9554,"ĠTeman":9555,"Ġusianya":9556,"Ġnuansa":9557,"ĠJad":9558,"ĠBantu":9559,"ibadah":9560,"Fi":9561,"cm":9562,"ĠMenggunakan":9563,");":9564,"Ġpeneg":9565,"ĠKalian":9566,"rahim":9567,"Ġtidaknya":9568,"Ġmembuatku":9569,"usiaan":9570,"Ġjenjang":9571,"ĠSoekarno":9572,"enjar":9573,"Ġmemain":9574,"Ġmenutur":9575,"unyi":9576,"alib":9577,"Ġikatan":9578,"otret":9579,"Ġdihindari":9580,"Ġbertentangan":9581,"ĠGu":9582,"Ġmengeluh":9583,"Ġkepadamu":9584,"Ġyou":9585,"ĠJawab":9586,"ĠUntung":9587,"Ġberkh":9588,"ĠFre":9589,"ĠDenpasar":9590,"Ġmeman":9591,"Ġberdaya":9592,"Ġtingkatan":9593,"orsi":9594,"buru":9595,"ĠPengadilan":9596,"aruda":9597,"ĠSol":9598,"ahabatan":9599,"Ġjagung":9600,"Ġ2003":9601,"oan":9602,"Ibu":9603,"Man":9604,"uriah":9605,"Ġpered":9606,"Ġdepresi":9607,"esona":9608,"Ġdibekali":9609,"Sh":9610,"Ġmengira":9611,"Ġstatistik":9612,"Perlu":9613,"omong":9614,"Demikianlah":9615,"ĠKelompok":9616,"eliling":9617,"Ġhukumnya":9618,"Ġjej":9619,"ĠViv":9620,"ĠIndah":9621,"Ġhitungan":9622,"Ġsemi":9623,"Ġkepalanya":9624,"Ġsambutannya":9625,"ĠBeliau":9626,"46":9627,"ĠBersama":9628,"Ġmenuturkan":9629,"Ġfantas":9630,"Ġterjebak":9631,"hitungkan":9632,"jika":9633,"Ġtool":9634,"Ġkebingungan":9635,"Ġterhitung":9636,"âĢ¢":9637,"Ġinci":9638,"ĠHasan":9639,"Ġkerajinan":9640,"Ġkasur":9641,"Ġsocial":9642,"Ġstand":9643,"resif":9644,"iny":9645,"Ġfirman":9646,"Ġpanel":9647,"Ġdian":9648,"Ġberpuasa":9649,"INE":9650,"usul":9651,"ĠLeg":9652,"Ġditerbitkan":9653,"Ġnelayan":9654,"ship":9655,"dir":9656,"Ġperdana":9657,"ĠSehat":9658,"ĠLu":9659,"Ġkandidat":9660,"ĠTo":9661,"Ġbetah":9662,"ĠHampir":9663,"aparkan":9664,"ĠYusuf":9665,"Ġsyukur":9666,"ĠMor":9667,"Ġlukisan":9668,"Ġasyik":9669,"ĠGejala":9670,"rea":9671,"Ġpatah":9672,"Ġdiw":9673,"Ġmampir":9674,"Agar":9675,"Ġvendor":9676,"Ġkandung":9677,"Ġpertamanya":9678,"ymp":9679,"Ġdatabase":9680,"Ġawam":9681,"Ġtepung":9682,"jual":9683,"ĠCan":9684,"ĠCuma":9685,"Tern":9686,"ulisan":9687,"Ġdisamping":9688,"ĠYunani":9689,"ĠHarus":9690,"ĠHe":9691,"Ġgonore":9692,"ĠUmumnya":9693,"Ġhektar":9694,"Ġkeseh":9695,"QQ":9696,"Ġmenumbuhkan":9697,"Ġwujudkan":9698,"ipang":9699,"emprov":9700,"IC":9701,"ĠTah":9702,"temannya":9703,"Ġberjarak":9704,"akunya":9705,"aft":9706,"Ġsekelompok":9707,"?.":9708,"oke":9709,"graf":9710,"49":9711,"aitun":9712,"ĠRiz":9713,"Ġkehendak":9714,"injam":9715,"ĠBh":9716,"sebut":9717,"Ġmaster":9718,"ÙĲ":9719,"Ġwall":9720,"Ġspiritual":9721,"edo":9722,"Ġdipungkiri":9723,"Ġhambatan":9724,"stall":9725,"Ġkesibukan":9726,"urt":9727,"ecah":9728,"Ġlokasinya":9729,"Ġribet":9730,"SP":9731,"amaian":9732,"afal":9733,"Ġpengisian":9734,"umpur":9735,"Ġdiobati":9736,"Ġmad":9737,"ĠSony":9738,"ĠBelajar":9739,"OC":9740,"ĠResmi":9741,"Ġpembunuhan":9742,"Ġles":9743,"ĠXL":9744,"KA":9745,"ĠDist":9746,"aleg":9747,"Ġberbisnis":9748,"eaming":9749,"Ġjilbab":9750,"Ġpsikologi":9751,"ĠJin":9752,"Ġbawaan":9753,"ection":9754,"NA":9755,"Ġteras":9756,"Ġpotensial":9757,"Ġrental":9758,"ery":9759,"adaptasi":9760,"Ġprov":9761,"Ġsharing":9762,"carat":9763,"ĠTerkadang":9764,"rom":9765,"engkakan":9766,"jauh":9767,"Ġ1945":9768,"ĠPLN":9769,"ĠKang":9770,"Ġkit":9771,"Ġmudik":9772,"Ġpengadaan":9773,"Ġmenjadikannya":9774,"ĠPenyebab":9775,"Ġub":9776,"zan":9777,"MD":9778,"ĠChar":9779,"juangkan":9780,"ird":9781,"ĠDAN":9782,"Ġdiin":9783,"Ġsampe":9784,"mon":9785,"TC":9786,"Ġreli":9787,"Ġpersegi":9788,"ĠHong":9789,"ring":9790,"emia":9791,"Ġdilah":9792,"oka":9793,"Ch":9794,"Ġfac":9795,"JA":9796,"ĠHu":9797,"Ġbasis":9798,"Ġtumor":9799,"izinkan":9800,"UB":9801,"Ġmenduduki":9802,"Ġdimilikinya":9803,"Ġlingkaran":9804,"rot":9805,"Ġdilaporkan":9806,"TR":9807,"ĠCeme":9808,"bilitas":9809,"alasan":9810,"Ġkepemilikan":9811,"Ġalumni":9812,"Ġditingkatkan":9813,"empah":9814,"Ġlas":9815,"Ġprajurit":9816,"Ġmenteri":9817,"dayaan":9818,"DAH":9819,"Ġnga":9820,"Is":9821,"Ġharusnya":9822,"arungan":9823,"ĠWilayah":9824,"ĠArg":9825,"Ġrumput":9826,"aq":9827,"ĠOut":9828,"angganan":9829,"apis":9830,"ijat":9831,"Ġperadaban":9832,"Ġatasnya":9833,"ĠLas":9834,"Ġmengawasi":9835,"inggalan":9836,"ĠFull":9837,"bisa":9838,"Ġbambu":9839,"ekuatan":9840,"Ġarsitektur":9841,"ĠFin":9842,"Ġperkataan":9843,"arna":9844,"Ġ--":9845,"ĠSeluruh":9846,"elapan":9847,"Ġberter":9848,"Ġpembiayaan":9849,"Ġlarangan":9850,"Ġurat":9851,"ĠLuar":9852,"emasan":9853,"Ġpercakapan":9854,"Ġbukannya":9855,"Ternyata":9856,"egoro":9857,"Ġeksk":9858,"Ġbudidaya":9859,"Ġbangku":9860,"Ġongkir":9861,"misi":9862,"Tujuan":9863,"Ġ195":9864,"Ġberkelanjutan":9865,"awinan":9866,"Ġruk":9867,"Ġformasi":9868,"Tim":9869,"Ġmenun":9870,"Ġje":9871,"Ġkualifikasi":9872,"Ġmemainkannya":9873,"Ġmenggabungkan":9874,"Ġbea":9875,"66":9876,"Ġgrafik":9877,"bk":9878,"ĠBung":9879,"truasi":9880,"Ġdibalik":9881,"alla":9882,"ilat":9883,"Ġkomer":9884,"rasah":9885,"Ġpermain":9886,"ange":9887,"Ġsendok":9888,"Ġbatin":9889,"jenis":9890,"Ġdialog":9891,"Ġsambutan":9892,"ampilannya":9893,"andalkan":9894,"oskop":9895,"Ġtv":9896,"Ġseksi":9897,"vis":9898,"Ġfotografi":9899,"olakan":9900,"Ġkeberangkatan":9901,"Ġmama":9902,"Ġfre":9903,"dak":9904,"ating":9905,"Ġketers":9906,"ĠGratis":9907,"Ġmenghidup":9908,"Ġsebatas":9909,"Ġsimpan":9910,"Ġsawah":9911,"ĠLum":9912,"utra":9913,"uwangi":9914,"ades":9915,"Dil":9916,"draw":9917,"Ġiklim":9918,"ĠHasilnya":9919,"Ġmengunduh":9920,"Ġritual":9921,"spek":9922,"osal":9923,"Ġbermakna":9924,"Ġkeyboard":9925,"Ġcapsa":9926,"Ġhadapi":9927,"Ġberkarya":9928,"Ġaud":9929,"Ġdiserahkan":9930,"ĠZen":9931,"Ġmendapati":9932,"iskusi":9933,"Ġdilepas":9934,"ĠUmar":9935,"Ġkait":9936,"ĠTetap":9937,"Ġdilakukannya":9938,"read":9939,"Quran":9940,"ĠRonaldo":9941,"ĠBI":9942,"Ġlam":9943,"isih":9944,"Ġterpenuhi":9945,"Ġbekal":9946,"ipe":9947,"Ġdominan":9948,"Ġpur":9949,"ĠLondon":9950,"Ġfinish":9951,"Ġmemukul":9952,"Ġmemindahkan":9953,"ĠLagi":9954,"Ġoke":9955,"ingati":9956,"Ġbuyer":9957,"ĠTar":9958,"embak":9959,"bawah":9960,"Ġrezeki":9961,"Ġten":9962,"Ġbersiap":9963,"hannel":9964,"Ġpenemuan":9965,"Ġras":9966,"Ġlaris":9967,"mener":9968,"Ġmasukkan":9969,"Ġ~":9970,"ĠLive":9971,"ĠGrand":9972,"Ġimam":9973,"mus":9974,"empar":9975,"Ġdagang":9976,"Ġsex":9977,"icipi":9978,"Ġmengantarkan":9979,"ĠReg":9980,"Ġ34":9981,"ĠBM":9982,"ilkan":9983,"Ġbayangan":9984,"ipina":9985,"Ġmengatasinya":9986,"Nama":9987,"ategi":9988,"Ġbakso":9989,"Ġdapet":9990,"Kata":9991,"market":9992,"ĠOppo":9993,"Ġalkohol":9994,"ĠPromo":9995,"ulator":9996,"ENG":9997,"okerto":9998,"Kom":9999,"Ġtoilet":10000,"EC":10001,"Ġkesenangan":10002,"Ġmemperluas":10003,"apol":10004,"Ġmemeluk":10005,"puk":10006,"ĠPariwisata":10007,"Har":10008,"ĠKara":10009,"Program":10010,"Ġprib":10011,"Ġoriginal":10012,"esaian":10013,"ĠInternational":10014,"king":10015,"bag":10016,"ĠPengel":10017,"ĠAnt":10018,"Ġmemantau":10019,"Ġkelima":10020,"Ġditarik":10021,"Ġberjanji":10022,"ĠBahwa":10023,"Ġdiperbolehkan":10024,"ĠTex":10025,"Ġheb":10026,"Ġkeseimbangan":10027,"Ġkarbohidrat":10028,"book":10029,"Ġpertarungan":10030,"ĠRad":10031,"ĠCC":10032,"ĠPerempuan":10033,"landia":10034,"Ġdimanapun":10035,"ĠMobile":10036,"Ġbom":10037,"umentasi":10038,"Ø§ÙĦ":10039,"Ġpersetujuan":10040,"ĠCV":10041,"Pol":10042,"usuri":10043,"rogen":10044,"Ġnominal":10045,"rap":10046,"biotik":10047,"å¤":10048,"ciri":10049,"Ġserial":10050,"ĠWhatsApp":10051,"Ġinstalasi":10052,"ombinasikan":10053,"yaknya":10054,"less":10055,"Ġsanksi":10056,"Ġmeletakkan":10057,"Ġkompetitif":10058,"Ġsolusinya":10059,"ĠKTP":10060,"ebutkan":10061,"Ġefisiensi":10062,"urangi":10063,"ĠPalestina":10064,"Ġintelek":10065,"ĠYayasan":10066,"Ġtimbulnya":10067,"lazada":10068,"Ġ64":10069,"Ġemb":10070,"ĠNokia":10071,"Ġmicro":10072,"ĠISO":10073,"ĠCirebon":10074,"ĠSir":10075,"Ġberakibat":10076,"amer":10077,"Ġbuta":10078,"Ġkarier":10079,"Ġmeningkatnya":10080,"ĠKelamin":10081,"Ġeksim":10082,"ebo":10083,"ĠPon":10084,"SL":10085,"oksidan":10086,"Daftar":10087,"Ø±":10088,"Ġpencipta":10089,"Mod":10090,"rek":10091,"Ġseekor":10092,"ĠAmin":10093,"SA":10094,"ĠUkuran":10095,"Ġbelah":10096,"ĠKeputusan":10097,"Ġpedoman":10098,"Ġalur":10099,"Ġdiandalkan":10100,"etron":10101,"Ġsekiranya":10102,"Ġdsb":10103,"ĠPram":10104,"Ġ38":10105,"Ġsukar":10106,"Ġbimbingan":10107,"Ġsegmen":10108,"ebaskan":10109,"Ġtergabung":10110,"Ġwahana":10111,"âĢĺ":10112,"ĠKeduanya":10113,"ĠSant":10114,"Ġlanjutnya":10115,"ĠMark":10116,"Ġvalid":10117,"fik":10118,"ĠGrup":10119,"chi":10120,"Ġmenged":10121,"Ġdiperiksa":10122,"venir":10123,"Ġcu":10124,"aporan":10125,"Ġdisambut":10126,"atah":10127,"aduk":10128,"oi":10129,"Ġmencukupi":10130,"ĠKampung":10131,"angkangan":10132,"ĠLeague":10133,"Ġseluas":10134,"Ġpelanggannya":10135,"ĠMoto":10136,"Ġmemunculkan":10137,"Ġmenstruasi":10138,"orangan":10139,"ejarah":10140,"Ġdiproses":10141,"dis":10142,"Ġmengerikan":10143,"Ġngeb":10144,"ĠMuseum":10145,"Ġberteriak":10146,"ĠHab":10147,"Ġterakhirnya":10148,"ebatan":10149,"kat":10150,"05":10151,"Ġreput":10152,"Ġrutinitas":10153,"iris":10154,"Ġzakat":10155,"Ġumpan":10156,"ĠContinue":10157,"08":10158,"ĠYork":10159,"Ġsedap":10160,"adisi":10161,"Ġhadirnya":10162,"Proses":10163,"Ġmp":10164,"Ġmendasar":10165,"mark":10166,"Ġasa":10167,"Ġinstrumen":10168,"Ġpiring":10169,"Informasi":10170,"Ġkonveksi":10171,"ĠGat":10172,"ĠHel":10173,"Ġmum":10174,"Ġpekerjaannya":10175,"ĠBayi":10176,"ĠTiga":10177,"ĠDib":10178,"Ġjejak":10179,"Ġturis":10180,"Ġpemeliharaan":10181,"Ġsmart":10182,"Ġtemplate":10183,"Jual":10184,"Ġdevel":10185,"AND":10186,"tle":10187,"Ġdarurat":10188,"saat":10189,"Ġlutut":10190,"Ġkeliling":10191,"Ġï":10192,"ĠBB":10193,"ĠOlymp":10194,"Ġkedudukan":10195,"Ġseumur":10196,"Ġflu":10197,"riend":10198,"Ġmengamankan":10199,"Ġwindows":10200,"Ġmemperl":10201,"etahuinya":10202,"Ġjepang":10203,"aging":10204,"ĠPBB":10205,"ĠBambang":10206,"ĠBud":10207,"untah":10208,"abrikan":10209,"pin":10210,"ESI":10211,"ĠBNI":10212,"Ġmenimpa":10213,"itraan":10214,"etis":10215,"abol":10216,"Ġular":10217,"Ġongkos":10218,"Ġpengamatan":10219,"Ġjelek":10220,"ĠSuriah":10221,"Ġtempo":10222,"*)":10223,"78":10224,"ava":10225,"Ġnyaris":10226,"amuk":10227,"sigen":10228,"ĠMaluku":10229,"ĠPertamina":10230,"Kini":10231,"Inilah":10232,"Ġget":10233,"estik":10234,"ains":10235,"Ġbuaya":10236,"Ġarena":10237,"Ġtingkah":10238,"DAHUL":10239,"Ġairnya":10240,"Ġatasan":10241,"Ġmencobanya":10242,"jib":10243,"Waktu":10244,"ecahan":10245,"ĠCat":10246,"als":10247,"Ġmenebak":10248,"uble":10249,"ĠKetiga":10250,"ĠDid":10251,"Ġmenguatkan":10252,"Ġsyariah":10253,"ĠPihak":10254,"Ġjamaah":10255,"Ġbunyi":10256,"aktanya":10257,"ĠDay":10258,"Ġsari":10259,"Ġdiperbaiki":10260,"DAHULUAN":10261,"Ġ01":10262,"Ġsawit":10263,"Ġdisitu":10264,"Ġreputasinya":10265,"Ġsejenak":10266,"perusahaan":10267,"ujukan":10268,"Ġfantastis":10269,"ĠHi":10270,"Ġmenyebutnya":10271,"emon":10272,"Ġmaksudnya":10273,"UHAN":10274,"Ġadonan":10275,"Ġterlengkap":10276,"ĠSoc":10277,"ĠPertanian":10278,"ĠHat":10279,"iliasi":10280,"Ġpelan":10281,"ombong":10282,"aparan":10283,"Ġgairah":10284,"Ġditolak":10285,"ĠPeserta":10286,"Ġstadium":10287,"Ġkeunikan":10288,"Penyakit":10289,"34":10290,"Ġdinamis":10291,"ĠTata":10292,"Ġmendesak":10293,"onegoro":10294,"ikasikan":10295,"Ġsale":10296,"Ġkeped":10297,"Ġberprestasi":10298,"ml":10299,"Ġmaksimum":10300,"ĠSalam":10301,"Ġkekebalan":10302,"ĠBanyuwangi":10303,"Ġtemuan":10304,"Ġcitra":10305,"afsir":10306,"Ġgara":10307,"ĠKul":10308,"utrad":10309,"Ġmenjelajah":10310,"zo":10311,"Ġhy":10312,"optimalkan":10313,"iasi":10314,"Ġkomersial":10315,"Ġmeyakini":10316,"Ġditunggu":10317,"ĠKediri":10318,"Ġindepend":10319,"yn":10320,"Ġpengerjaan":10321,"eek":10322,"Ġmonitor":10323,"Ġdulunya":10324,"Ġpembinaan":10325,"ĠMaria":10326,"Ġmenunjuk":10327,"Ġkart":10328,"ĠBed":10329,"Ġrok":10330,"Ġdor":10331,"Ġtentukan":10332,"ĠDanau":10333,"Ġmengidentifikasi":10334,"Ġprimer":10335,"Ġlu":10336,"ĠPremier":10337,"Ġpolos":10338,"ĠQQ":10339,"elam":10340,"erankan":10341,"Ġdikala":10342,"ersey":10343,"Ġhiasan":10344,"ĠNote":10345,"Ġpenangk":10346,"Ġhaid":10347,"Ġbid":10348,"alem":10349,"Ġwarisan":10350,"Ġgig":10351,"ĠBerita":10352,"ÙĴ":10353,"Ġzaitun":10354,"gara":10355,"Ġmall":10356,"Ġspesialis":10357,"Ġlaboratorium":10358,"Ġseniman":10359,"ulukan":10360,"ĠAy":10361,"situs":10362,"ĠPilihan":10363,"box":10364,"erintahkan":10365,"Ġdetailnya":10366,"ongg":10367,"hawatiran":10368,"aktur":10369,"Ġserangga":10370,"hawatirkan":10371,"ĠSipilis":10372,"Ġjodoh":10373,"Ġmustah":10374,"Ġputr":10375,"Ġprofessional":10376,"Ġna":10377,"evaluasi":10378,"Ġkesatuan":10379,"Ġrekaman":10380,"ĠTimnas":10381,"door":10382,"Ġetika":10383,"Ġsiaran":10384,"apor":10385,"Ġkesabaran":10386,"Ġbersantai":10387,"update":10388,"Ġdilahirkan":10389,"fum":10390,"Ġpenetapan":10391,"Ġmeminum":10392,"Walaupun":10393,"untun":10394,"Ġboneka":10395,"Ġterbanyak":10396,"olor":10397,"Ġkomplit":10398,"Ġterminal":10399,"ĠCek":10400,"ĠPENDAHULUAN":10401,"idap":10402,"Min":10403,"ĠBukit":10404,"Ġlal":10405,"Ġhom":10406,"Ġsampel":10407,"Ġdibagian":10408,"Ġmemisahkan":10409,"aza":10410,"Ġotor":10411,"eknya":10412,"Ġyoutube":10413,"ĠJar":10414,"Ġberibadah":10415,"Ġmenenangkan":10416,"ĠSebaiknya":10417,"Ġmenaikkan":10418,"Ġcincin":10419,"Sesungguhnya":10420,"ĠKos":10421,"Ġdiakibatkan":10422,"Ġlemon":10423,"ĠTokyo":10424,"Ġengine":10425,"Ġberkes":10426,"Ġberkapasitas":10427,"Ġketersediaan":10428,"ankan":10429,"mah":10430,"Ġrasio":10431,"Ġmenandakan":10432,"ĠRem":10433,"Ñĥ":10434,"ĠTun":10435,"Ġmenghormati":10436,"Ġpercobaan":10437,"Ġditimb":10438,"Ġdilalui":10439,"Ġkoran":10440,"Ġjikalau":10441,"ĠNature":10442,"ĠMaster":10443,"efinisikan":10444,"Ġterapkan":10445,"lier":10446,"Ġbelahan":10447,"isahan":10448,"Dit":10449,"Ġnampaknya":10450,"atuhkan":10451,"ingkirkan":10452,"Ġtonton":10453,"Ġberbau":10454,"Ġpenggunaannya":10455,"Ġden":10456,"Ġdemo":10457,"ĠHati":10458,"agan":10459,"Ġfrekuensi":10460,"ĠDavid":10461,"Ġberinvestasi":10462,"ĠPekerjaan":10463,"aminan":10464,"Ġpartisipasi":10465,"Ġjin":10466,"Ġkeadilan":10467,"ale":10468,"Ġguy":10469,"Ġulas":10470,"Ġmitos":10471,"ĠKH":10472,"Ġdicampur":10473,"Ġ39":10474,"Ġpangkal":10475,"Ġmereferensi":10476,"Ġjalankan":10477,"Ġdakwah":10478,"Ġcard":10479,"ĠSaw":10480,"Ġvirtual":10481,"ormal":10482,"Ġkelenjar":10483,"Ġsembari":10484,"Ġikhlas":10485,"ous":10486,"Ġberser":10487,"Ġbertarung":10488,"ĠKalo":10489,"ĠEver":10490,"ĠRatu":10491,"Ġsemenjak":10492,"At":10493,"ĠBlogger":10494,"Ġkemanusiaan":10495,"ĠSungguh":10496,"ukiman":10497,"Ġpembengkakan":10498,"ĠPolda":10499,"ĠPerp":10500,"Ġbercinta":10501,"Ġtercantum":10502,"ĠTor":10503,"eransi":10504,"Ġkabin":10505,"ĠBrasil":10506,"ĠNggak":10507,"Kali":10508,"pal":10509,"Ġip":10510,"ĠTenaga":10511,"Ġtiang":10512,"menerus":10513,"ĠHAM":10514,"Ġbok":10515,"osen":10516,"abda":10517,"Ġhist":10518,"Ġall":10519,"Ġkomoditas":10520,"KS":10521,"enap":10522,"pers":10523,"Ġcover":10524,"MP":10525,"ĠProp":10526,"ever":10527,"bol":10528,"Ġmenggali":10529,"ĠPendaftaran":10530,"Ġkabur":10531,"Ġspe":10532,"Ġtanggapan":10533,"loud":10534,"ĠLatar":10535,"istan":10536,"ikanan":10537,"otot":10538,"onden":10539,"ĠPlakat":10540,"Ġmemerintahkan":10541,"Ġle":10542,"ĠLama":10543,"Ġtanyakan":10544,"Ġaccount":10545,"enggam":10546,"yai":10547,"Ġdiumumkan":10548,"emaat":10549,"Ġcelah":10550,"ĠTentang":10551,"Ġnew":10552,"kem":10553,"Ġqiu":10554,"par":10555,"Ġposisinya":10556,"Ġsambung":10557,"Ġwater":10558,"ĠFungsi":10559,"ĠBPOM":10560,"zer":10561,"ĠTIX":10562,"br":10563,"Ġdev":10564,"Ġpersahabatan":10565,"ĠBukankah":10566,"Ġmang":10567,"uke":10568,"Ġdirawat":10569,"Ġjadinya":10570,"uncuran":10571,"ĠIQ":10572,"du":10573,"ancam":10574,"angkir":10575,"Ġpasangannya":10576,"ĠLenovo":10577,"Ġsuar":10578,"egritas":10579,"astis":10580,"Ġmengharuskan":10581,"egangan":10582,"esaan":10583,"apannya":10584,"Ġjantan":10585,"ĠPener":10586,"Ġpertolongan":10587,"Manfaat":10588,"Ġkaitannya":10589,"ĠBan":10590,"Com":10591,"Ġdatar":10592,"Ġsaud":10593,"ĠDepartemen":10594,"Ġleluasa":10595,"rok":10596,"PG":10597,"ĠIran":10598,"Ġhawa":10599,"Ġminimum":10600,"Ġchar":10601,"Ġkakinya":10602,"ĠBangsa":10603,"Ġbas":10604,"Ġpred":10605,"ĠMis":10606,"Ġdollar":10607,"Ġsejalan":10608,"ĠRis":10609,"Ġanggotanya":10610,"Ġkuant":10611,"Ġpenghuni":10612,"engsi":10613,"uguhkan":10614,"adio":10615,"Ġtersembunyi":10616,"Ġiri":10617,"ĠBCA":10618,"ĠSultan":10619,"Ġsenam":10620,"AG":10621,"ĠNatal":10622,"Ġ120":10623,"Ġhehehe":10624,"incang":10625,"uncak":10626,"ĠMadura":10627,"Ġsesekali":10628,"Ġdisimp":10629,"Ġtabung":10630,"Ġmembuktikannya":10631,"mun":10632,"anamkan":10633,"Ġpertambangan":10634,"ĠPutra":10635,"ĠOperasi":10636,"ĠBac":10637,"Ġpeminat":10638,"aftarkan":10639,"ĠCik":10640,"ĠParis":10641,"ĠHot":10642,"masin":10643,"kk":10644,"Ġpikirkan":10645,"ĠTubuh":10646,"Ġsearch":10647,"cc":10648,"Ġbengkak":10649,"eknologi":10650,"ĠES":10651,"Ġditunjuk":10652,"ĠOrganisasi":10653,"Ġkeluarkan":10654,"Ġmantap":10655,"Ġdatangnya":10656,"2015":10657,"ĠHend":10658,"enian":10659,"ety":10660,"ĠMir":10661,"Ġmengecewakan":10662,"plorasi":10663,"Ġcandi":10664,"Ġbandung":10665,"ucian":10666,"Ġtit":10667,"PL":10668,"Ġtugasnya":10669,"Ġdirencanakan":10670,"Ġkentang":10671,"inja":10672,"Ġpersepsi":10673,"rong":10674,"Ġbakalan":10675,"Ġmerangsang":10676,"Ġreb":10677,"ĠSesungguhnya":10678,"Ġherpes":10679,"Ġpengendara":10680,"Ġtro":10681,"Ġmenerangkan":10682,"Ġimplem":10683,"esitas":10684,"hot":10685,"Ġpra":10686,"ĠREG":10687,"ĠPemprov":10688,"ĠKing":10689,"Terima":10690,"Ġbalapan":10691,"RL":10692,"ĠAsus":10693,"ĠCard":10694,"Ġmemanjakan":10695,"ĠOper":10696,"ombak":10697,"pas":10698,"Ġlans":10699,"Ġ55":10700,"ru":10701,"Ġmakam":10702,"Ġmelarikan":10703,"ĠLaptop":10704,"Ġreproduksi":10705,"Jawa":10706,"ĠBoy":10707,"ĠComm":10708,"ĠCream":10709,"Ġkondisinya":10710,"wo":10711,"ĠPekanbaru":10712,"Ġrekor":10713,"Ġproblem":10714,"dar":10715,"Ġmengor":10716,"ĠOption":10717,"Ġmeriah":10718,"utih":10719,"Ġsekeliling":10720,"Ġseluruhnya":10721,"Ġdipersiapkan":10722,"oin":10723,"Ġdriver":10724,"icial":10725,"Ġmenyala":10726,"Ġpemul":10727,"Ġmemasarkan":10728,"Ġkaw":10729,"Ġdiungkapkan":10730,"ondong":10731,"Ġminus":10732,"Ġperab":10733,"Jenis":10734,"47":10735,"ĠUni":10736,"Ġmenyeluruh":10737,"Ġterkecuali":10738,"ĠService":10739,"ĠGal":10740,"Ġlingkup":10741,"enuhan":10742,"ĠSesuai":10743,"entum":10744,"ÙĬ":10745,"uluan":10746,"Ġlogika":10747,"ĠLain":10748,"Ġ).":10749,"ĠSipil":10750,"Memiliki":10751,"Ġwat":10752,"Ġpuisi":10753,"ayanya":10754,"Ġedisi":10755,"imanya":10756,"Ġudang":10757,"Ġpelindung":10758,"Ġpebisnis":10759,"Ġperak":10760,"Ġdipisahkan":10761,"Bel":10762,"ĠGaruda":10763,"Ġ37":10764,"ĠAnggaran":10765,"Ġdesainer":10766,"ĠMini":10767,"Ĥ¬":10768,"Ġoksigen":10769,"Ġmisal":10770,"ãĢ":10771,"Ġbukunya":10772,"ataram":10773,"Ġmustahil":10774,"inah":10775,"aps":10776,"ĠLee":10777,"Ġinstall":10778,"pi":10779,"uel":10780,"jemahkan":10781,"Ġgrosir":10782,"Ġblu":10783,"Ġwal":10784,"Dua":10785,"Ġrekomendasikan":10786,"Ġrangk":10787,"Kenapa":10788,"Ġingatan":10789,"ulin":10790,"Ġkomik":10791,"Ġpolit":10792,"ĠUdara":10793,"ĠDewa":10794,"ĠBudaya":10795,"Ġhigh":10796,"mani":10797,"til":10798,"upang":10799,"ĠRasanya":10800,"ihar":10801,"Ġibukota":10802,"Ġtelapak":10803,"Ġkuk":10804,"Ġkop":10805,"endapatkan":10806,"rist":10807,"integrasi":10808,"Ġpengajaran":10809,"Ġpendidik":10810,"ĠTinggal":10811,"Ġskripsi":10812,"ĠPerang":10813,"Ġpenyelesaian":10814,"Ġtrop":10815,"Ġsurvey":10816,"Ġtersel":10817,"imi":10818,"ĠInsya":10819,"Ġilegal":10820,"mos":10821,"Ġamalan":10822,"Ġmenyakitkan":10823,"tory":10824,"ĠDPD":10825,"puni":10826,"apore":10827,"ĠMusa":10828,"Ġsumur":10829,"eel":10830,"Ġdikaitkan":10831,"Ġkapsul":10832,"acetan":10833,"Ġ2002":10834,"Ġkemas":10835,"Ġsemen":10836,"Ġcont":10837,"duct":10838,"Ġalis":10839,"ĠDusun":10840,"Ġletaknya":10841,"yc":10842,"Ġakhirat":10843,"Ġditimbulkan":10844,"hab":10845,"alar":10846,"ĠJum":10847,"ĠTemp":10848,"ĠGa":10849,"Ġbetina":10850,"daerah":10851,"Ġkerag":10852,"istrib":10853,"ĠTugas":10854,"ĠMom":10855,"masa":10856,"ute":10857,"Ġterendah":10858,"ektorat":10859,"Ġpemiliknya":10860,"Ġdikemas":10861,"Ġgemuk":10862,"Ġekspresi":10863,"ĠMun":10864,"Ġpembu":10865,"etus":10866,"Ġadu":10867,"eth":10868,"ikmah":10869,"ietnam":10870,"jangan":10871,"Ġbertempat":10872,"EF":10873,"abolisme":10874,"safat":10875,"Ġpengikut":10876,"Ġregulasi":10877,"ĠFasilitas":10878,"injak":10879,"Ġukur":10880,"tukar":10881,"bulan":10882,"Ġinisi":10883,"agement":10884,"Ġedukasi":10885,"Bisa":10886,"Ġamanah":10887,"Ġmembikin":10888,"ĠSuci":10889,"ĠJati":10890,"umbang":10891,"Ġrohani":10892,"ĠRaf":10893,"ulette":10894,"lami":10895,"Ġmedali":10896,"Ġungkapan":10897,"anggan":10898,"Ġklinik":10899,"Inf":10900,"ernih":10901,"Ġmenyembunyikan":10902,"Ġkegunaan":10903,"Ġmereferensikannya":10904,"Ġmembangkitkan":10905,"Ġmemperbesar":10906,"angd":10907,"oth":10908,"ĠKarang":10909,"Ġbantal":10910,"ekanan":10911,"Ġmasalahnya":10912,"Ùĩ":10913,"Ġnetizen":10914,"Ġsyah":10915,"anggakan":10916,"Ġmult":10917,"isap":10918,"anyikan":10919,"ĠSari":10920,"ĠMI":10921,"ĠTER":10922,"Ġmenyimpulkan":10923,"vers":10924,"tug":10925,"Ġmenyis":10926,"ĠLantas":10927,"hubungan":10928,"Ġkelainan":10929,"nnya":10930,"kon":10931,"Ġijin":10932,"ĠPelayanan":10933,"ahasis":10934,"Ġdiprediksi":10935,"lihatan":10936,"Ġbermunculan":10937,"ĠMUI":10938,"ĠApi":10939,"ĠAv":10940,"Ġ65":10941,"idupannya":10942,"ĠPerubahan":10943,"iana":10944,"Ġgerbang":10945,"Ġ1999":10946,"iler":10947,"Ġperedaran":10948,"ĠMalam":10949,"eno":10950,"ĠWA":10951,"utiara":10952,"ĠSeni":10953,"dah":10954,"Ġqq":10955,"appy":10956,"ĠFestival":10957,"Ġpidato":10958,"ĠSetidaknya":10959,"hel":10960,"ĠDj":10961,"ĠTrade":10962,"ray":10963,"Ġkontes":10964,"ĠBelakang":10965,"Ġiritasi":10966,"Ġtagihan":10967,"Ġintelektual":10968,"Ġmengutamakan":10969,"Ġsesaat":10970,"Melihat":10971,"Ġtari":10972,"ugerah":10973,"WA":10974,"ĠSyah":10975,"Ġtend":10976,"toko":10977,"Ġ<":10978,"Ġpendiri":10979,"Ġpujian":10980,"Ġdarinya":10981,"Ġcermat":10982,"ĠTerus":10983,"anggaan":10984,"ĠDigital":10985,"Ġbersahabat":10986,"Ġngobrol":10987,"imbau":10988,"Ġhanduk":10989,"syat":10990,"Pemerintah":10991,"Ġpenger":10992,"Ġmerekam":10993,"urahmi":10994,"Ġstart":10995,"merce":10996,"ĠLog":10997,"Ġditak":10998,"UNG":10999,"Mengapa":11000,"ĠFilipina":11001,"Ġpori":11002,"ĠBatik":11003,"Ġego":11004,"ĠMataram":11005,"Ġberaktivitas":11006,"Ġpa":11007,"embahkan":11008,"ĠPerj":11009,"asing":11010,"ampingan":11011,"Ġlembab":11012,"ĠYoung":11013,"perimen":11014,"ĠCerita":11015,"Ġdomestik":11016,"ĠPam":11017,"ĠPolisi":11018,"Ġikon":11019,"ĠWis":11020,"Ġfleksibel":11021,"Ġbobot":11022,"Ġkebersamaan":11023,"ĠYoutube":11024,"anegara":11025,"ĠBukalapak":11026,"Ġkemih":11027,"Ġmencium":11028,"Ġasalkan":11029,"urug":11030,"Ġreading":11031,"Ġinterv":11032,"Sp":11033,"ĠBengkulu":11034,"Ġkesana":11035,"atannya":11036,"Ġantioksidan":11037,"ĠMall":11038,"ĠWajah":11039,"indakan":11040,"ĠMessi":11041,"bang":11042,"paper":11043,"Ġantr":11044,"Ġseribu":11045,"Ġmelu":11046,"ĠSoal":11047,"ĠPerangkat":11048,"ĠMain":11049,"Ġkafir":11050,"Ġteroris":11051,"unggul":11052,"Ġdisimpulkan":11053,"Ġsebutkan":11054,"EMB":11055,"Ġperkawinan":11056,"Ġrontok":11057,"hite":11058,"ĠTujuannya":11059,"afkan":11060,"Rumah":11061,"Ġpabrikan":11062,"Ġdikuasai":11063,"mada":11064,"ĠBad":11065,"ese":11066,"ĠLab":11067,"ĠSunda":11068,"Ġbermutu":11069,"ground":11070,"ugaran":11071,"ĠAmbil":11072,"formasikan":11073,"Ġstreaming":11074,"ĠBPK":11075,"Ġlim":11076,"aktek":11077,"Ġmusibah":11078,"Ġ48":11079,"Ġdikabarkan":11080,"Ġperlakuan":11081,"Ġpelangsing":11082,"Ġterpasang":11083,"Ġberanggapan":11084,"Ġbahu":11085,"Ġakibatnya":11086,"Press":11087,"Ġserviks":11088,"Ġmenjangkau":11089,"Ġoptimis":11090,"Ġpahala":11091,"Ġ1998":11092,"pay":11093,"Ġkejutan":11094,"Ġbersabda":11095,"Ġketahanan":11096,"we":11097,"ĠUjian":11098,"Ġdikembalikan":11099,"Ġmenunda":11100,"sk":11101,"Ġdijumpai":11102,"Ġdeng":11103,"kalau":11104,"Ġpenjudi":11105,"RE":11106,"ĠQuran":11107,"Ġnulis":11108,"Ġbahw":11109,"ĠRid":11110,"red":11111,"walitas":11112,"ĠðŁĺĢ":11113,"ASA":11114,"day":11115,"Ġspons":11116,"Ġmembawanya":11117,"kulasi":11118,"ady":11119,"Ġmuslimah":11120,"Ġbadannya":11121,"ĠiOS":11122,"ansel":11123,"ĠFaktor":11124,"Ġlisensi":11125,"ild":11126,"Ġtautan":11127,"Ġopini":11128,"Ġmusisi":11129,"Ġkacamata":11130,"Ġterangnya":11131,"Ġdorongan":11132,"Ġmenyusul":11133,"Ġterluka":11134,"ingankan":11135,"Ġhadis":11136,"Ġperolehan":11137,"Ġpahami":11138,"Ġbalap":11139,"ebutan":11140,"Ġsinga":11141,"Ġradikal":11142,"Ġmengetahuinya":11143,"iklan":11144,"Ġhem":11145,"ĠIbrahim":11146,"Ġmempercaya":11147,"Ġberkonsultasi":11148,"ĠInstitu":11149,"Ġkelem":11150,"Ġpahit":11151,"eting":11152,"Ġdikirimkan":11153,"ĠMengingat":11154,"MS":11155,"uban":11156,"Ġpenjuru":11157,"Ġsint":11158,"lai":11159,"Ġbulannya":11160,"pertensi":11161,"Ġgor":11162,"Ġpasokan":11163,"ĠTers":11164,"Ġcan":11165,"Ġpelih":11166,"Ġpembersih":11167,"Ġdipotong":11168,"ĠSimp":11169,"Ġproduktivitas":11170,"ajukan":11171,"Ġdiperkenalkan":11172,"ĠTrump":11173,"ĠPengguna":11174,"ogram":11175,"Ġpenyelidikan":11176,"indra":11177,"JAKARTA":11178,"JK":11179,"perk":11180,"imalisir":11181,"ervasi":11182,"Ġtal":11183,"Ġjenuh":11184,"Ġberkah":11185,"Ġmengantar":11186,"Ġmual":11187,"epakati":11188,"Ġkomplikasi":11189,"ĠArtikel":11190,"ĠSyari":11191,"Ġpertempuran":11192,"Ġgroup":11193,"ĠMoh":11194,"Ġpetualangan":11195,"Ġmengulas":11196,"adat":11197,"Ġpembalap":11198,"disk":11199,"ĠGerakan":11200,"Ġkip":11201,"Ġsoft":11202,"lift":11203,"ĠSelalu":11204,"OBET":11205,"69":11206,"Ġ600":11207,"isu":11208,"sidi":11209,"Ġpisau":11210,"VD":11211,"ĠTerimakasih":11212,"Ġkeagamaan":11213,"epeda":11214,"ungutan":11215,"ĠPemerintahan":11216,"Ġterbangun":11217,"usahan":11218,"Ġteringat":11219,"Ġserangkaian":11220,"Ġharm":11221,"Ġsta":11222,"ves":11223,"Ġistana":11224,"ĠKod":11225,"hip":11226,"Ùı":11227,"igasi":11228,"bagi":11229,"Ġ09":11230,"Ġjangkau":11231,"Ġgener":11232,"ĠSelengkapnya":11233,"ness":11234,"tipu":11235,"ĠPerwakilan":11236,"ĠSec":11237,"Ġrantai":11238,"Ġjernih":11239,"ĠAdalah":11240,"Ġsekilas":11241,"ĠKitab":11242,"Ġucapkan":11243,"Ġgemar":11244,"abil":11245,"ĠDani":11246,"adopsi":11247,"ĠPerm":11248,"Prediksi":11249,"oor":11250,"Ġmembacanya":11251,"met":11252,"ĠLG":11253,"Ġol":11254,"ĠMetro":11255,"Ġkerabat":11256,"Ġsecepatnya":11257,"wood":11258,"Ġvaks":11259,"ĠRedmi":11260,"Ġkubu":11261,"Ġsupportnya":11262,"Ġrincian":11263,"ĠPulsa":11264,"Ġpilihlah":11265,"minkan":11266,"Ġseharian":11267,"Ġpanik":11268,"Ġinc":11269,"Ġdibatasi":11270,"ĠIC":11271,"Ġtersimpan":11272,"Ġbebek":11273,"ĠAmp":11274,"EA":11275,"ĠShar":11276,"ewajib":11277,"199":11278,"Ġmenanggapi":11279,"ihad":11280,"Ġkelelahan":11281,"Ġsubjek":11282,"Ġkehidupannya":11283,"Ġcash":11284,"ĠRambut":11285,"ocoran":11286,"program":11287,"Ġmenyangka":11288,"orter":11289,"Ġtransparan":11290,"Ġrelawan":11291,"ĠPanitia":11292,"ondasi":11293,"omas":11294,"ĠMatahari":11295,"ĠYud":11296,"ĠArgentina":11297,"osankan":11298,"Ġjahe":11299,"ĠPerguruan":11300,"Ġkontraktor":11301,"ampaui":11302,"Ġmakanya":11303,"uncur":11304,"ompetisi":11305,"ĠMember":11306,"Ġsabung":11307,"Ġbung":11308,"ontribusi":11309,"Ġkapanpun":11310,"ĠAkhir":11311,"ianto":11312,"Ġradang":11313,"WS":11314,"ĠPern":11315,"Ġtenggelam":11316,"aksaan":11317,"bara":11318,"Ġumroh":11319,"Ġmuntah":11320,"ited":11321,"Ġfilter":11322,"agnosis":11323,"Masalah":11324,"Oh":11325,"empurnaan":11326,"usher":11327,"Ġdidampingi":11328,"ĠJack":11329,"ĠLowongan":11330,"Ġditanam":11331,"rogr":11332,"300":11333,"ĠAB":11334,"ĠHakim":11335,"ology":11336,"Ġmumpuni":11337,"ĠDulu":11338,"Ġrentang":11339,"ĠMU":11340,"Ġnyatanya":11341,"Ġpayung":11342,"Ġarahan":11343,"Ġkaku":11344,"Ġnoda":11345,"Ġimun":11346,"Ġmacet":11347,"Ġkesed":11348,"Ġpenarikan":11349,"Ġpaha":11350,"ugu":11351,"Ġterob":11352,"alisi":11353,"Memb":11354,"Ġpertanda":11355,"agak":11356,"opang":11357,"Ġrencananya":11358,"inian":11359,"Ġpadaku":11360,"uck":11361,"Ġpenal":11362,"Ġfestival":11363,"Ġbali":11364,"ĠSU":11365,"dk":11366,"Ġkemacetan":11367,"ĠPac":11368,"Ġprivasi":11369,"enderungan":11370,"Ġkabarnya":11371,"Ġsaf":11372,"endarai":11373,"Ġtulus":11374,"Ġbening":11375,"Ġberisiko":11376,"Ġpengajar":11377,"Ġinov":11378,"ĠWarga":11379,"din":11380,"Ġcic":11381,"Ġlengkapnya":11382,"intis":11383,"Ġaplik":11384,"ĠIntel":11385,"ĠLok":11386,"ĠĠ":11387,"Ġkeberanian":11388,"Ġbermula":11389,"Buku":11390,"idul":11391,"odifikasi":11392,"Ġberminyak":11393,"ĠCandi":11394,"Ġbarulah":11395,"ĠKasih":11396,"ĠKL":11397,"Ġkedokteran":11398,"Ġbubuk":11399,"ĠCust":11400,"islatif":11401,"Ġbengkel":11402,"Poker":11403,"Ġkewenangan":11404,"ĠVan":11405,"och":11406,"Ġ07":11407,"Ġkelurahan":11408,"apatan":11409,"Ġditengah":11410,"Ġdidominasi":11411,"impun":11412,"Ġpompa":11413,"otongan":11414,"Ġselangkangan":11415,"ĠTbk":11416,"Ġtang":11417,"orklift":11418,"ikal":11419,"ĠPengobatan":11420,"Ġsandi":11421,"ĠBea":11422,"Ġbergaya":11423,"akitan":11424,"Ġpengendalian":11425,"Ġlirik":11426,"Ġdisadari":11427,"ando":11428,"Ġranjang":11429,"Ġterikat":11430,"ĠRus":11431,"Ġtraining":11432,"Ġtam":11433,"Ġcall":11434,"Ġlek":11435,"Ġjejaring":11436,"ĠDemokrat":11437,"ĠLam":11438,"ĠGor":11439,"Ġdisuruh":11440,"Ġmembosankan":11441,"ings":11442,"pad":11443,"Ġhonor":11444,"Ġberst":11445,"Ġpetir":11446,"Ġdipers":11447,"Ġorgas":11448,"Ġmenginspirasi":11449,"Ġpenglihatan":11450,"Ġsejatinya":11451,"esor":11452,"otek":11453,"ĠMohon":11454,"ĠMajelis":11455,"Ġkelengkapan":11456,"ĠSuara":11457,"Ġselisih":11458,"ĠLuk":11459,"ford":11460,"FC":11461,"Ġdaftarkan":11462,"150":11463,"Ġintensitas":11464,"Ġfatal":11465,"Ġmeneruskan":11466,"Ġpir":11467,"faktor":11468,"Ġterduga":11469,"ĠPolsek":11470,"Ġdipertimbangkan":11471,"ĠUI":11472,"ĠMinyak":11473,"Ġupah":11474,"Hingga":11475,"ĠSm":11476,"].":11477,"Mus":11478,"bl":11479,"Ġkuku":11480,"ĠFlash":11481,"Ing":11482,"ĠAndi":11483,"Ġmenyalurkan":11484,"ĠPerjalanan":11485,"Ġdicatat":11486,"ĠCamp":11487,"Ker":11488,"Sil":11489,"ukulan":11490,"ĠTUHAN":11491,"hlak":11492,"hoa":11493,"Ġmasuknya":11494,"ĠPengembangan":11495,"Ġhero":11496,"ĠAlasan":11497,"cap":11498,"Ġterserang":11499,"Ġpendamping":11500,"beli":11501,"Ġalangkah":11502,"Ġmenargetkan":11503,"ÙĪ":11504,"ĠSuh":11505,"Ġmencicipi":11506,"ĠAnti":11507,"ĠVietnam":11508,"Ġcc":11509,"kl":11510,"ĠNTB":11511,"Ġerror":11512,"Misalnya":11513,"sak":11514,"ĠTrading":11515,"Ġmetabolisme":11516,"Ġpengujian":11517,"ĠBaju":11518,"Ġcabai":11519,"Ġimbuhnya":11520,"asarana":11521,"ourinho":11522,"Ġsepat":11523,"Ġepisode":11524,"Ġpayah":11525,"Ġberkep":11526,"kh":11527,"ĠHindu":11528,"Ġterjatuh":11529,"Ġtongk":11530,"lex":11531,"Ġpenyusunan":11532,"ĠDitambah":11533,"ĠBanjarmasin":11534,"asiatnya":11535,"Ġmalang":11536,"Ġmenduga":11537,"Ġditekan":11538,"Ġberant":11539,"karya":11540,"Ġkarangan":11541,"idoarjo":11542,"Ġluang":11543,"Ġmeringankan":11544,"ilo":11545,"Ġ2001":11546,"Ġberbayar":11547,"kuad":11548,"ako":11549,"Ġpengukuran":11550,"Ġbertrans":11551,"Ġberjalannya":11552,"ĠMc":11553,"onsum":11554,"Ġpenampilannya":11555,"Ġseketika":11556,"urangnya":11557,"Ġberkhasiat":11558,"Sistem":11559,"ĠPortug":11560,"ĠKandungan":11561,"ĠBis":11562,"Melalui":11563,"timasi":11564,"Ġeksklusif":11565,"ĠPemkab":11566,"Ġrevolusi":11567,"olek":11568,"iting":11569,"ĠKomputer":11570,"Ġarg":11571,"Ġmenakutkan":11572,"Ġperbatasan":11573,"umuskan":11574,"Ġapik":11575,"Ġstamina":11576,"web":11577,"ĠFed":11578,"ealth":11579,"uvenir":11580,"Ġseluler":11581,"Ġbenang":11582,"lugin":11583,"Ġpesona":11584,"Ġhot":11585,"eat":11586,"ĠInjil":11587,"sampai":11588,"ĠProfesi":11589,"Ġmudahnya":11590,"KRI":11591,"ikum":11592,"Ġpopularitas":11593,"ĠAss":11594,"Ġtertidur":11595,"Padahal":11596,"Ġterbaiknya":11597,"Ġtinggalkan":11598,"Ġpadang":11599,"Ġperairan":11600,"Ġtukar":11601,"Ġcle":11602,"Ġdibuang":11603,"Ġberkembangnya":11604,"azz":11605,"Ġhab":11606,"Ġtomat":11607,"Ġsinetron":11608,"hiasan":11609,"rograman":11610,"ĠPG":11611,"Ġkehabisan":11612,"ĠCB":11613,"ĠCip":11614,"Ġdiare":11615,"Ġkemauan":11616,"Ġkepedulian":11617,"ĠAdi":11618,"Ġmembaik":11619,"Ġmax":11620,"Ġrefer":11621,"Ġkebanggaan":11622,"Ġbeber":11623,"Ġbata":11624,"Ġcopy":11625,"\\\\":11626,"Ġseder":11627,"Ġmakeup":11628,"ĠKopi":11629,"Ġdieks":11630,"Ġmencerminkan":11631,"ĠFer":11632,"Ġkred":11633,"IDS":11634,"ave":11635,"Ġindependen":11636,"Ġresponden":11637,"Ġterpengaruh":11638,"antauan":11639,"Awalnya":11640,"Ġbarunya":11641,"ss":11642,"ĠYouT":11643,"ĠAPBD":11644,"ĠAngel":11645,"irausaha":11646,"Ġpinggang":11647,"KAN":11648,"Ġindeks":11649,"aplikasi":11650,"Sama":11651,"Ġinsya":11652,"even":11653,"Bisnis":11654,"ĠSid":11655,"Ġdicetak":11656,"ungut":11657,"Ġmengaktifkan":11658,"mod":11659,"Ġbagaimanapun":11660,"adam":11661,"ĠTerj":11662,"alitas":11663,"Ġmendeteksi":11664,"Ġstu":11665,"Ġrotan":11666,"alukan":11667,"Ġinflasi":11668,"ĠAtlet":11669,"ĠNat":11670,"engerti":11671,"Ġpergantian":11672,"Ġtsb":11673,"ĠKus":11674,"Ġskema":11675,"ĠDok":11676,"act":11677,"residen":11678,"adw":11679,"Ġpik":11680,"angsungan":11681,"Ñı":11682,"Ġtawar":11683,"ĠLaporan":11684,"ĠKM":11685,"ĠJurusan":11686,"tuanya":11687,"Ġmenggoda":11688,"Ġdimasak":11689,"Ġlup":11690,"Ġword":11691,"Ġnol":11692,"Ġberkala":11693,"ĠSebagaimana":11694,"Baca":11695,"ĠSBOBET":11696,"ĠMuda":11697,"Ġfakultas":11698,"Ġteripang":11699,"xt":11700,"ĠAq":11701,"Ġprosesnya":11702,"Ġmakalah":11703,"Ġ00":11704,"ĠWordPress":11705,"Ġdrop":11706,"Barang":11707,"uburan":11708,"Ġberkeliling":11709,"Ġsesuaikan":11710,"ĠInt":11711,"Ġgamat":11712,"amal":11713,"ĠBanda":11714,"Ġberkomitmen":11715,"encing":11716,"ĠMAN":11717,"Ġmencarinya":11718,"Ġbijaksana":11719,"Ġ^":11720,"ĠPanjang":11721,"Ġsambal":11722,"ĠPenj":11723,"ilir":11724,"ĠBelgia":11725,"Ġmendesain":11726,"irl":11727,"Ġberujung":11728,"ĠSay":11729,"Ð°Ð":11730,"Ġtegasnya":11731,"Ġberanjak":11732,"tive":11733,"ĠBers":11734,"anderol":11735,"Ġkekhawatiran":11736,"siap":11737,"ĠLink":11738,"ĠBalai":11739,"inergi":11740,"Ġasma":11741,"Ġsob":11742,"ĠSaf":11743,"jok":11744,"asket":11745,"Im":11746,"timoni":11747,"ĠJNE":11748,"lokir":11749,"Hz":11750,"DP":11751,"Ġmenggun":11752,"ÃŃ":11753,"Ġpemberi":11754,"Ġwifi":11755,"ĠEmas":11756,"Ġdiarahkan":11757,"ĠBER":11758,"Ġsd":11759,"Ġpasta":11760,"ĠBangka":11761,"NC":11762,"Ġnomer":11763,"alaminya":11764,"Ġmewar":11765,"Ġsegenap":11766,"Ġnyamuk":11767,"Ġkontra":11768,"lit":11769,"Ġlega":11770,"Ġberkec":11771,"Ġajak":11772,"ĠTanaman":11773,"jang":11774,"fil":11775,"iuman":11776,"ĠPerc":11777,"ĠUMKM":11778,"Ġpejuang":11779,"angdut":11780,"Ġpacaran":11781,"Ġkepastian":11782,"Ġdukung":11783,"Ġkuman":11784,"ĠMasing":11785,"ĠLion":11786,"aton":11787,"Ġaspirasi":11788,"Ġfolder":11789,"ĠHarapan":11790,"ato":11791,"Alhamdulillah":11792,"ĠKomunitas":11793,"Ġawan":11794,"ĠPernah":11795,"Ġkoloni":11796,"Berbagai":11797,"Ġreligi":11798,"ĠTexas":11799,"Ġbabi":11800,"iawan":11801,"PTN":11802,"Suatu":11803,"ĠBalik":11804,"ĠTes":11805,"ĠForum":11806,"edisi":11807,"Ġasalnya":11808,"Ġapotik":11809,"Ġpersentase":11810,"Ġpersatu":11811,"Ġpag":11812,"echn":11813,"Ġbersejarah":11814,"ĠRec":11815,"ĠPengg":11816,"Ġmemilikinya":11817,"Ġlautan":11818,"Ġkonsultan":11819,"Ġindikasi":11820,"Pernah":11821,"kep":11822,"Kons":11823,"amera":11824,"Ġyog":11825,"Ġjamu":11826,"umus":11827,"onster":11828,"ĠPangeran":11829,"Ġdimengerti":11830,"ket":11831,"Ġpembakaran":11832,"benda":11833,"ĠKA":11834,"olly":11835,"Ġmarkas":11836,"Ġdurian":11837,"Ġdiklaim":11838,"Ġcafe":11839,"ĠStandar":11840,"Ġberjudi":11841,"jawa":11842,"Ġselfie":11843,"ekad":11844,"Sehingga":11845,"Ġsunnah":11846,"apasan":11847,"Ġmenumpuk":11848,"utsal":11849,"lek":11850,"Ġdipasarkan":11851,"Ġshow":11852,"Perk":11853,"NG":11854,"Ġmenyalahkan":11855,"Ġusulan":11856,"Ġkehar":11857,"Ġnetral":11858,"Ġberkesan":11859,"zal":11860,"Ġdibedakan":11861,"Ġterdakwa":11862,"68":11863,"ĠAnies":11864,"Ġbersatu":11865,"Ġmerujuk":11866,"ĠDev":11867,"impunan":11868,"Ġvan":11869,"ĠSis":11870,"gaulan":11871,"Ġkoin":11872,"ĠKayu":11873,"ĠPAN":11874,"Ġrelasi":11875,"ĠKebudayaan":11876,"Ġmiring":11877,"reg":11878,"ĠSimak":11879,"Ġberdekatan":11880,"ĠKecuali":11881,"ĠKredit":11882,"Ġmemberitahukan":11883,"ĠMaksud":11884,"ĠClub":11885,"Ġsisanya":11886,"Ġbisnisnya":11887,"Ġmomentum":11888,"ĠWin":11889,"Ġster":11890,"Ġpendirian":11891,"Ġpenghasil":11892,"igur":11893,"Ġpermainannya":11894,"ĠRupiah":11895,"osistem":11896,"reneur":11897,"ĠJelas":11898,"ĠKeter":11899,"Ġmemuji":11900,"jakan":11901,"Ġdibel":11902,"Ġpencurian":11903,"Ġditahan":11904,"jelas":11905,"Ġtadinya":11906,"42":11907,"Ġobesitas":11908,"Ġlib":11909,"ĠPerd":11910,"Ġkerangka":11911,"Ġfamiliar":11912,"ĠDon":11913,"Ġmerancang":11914,"Ġmelewatkan":11915,"Ġrumahan":11916,"ohanes":11917,"ĠSI":11918,"Ġkalender":11919,"Ġ....":11920,"ĠLet":11921,"usantara":11922,"ografis":11923,"ĠLTE":11924,"sium":11925,"Ġdrastis":11926,"Ġfa":11927,"Ġtaktik":11928,"Ġpengemudi":11929,"cs":11930,"Ġpengangg":11931,"Ġpartner":11932,"ĠBagus":11933,"con":11934,"Ġpeluncuran":11935,"ĠAyu":11936,"ĠAdministrasi":11937,"ĠMourinho":11938,"agus":11939,"Ġberadaptasi":11940,"ĠTegal":11941,"Ġdiuji":11942,"ĠRat":11943,"Ġbersel":11944,"ĠKatolik":11945,"Ġdomba":11946,"ĠWir":11947,"Ġterinspirasi":11948,"aganya":11949,"tianak":11950,"ukainya":11951,"Ġterkend":11952,"ĠSap":11953,"atika":11954,"Ġdalil":11955,"Ġdeskripsi":11956,"Ġdigambarkan":11957,"ĠTradisi":11958,"ĠUlama":11959,"Ġrekreasi":11960,"Ġrawan":11961,"Ġhitung":11962,"Ġrujukan":11963,"ĠJung":11964,".)":11965,"ĠAbd":11966,"Ġlic":11967,"ĠSystem":11968,"ĠVir":11969,"amannya":11970,"onghoa":11971,"ĠMM":11972,"Ġ1990":11973,"Ġmy":11974,"alaihi":11975,"Ġkakek":11976,"elabuhan":11977,"ĠSut":11978,"Ġmenuai":11979,"2014":11980,"Ġbb":11981,"Ġpedang":11982,"ĠModal":11983,"via":11984,"Ġterper":11985,"Ġprint":11986,"Berita":11987,"Ġmengungkap":11988,"lanjut":11989,"ĠBapa":11990,"angkalan":11991,"Ġperkembangannya":11992,"Ġberfoto":11993,"Ġstop":11994,"rb":11995,"KT":11996,"Menc":11997,"ĠDur":11998,"Ġpenamp":11999,"Ġmengoptimalkan":12000,"Ġkedalaman":12001,"Ġkeliru":12002,"Ġwithdraw":12003,"Ġyaa":12004,"Ġji":12005,"Baik":12006,"09":12007,"ĠStadion":12008,"Ġmemaparkan":12009,"yaratkan":12010,"Ġsif":12011,"paru":12012,"Ġcry":12013,"ĠLangsung":12014,"Ġstyle":12015,"Ġmenghalangi":12016,"Ġbioskop":12017,"Ġkeberadaannya":12018,"Ġtegak":12019,"inilah":12020,"rus":12021,"Ġmengikat":12022,"Ġmenggambar":12023,"vi":12024,"ĠManager":12025,"Ġseo":12026,"Ġkelola":12027,"Ġtandasnya":12028,"Ġsarang":12029,"Ġdeveloper":12030,"lahir":12031,"sero":12032,"ĠSitu":12033,"apatkan":12034,"Ġmendekat":12035,"jung":12036,"ilasi":12037,"lagu":12038,"Ġpenempatan":12039,"Ġuntuknya":12040,"ĠTotal":12041,"Ġnar":12042,"Ġmenanggung":12043,"ĠSejarah":12044,"Ġcintai":12045,"Ġdiukur":12046,"Ġlandasan":12047,"ĠTokopedia":12048,"iayai":12049,"awei":12050,"Ġsemudah":12051,"123":12052,"ĠIND":12053,"Mar":12054,"ukupnya":12055,"Ġsepasang":12056,"ĠAdanya":12057,"Ġmood":12058,"ĠArif":12059,"Ġkeluarnya":12060,"Ġalas":12061,"Ġkang":12062,"ategor":12063,"Ġhantu":12064,"ĠVivo":12065,"angsungkan":12066,"67":12067,"ARI":12068,"Ġformula":12069,"Ġrob":12070,"Hai":12071,"Ġgu":12072,"ukau":12073,"Ġnger":12074,"Ġtaksi":12075,"areng":12076,"enaan":12077,"ĠUst":12078,"Ġmemotivasi":12079,"ajai":12080,"ĠBangunan":12081,"Ġspec":12082,"transfer":12083,"Ġmemut":12084,"Ġtayang":12085,"Dir":12086,"ĠAyo":12087,"Ġprogr":12088,"Ġorgasme":12089,"zikir":12090,"Ġpilkada":12091,"Ġmerespon":12092,"omen":12093,"Ġagresif":12094,"Ġrealitas":12095,"Ġelit":12096,"Ġdahsyat":12097,"onstr":12098,"ĠDisamping":12099,"ibatan":12100,"Ġnorma":12101,"anggang":12102,"EAN":12103,"Ġteratas":12104,"ĠGen":12105,"amana":12106,"ĠSurya":12107,"plier":12108,"ĠJember":12109,"Ġlarut":12110,"04":12111,"Up":12112,"ĠMama":12113,"Ġmenetap":12114,"ĠJat":12115,"Ġsarjana":12116,"Ġmelimpah":12117,"Ġmembenarkan":12118,"intasi":12119,"Ġbermaksud":12120,"lian":12121,"Ġderita":12122,"ugat":12123,"ĠBiar":12124,"ĠYouTube":12125,"kw":12126,"esign":12127,"ST":12128,"Ġimplementasi":12129,"Ġmeg":12130,"Ġguys":12131,"ĠBintang":12132,"Ġdipublikasikan":12133,"Ġtopi":12134,"Ġasumsi":12135,"Ġparfum":12136,"ĠAkun":12137,"ĠKit":12138,"Ġlamaran":12139,"ĠBudd":12140,"OW":12141,"Ñĭ":12142,"egera":12143,"kuit":12144,"Ġmengikut":12145,"Ġtercepat":12146,"unjangan":12147,"ipkan":12148,"Ġproposal":12149,"ght":12150,"servasi":12151,"antasan":12152,"bon":12153,"alamannya":12154,"esokan":12155,"Ġibarat":12156,"à¤":12157,"rolan":12158,"Ġdiletakkan":12159,"undam":12160,"ukar":12161,"Ġsetinggi":12162,"Ġputusan":12163,"gunya":12164,"Ġbedanya":12165,"Ġsecukupnya":12166,"Ġgand":12167,"ĠÃ":12168,"Ġantibiotik":12169,"Ġpembuka":12170,"urnalis":12171,"Ġmand":12172,"Ġfood":12173,"Ġmelampaui":12174,"Ġpersalinan":12175,"Ġec":12176,"raz":12177,"ĠFashion":12178,"Ġberkontribusi":12179,"Ġkembar":12180,"Ġmant":12181,"Ġrindu":12182,"Ġwangi":12183,"ĠSeiring":12184,"Ġbasket":12185,"Ġderas":12186,"ĠCom":12187,"ason":12188,"Ġmenghidupkan":12189,"???":12190,"ensin":12191,"Ġpenderitaan":12192,"abatnya":12193,"Ġmemperkirakan":12194,"Ġpasalnya":12195,"Ġsepele":12196,"ution":12197,"Ġbersabar":12198,"Ġsepatutnya":12199,"ĠPondok":12200,"Ġberta":12201,"III":12202,"Ġprima":12203,"Ġpink":12204,"ĠKeuntungan":12205,"ĠTidur":12206,"Ġspeed":12207,"Ġtransmisi":12208,"Ġdam":12209,"sif":12210,"Ġkonferensi":12211,"Ġnota":12212,"ĠDuk":12213,"apres":12214,"ariat":12215,"ĠSayang":12216,"Ġperkotaan":12217,"ĠPengertian":12218,"Ġinput":12219,"reak":12220,"Ġpenyesuaian":12221,"ĠPad":12222,"Ġkecenderungan":12223,"cana":12224,"Ġ88":12225,"Ġment":12226,"ĠAR":12227,"Ġsemalam":12228,"ĠPersib":12229,"Ġmuatan":12230,"fitur":12231,"Ġkebugaran":12232,"Ġtaat":12233,"ĠAlasannya":12234,"Ġcenter":12235,"Ġkecilnya":12236,"Ġmengangg":12237,"TER":12238,"iringi":12239,"Ġindahnya":12240,"for":12241,"Ġkejuaraan":12242,"ĠHubungan":12243,"Ġabadi":12244,"Terl":12245,"allallahu":12246,"Ġkiamat":12247,"ulat":12248,"Ġbenak":12249,"ĠChi":12250,"Ġterintegrasi":12251,"ĠTiens":12252,"Ġekstrim":12253,"Ġpersonel":12254,"Ġmenyatu":12255,"Ġpeninggalan":12256,"Ġpembuatannya":12257,"Ġmahasis":12258,"enario":12259,"Ġmendominasi":12260,"Ġkhasiatnya":12261,"dam":12262,"Ġkepadaku":12263,"Ġikutan":12264,"eharto":12265,"icon":12266,"ografer":12267,"Ġdisetujui":12268,"):":12269,"Ġsuaranya":12270,"cal":12271,"Ġotoritas":12272,"Ġpendarahan":12273,"ocal":12274,"Ġfresh":12275,"Ġinsp":12276,"Ġnapas":12277,"pektif":12278,"Ġprotes":12279,"oyong":12280,"Ġmenanti":12281,"awati":12282,"Ġkeser":12283,"tukaran":12284,"hen":12285,"Ġ42":12286,"Ġsablon":12287,"Meny":12288,"orer":12289,"Ġmenganalisis":12290,"Ġinstruksi":12291,"QS":12292,"Download":12293,"Ġdilap":12294,"Perusahaan":12295,"DR":12296,"empurnakan":12297,"ĠPok":12298,"Ġmendaki":12299,"ĠKebijakan":12300,"Film":12301,"Ġmengawali":12302,"Ġdisembuhkan":12303,"Ġketert":12304,"ĠPastinya":12305,"Ġsetelahnya":12306,"Ġpast":12307,"Ġmeren":12308,"',":12309,"Terkait":12310,"ĠKemampuan":12311,"ĠTom":12312,"Ġkesukaan":12313,"Ġberbuka":12314,"Ġdiusung":12315,"Ġjenisnya":12316,"Ġdiminum":12317,"iak":12318,"Ġpaparan":12319,"tac":12320,"Ġkonon":12321,"ext":12322,"tris":12323,"Ġkulitnya":12324,"ross":12325,"Ġdikumpulkan":12326,"Ġinsiden":12327,"ĠBL":12328,"ano":12329,"Ġfir":12330,"Ġdivisi":12331,"uaan":12332,"Ġjalani":12333,"Ġmemajukan":12334,"ĠGR":12335,"Ġcermin":12336,"Ġtelpon":12337,"ĠLos":12338,"ĠKarenanya":12339,"Ġmenabung":12340,"Ġmengetik":12341,"Ġeh":12342,"ijrah":12343,"vest":12344,"Ġketenangan":12345,"jack":12346,"Ġmelompat":12347,"Ġrenovasi":12348,"ĠNasi":12349,"Ng":12350,"ĠPaul":12351,"umu":12352,"sos":12353,"egional":12354,"Ġrun":12355,"Ġperjalan":12356,"Ġmenjatuhkan":12357,"ĠDivisi":12358,"07":12359,"Ġisteri":12360,"Ġlengk":12361,"Menjadi":12362,"ĠML":12363,"ĠEks":12364,"ahir":12365,"Pd":12366,"Ġmenyimak":12367,"Ġopen":12368,"rep":12369,"gantungan":12370,"ĠPenulis":12371,"ĠGerindra":12372,"ĠFirman":12373,"Ġsingg":12374,"Ġteruji":12375,"NN":12376,"Ġpembantu":12377,"Sayangnya":12378,"Ġpemrograman":12379,"Ketiga":12380,"Ġresm":12381,"edding":12382,"ĠTerk":12383,"udar":12384,"ĠKarawang":12385,"ĠKoperasi":12386,"ermin":12387,"Ġdiharuskan":12388,"Ġkupon":12389,"ĠIdul":12390,"etr":12391,"ristian":12392,"eritaan":12393,"Ġhakikat":12394,"Ġtelat":12395,"Ġterburu":12396,"Ġberesiko":12397,"Ġwew":12398,"waran":12399,"ĠAmpuh":12400,"Ġsaj":12401,"ĠØ§ÙĦ":12402,"Ġkagum":12403,"Ġmerdeka":12404,"Ġhamp":12405,"order":12406,"KG":12407,"ĠJuara":12408,"ĠPalu":12409,"Ġmenyertakan":12410,"Ġkeseharian":12411,"ĠAmbon":12412,"Sangat":12413,"Ġreformasi":12414,"Ġtraveling":12415,"Ġmebel":12416,"Ab":12417,"ĠSL":12418,"Ġgej":12419,"iji":12420,"barui":12421,"Ġkarbon":12422,"baiknya":12423,"erial":12424,"Ġpesisir":12425,"ĠSoalnya":12426,"Ġpelengkap":12427,"Ġkontras":12428,"ĠMinimalis":12429,"!\"":12430,"Sc":12431,"Ġdidepan":12432,"Ġdibanderol":12433,"Ġtikus":12434,"59":12435,"ĠSingapore":12436,"Ġprospek":12437,"Ġinovatif":12438,"ombaan":12439,"ĠSekitar":12440,"Ġbanding":12441,"asaannya":12442,"Ġkreasi":12443,"Ġsopir":12444,"Ġterancam":12445,"ott":12446,"Ġdekade":12447,"enernya":12448,"ĠEt":12449,"Ġkorea":12450,"Ġmemperpanjang":12451,"Ġmengusir":12452,"Ġprasarana":12453,"zu":12454,"Ġbant":12455,"endir":12456,"Ġmix":12457,"amaku":12458,"kamah":12459,"Ġpemulihan":12460,"ĠNar":12461,"unyit":12462,"Ġcup":12463,"ĠHaji":12464,"Ġaktivis":12465,"umulasi":12466,"Ġpergaulan":12467,"irat":12468,"uliahan":12469,"wajibkan":12470,"ĠBut":12471,"Ġduka":12472,"ajinasi":12473,"ĠKualitas":12474,"ujuran":12475,"ĠLuc":12476,"ibli":12477,"ĠAP":12478,"Ġmenyingkirkan":12479,"ally":12480,"Ġgerai":12481,"ĠSiti":12482,"rio":12483,"Go":12484,"jazah":12485,"ming":12486,"Ġmelancarkan":12487,"Ġhor":12488,"----":12489,"Ġkulkas":12490,"uu":12491,"Ġmemfasilitasi":12492,"ĠAbdullah":12493,"Ġpenangkapan":12494,"oax":12495,"Ġberke":12496,"caan":12497,"Ġratus":12498,"Ġbukalapak":12499,"Ġparuh":12500,"Ġtebing":12501,"meny":12502,"Ġjumpai":12503,"organisasi":12504,"Ġsesak":12505,"Ġmaag":12506,"andia":12507,"Ġkeyword":12508,"Ġkonsekuensi":12509,"Äģ":12510,"ĠDeposit":12511,"Ġperlukan":12512,"KU":12513,"orb":12514,"Ġkeberatan":12515,"light":12516,"uasana":12517,"Ġbersihkan":12518,"Ġetnis":12519,"Ġfungsional":12520,"ĠFitri":12521,"itahu":12522,"ĠIngin":12523,"ĠRA":12524,"Ġkesi":12525,"Ġbubur":12526,"Ġprim":12527,"Ġberburu":12528,"ĠIntinya":12529,"obe":12530,"Ġaz":12531,"Ġpenunjang":12532,"ĠPembel":12533,"Ġmenyeg":12534,"Ġhome":12535,"Ġjarum":12536,"Ġbalasan":12537,"Ġboot":12538,"alihan":12539,"Ġworkshop":12540,"indarkan":12541,"ĠTot":12542,"Ġadiknya":12543,"ĠPolitik":12544,"Ġbesaran":12545,"Ġrasional":12546,"ĠTelkomsel":12547,"Ġmemikat":12548,"indukan":12549,"ĠTau":12550,"Ġoutdoor":12551,"02":12552,"Ġmancanegara":12553,"urukan":12554,"ebu":12555,"emin":12556,"ubis":12557,"ĠCabang":12558,"ĠIde":12559,"murah":12560,"ĠKereta":12561,"ĠNap":12562,"oordinasi":12563,"wijaya":12564,"IR":12565,"Ġsouvenir":12566,"armasi":12567,"itel":12568,"Ġmeminimalisir":12569,"Ġketiak":12570,"Ġfiber":12571,"makan":12572,"Ġsadari":12573,"Ġkehormatan":12574,"vel":12575,"cepat":12576,"iversal":12577,"BL":12578,"ajib":12579,"ĠWest":12580,"ĠSoo":12581,"ism":12582,"Ġpang":12583,"Ġberkesempatan":12584,"Ġatr":12585,"Ġtrip":12586,"Ġgugur":12587,"Ġmisterius":12588,"umor":12589,"ĠFar":12590,"Ġperspektif":12591,"âĤ¬":12592,"Ġberkomentar":12593,"Ġhama":12594,"Ġsyar":12595,"ipu":12596,"Ġkiat":12597,"tifitas":12598,"Ġview":12599,"Ġperawat":12600,"ĠPimpinan":12601,"zat":12602,"ĠKanker":12603,"Ġsekunder":12604,"Belum":12605,"edan":12606,"ĠInform":12607,"Ġdidunia":12608,"ĠDong":12609,"Ġdihargai":12610,"Ġgenre":12611,"iqah":12612,"kawan":12613,"Ġ800":12614,"urr":12615,"Ġdiucapkan":12616,"ĠInvestasi":12617,"Ġpenjelasannya":12618,"ful":12619,"isili":12620,"ĠSegala":12621,"Ġgajah":12622,"Ġmempercayai":12623,"ĠHongkong":12624,"ĠSahabat":12625,"akr":12626,"tokoh":12627,"Ġpersediaan":12628,"angkitan":12629,"oming":12630,"emaran":12631,"Ġkompr":12632,"Sesuai":12633,"Ġata":12634,"ĠIya":12635,"imbangi":12636,"berg":12637,"Ġing":12638,"utaran":12639,"Ġpenguasaan":12640,"diam":12641,"ĠPe":12642,"ĠSoeharto":12643,"Ġmemasukan":12644,"Ġpersonil":12645,"adiun":12646,"ogn":12647,"Ġmenyetujui":12648,"Ġos":12649,"Ġupload":12650,"Ġchannel":12651,"ĠUt":12652,"Ġarsitek":12653,"Ġberdiskusi":12654,"ĠSeseorang":12655,"Ġmung":12656,"Ġpengajuan":12657,"Ġdiwajibkan":12658,"ĠLip":12659,"Ġkurus":12660,"Ġdihubungi":12661,"Ġmembuatmu":12662,"CC":12663,"Ġkayaknya":12664,"OH":12665,"Ġuangnya":12666,"pos":12667,"Ġpedesaan":12668,"ĠPontianak":12669,"Ġdipegang":12670,"rekan":12671,"eget":12672,"iger":12673,"Ġbilangan":12674,"ehatkan":12675,"Ġrinci":12676,"senang":12677,"Ġsinilah":12678,"akta":12679,"Ġmendampingi":12680,"Ġmembatalkan":12681,"Ġanal":12682,"ĠSiap":12683,"Ġsty":12684,"Ġaudit":12685,"kami":12686,"Ġorangnya":12687,"mati":12688,"ĠBK":12689,"opo":12690,"Ġmenerbitkan":12691,"Ġtertib":12692,"ĠUnd":12693,"mit":12694,"Ġmelaju":12695,"Ġsatelit":12696,"Ġjago":12697,"Ġtropis":12698,"Ġjersey":12699,"ĠSeo":12700,"tasi":12701,"Ġvisa":12702,"Ġfan":12703,"Ġdisepakati":12704,"anaan":12705,"Ġcerpen":12706,"Ġfollow":12707,"istribusikan":12708,"Ġmembuahkan":12709,"Ġfilsafat":12710,"Ġberturut":12711,"Ġsejahtera":12712,"ĠSurakarta":12713,"ĠPegawai":12714,"strak":12715,"Ġacak":12716,"estarikan":12717,"ĠPerbedaan":12718,"Ġdihapus":12719,"eview":12720,"âĪŀâĪŀâĪŀâĪŀ":12721,"Ġmalahan":12722,"quran":12723,"ĠBelit":12724,"Ġdual":12725,"Ġbarangkali":12726,"ĠCEO":12727,"Ġdipesan":12728,"come":12729,"Ġberjenis":12730,"Ġsponsor":12731,"ille":12732,"Ġjemaat":12733,"Ġhikmah":12734,"ĠGh":12735,"uliaan":12736,"ĠGlobal":12737,"ĠHR":12738,"ĠDap":12739,"misalnya":12740,"etooth":12741,"ĠTerp":12742,"Ġvagin":12743,"Ġtelanjang":12744,"Ġpenerbit":12745,"Ġideologi":12746,"Iya":12747,"Ġditanyakan":12748,"Ġjepara":12749,"eserta":12750,"ĠPelabuhan":12751,"diri":12752,"Kas":12753,"Ġbacklink":12754,"Ġdendam":12755,"ĠMuk":12756,"kus":12757,"ĠFree":12758,"Ġdibicarakan":12759,"Ġjuru":12760,"ensasi":12761,"ĠDri":12762,"ordinator":12763,"Ġkesenian":12764,"BD":12765,"Ġberfokus":12766,"embab":12767,"Ġbasi":12768,"Ġbermimpi":12769,"engok":12770,"Ġngomong":12771,"yaw":12772,"ĠBon":12773,"Ġdenda":12774,"ukl":12775,"ĠBatang":12776,"lm":12777,"oleksi":12778,"Ġpipi":12779,"ÐµÐ":12780,"ĠOs":12781,"ĠPhil":12782,"Ġmempertemukan":12783,"syah":12784,"Kondisi":12785,"ĠPertandingan":12786,"AA":12787,"Ġhipertensi":12788,"gl":12789,"idangan":12790,"okuskan":12791,"Ġdiseb":12792,"Ġnipis":12793,"Ġskuad":12794,"cakan":12795,"den":12796,"Ġperiksa":12797,"oundation":12798,"agihan":12799,"Ġhelm":12800,"Ġkontro":12801,"alaikum":12802,"ĠKisah":12803,"aukan":12804,"ĠClick":12805,"Ġmemengaruhi":12806,"Ġpaparkan":12807,"Ġmulanya":12808,"Ġmawar":12809,"Ġsampingan":12810,"Ġekosistem":12811,"ĠVol":12812,"Ġgaun":12813,"orama":12814,",.":12815,"Ġmembuatkan":12816,"Ġberkuasa":12817,"chen":12818,"ĠSnap":12819,"ĠPaulus":12820,"Ġbest":12821,"Ġpembuangan":12822,"Ġkuantitas":12823,"bank":12824,"EI":12825,"Ġroll":12826,"epankan":12827,"Ġapp":12828,"anduk":12829,"leksi":12830,"oon":12831,"Ġpenolakan":12832,"acing":12833,"Ġbensin":12834,"yyah":12835,"endi":12836,"ĠKanada":12837,"akn":12838,"igo":12839,"ĠPerjanjian":12840,"Ġmemil":12841,"aint":12842,"Ġdipaksa":12843,"isnya":12844,"alut":12845,"git":12846,"Ġwisuda":12847,"ĠTaiwan":12848,"aren":12849,"Ġrancangan":12850,"ĠPerkembangan":12851,"Ġjumpa":12852,"sunami":12853,"Angg":12854,"ilmu":12855,"Keh":12856,"reat":12857,"Ġdikurangi":12858,"ĠHUT":12859,"Ġpengecekan":12860,"Ġbalas":12861,"Ġnaga":12862,"yadi":12863,"Ġpersatuan":12864,"rin":12865,"Ġmembesarkan":12866,"igurasi":12867,"Ġpenanaman":12868,"Ġdikau":12869,"Ġges":12870,"car":12871,"ĠPU":12872,"ĠPasi":12873,"ekomunikasi":12874,"oterapi":12875,"Ġkendali":12876,"Ġintegritas":12877,"embahan":12878,"ï¿½ï¿½ï¿½ï¿½":12879,"Ġoutput":12880,"Ġmengemukakan":12881,"utradara":12882,"Ġmengklik":12883,"utri":12884,"Ġarab":12885,"Ġterdahulu":12886,"uit":12887,"ĠGPS":12888,"ĠMengobati":12889,"Ġmencolok":12890,"Ġanggapan":12891,"ĠBrig":12892,"ampiri":12893,"Ġmemproses":12894,"Ġterlupakan":12895,"Ġpenyediaan":12896,"ejar":12897,"kelompok":12898,"ĠCal":12899,"ainer":12900,"Ġgini":12901,"Ġesensi":12902,"Ġberlomba":12903,"Ġklo":12904,"ĠKro":12905,"Ġtampilkan":12906,"Ġmengapresiasi":12907,"Ġdigantikan":12908,"ĠIstana":12909,"ĠEc":12910,"ĠLinux":12911,"Game":12912,"ĠRel":12913,"Ġjemp":12914,"ĠAsuransi":12915,"ĠSerang":12916,"03":12917,"Ġesok":12918,"57":12919,"Ġhormat":12920,"Ġhttps":12921,"NL":12922,"Ġkekinian":12923,"dia":12924,"Ġsurya":12925,"Ġdadu":12926,"Ġbil":12927,"Ġday":12928,"Ġberbunyi":12929,"Ġjelly":12930,"Ġstim":12931,"Ġganj":12932,"Ġmoder":12933,"Ġrew":12934,"Ġterorisme":12935,"Ġperlawanan":12936,"obby":12937,"06":12938,"Ġdiundang":12939,"ĠKont":12940,"Ġdaratan":12941,"ĠSupaya":12942,"Ġpek":12943,"Ġmenentang":12944,"Ġmelamb":12945,"Ġmengenalkan":12946,"ĠAward":12947,"ĠBint":12948,"Ġombak":12949,"Ġperhiasan":12950,"Ġkemeja":12951,"Ġmoment":12952,"Berbeda":12953,"Ġpaparnya":12954,"Ġdidengar":12955,"umbat":12956,"Ġbocor":12957,"Ġberker":12958,"ritik":12959,"ĠDaud":12960,"ĠAntara":12961,"esankan":12962,"Ġcapek":12963,"Ġmemperlakukan":12964,"ifat":12965,"Ġseger":12966,"kup":12967,"Ġpengamanan":12968,"mau":12969,"Ġspeaker":12970,"ogan":12971,"gorit":12972,"Ġkarunia":12973,"resik":12974,"Ġkiranya":12975,"ĠHPV":12976,"hard":12977,"Ġvok":12978,"Ġkonsol":12979,"Ø§Ø":12980,"elanjaan":12981,"Ġmenggerakkan":12982,"Makanan":12983,"Ġviral":12984,"ĠBayangkan":12985,"yani":12986,"ĠVis":12987,"Sebab":12988,"å½":12989,"ampaian":12990,"Ġnusantara":12991,"ĠMemilih":12992,"Ġobrolan":12993,"ĠRektor":12994,"Ġbawahnya":12995,"ĠHumas":12996,"Ġpulih":12997,"Ġidaman":12998,"Ġkesem":12999,"Ġbersinar":13000,"encian":13001,"ĠSepertinya":13002,"Ġbec":13003,"Ġperpaduan":13004,"Ġfisika":13005,"antar":13006,"ĠMenu":13007,"Ġresminya":13008,"iharapkan":13009,"Ġcuman":13010,"Ġilustrasi":13011,"Ġmengulang":13012,"ĠSobat":13013,"ĠKonsep":13014,"ĠPangan":13015,"Ġsarung":13016,"film":13017,"iasakan":13018,"Ġtarian":13019,"ĠPosisi":13020,"ĠGarut":13021,"ĠHuawei":13022,"AY":13023,"izza":13024,"ĠCos":13025,"Ġdidorong":13026,"Ġkesep":13027,"ĠWater":13028,"Cerita":13029,"Ġstore":13030,"xel":13031,"ĠLebaran":13032,"jakarta":13033,"Ġkesamaan":13034,"Ġkapas":13035,"hususkan":13036,"ĠSidoarjo":13037,"ĠUGM":13038,"Ġinsan":13039,"Ġkondom":13040,"ĠPort":13041,"Ġmemperjuangkan":13042,"Ġhatiku":13043,"esat":13044,"uling":13045,"Ġdimuat":13046,"rajin":13047,"Ġtdk":13048,"Ġmeniru":13049,"apal":13050,"ĠHead":13051,"Ġprivat":13052,"Persero":13053,"etugas":13054,"Ġbertransaksi":13055,"Ġharmonis":13056,"Ġberny":13057,"obo":13058,"Ġsifilis":13059,"ĠHus":13060,"ekt":13061,"Ġbersepeda":13062,"Ġgurih":13063,"Ġlegenda":13064,"ĠTionghoa":13065,"ĠNik":13066,"Ġpersamaan":13067,"ĠInn":13068,"Ġdisfungsi":13069,"pori":13070,"ĠDh":13071,"Air":13072,"Ġbutir":13073,"anting":13074,"intahkan":13075,"omet":13076,"iskusikan":13077,"bus":13078,"âĢ¦..":13079,"Ġporno":13080,"Ġwallpaper":13081,"enarik":13082,"Mend":13083,"Ġkondus":13084,"ĠKebumen":13085,"Ġrint":13086,"Ġselagi":13087,"inium":13088,"Ġoral":13089,"rick":13090,"hatsapp":13091,"adikan":13092,"obalisasi":13093,"Ġbug":13094,"ĠNews":13095,"Ġpembawa":13096,"unter":13097,"Ġhardware":13098,"Ġsate":13099,"elg":13100,"ongga":13101,"Ġhilangnya":13102,"Ġsirkulasi":13103,"dney":13104,"pemb":13105,"Ġempuk":13106,"ĠBos":13107,"Ġmenelepon":13108,"Ġpolitisi":13109,"Ġmengendarai":13110,"ations":13111,"Ġasik":13112,"Ġforklift":13113,"Ġsingkatan":13114,"Ġmayat":13115,"Ġkeharusan":13116,"online":13117,"ibar":13118,"oe":13119,"Ġdiund":13120,"ĠBack":13121,"Ġsupermarket":13122,"embar":13123,"Ġ85":13124,"Ġberpakaian":13125,"Ġmembernya":13126,"Ġungu":13127,"Ġsug":13128,"sifat":13129,"Ġpropolis":13130,"Ġdesainnya":13131,"Ġketa":13132,"upas":13133,"poker":13134,"Ġberantakan":13135,"hael":13136,"Ġkondusif":13137,"Ġlegend":13138,"ova":13139,"Ġpenerus":13140,"Ġtud":13141,"Ġmulutnya":13142,"ĠLengkap":13143,"Ġmelintasi":13144,"Ġbiner":13145,"ematkan":13146,"raft":13147,"hil":13148,"rob":13149,"ayasa":13150,"cus":13151,"ĠIt":13152,"yeksi":13153,"ĠPengh":13154,"Ġjangkauan":13155,"Ġkista":13156,"amerkan":13157,"tikal":13158,"Ġmenginjak":13159,"43":13160,"fren":13161,"ĠASEAN":13162,"BK":13163,"Ġbergel":13164,"Ġtahanan":13165,"Ġmenyatukan":13166,"Ġpopular":13167,"ileks":13168,"\":":13169,"Ġkusam":13170,"Ġtekad":13171,"Ġproduct":13172,"pora":13173,"ucap":13174,"orak":13175,"Ġpertukaran":13176,"estari":13177,"ics":13178,"ĠBox":13179,"ĠMS":13180,"Ġpengenalan":13181,"ices":13182,"UU":13183,"Ġ125":13184,"Ġkomedo":13185,"Ġmengelilingi":13186,"Mat":13187,"Ġarsip":13188,"Ġust":13189,"400":13190,"akian":13191,"abad":13192,"Ġubah":13193,"ĠTanda":13194,"ĠLCD":13195,"Ġpenguatan":13196,"ategorikan":13197,"ĠSertifikasi":13198,"Ġberpisah":13199,"Ġkirimkan":13200,"Ġheboh":13201,"FF":13202,"ribu":13203,"Ġmembimbing":13204,"aluran":13205,"Ġladang":13206,"ĠPDIP":13207,"Ġmungil":13208,"Ġpelamar":13209,"uhyun":13210,"Ġmemaksakan":13211,"Ġkreatifitas":13212,"Ġbelakangnya":13213,"ĠDer":13214,"abuk":13215,"epet":13216,"Ġlegislatif":13217,"Ġraih":13218,"Ġsedikitpun":13219,"Ġbimbang":13220,"Ġakut":13221,"ĠBelitung":13222,"ĠKarakter":13223,"ugh":13224,"adwalkan":13225,"Met":13226,"ĠMiss":13227,"andra":13228,"Ġtembakan":13229,"ĠWas":13230,"mungkin":13231,"Ġmempertanyakan":13232,"enial":13233,"Ġmenyad":13234,"undry":13235,"ĠSering":13236,"idiki":13237,"jajar":13238,"Ġtinta":13239,"Ġbangk":13240,"Ġvaksin":13241,"eaksi":13242,"antasi":13243,"Ġpembesar":13244,"Ġbuahnya":13245,"osat":13246,"Ġkamarnya":13247,"edah":13248,"Ġpemenuhan":13249,"Ġeksekutif":13250,"Ġmelintas":13251,"ĠHold":13252,"ĠBromo":13253,"Ġciptaan":13254,"Ġmeneliti":13255,"elkan":13256,"arasumber":13257,"ĠTM":13258,"idin":13259,"orth":13260,"med":13261,"onia":13262,"Ġjuri":13263,"Ġpenutupan":13264,"Penyebab":13265,"Ġtestimoni":13266,"Ġmenginstal":13267,"Ġkilogram":13268,"Ġmengesankan":13269,"Ġ06":13270,"Ġbayaran":13271,"Ġkerip":13272,"umband":13273,"Ġsind":13274,"Ġkelinci":13275,"Ġlanjutkan":13276,"Ġasisten":13277,"Str":13278,"ĠKepolisian":13279,"Ġchips":13280,"Ġmelacak":13281,"ault":13282,"elling":13283,"Ġberterima":13284,"ĠSS":13285,"Ġdiceritakan":13286,"ĠTR":13287,"Ġdibayarkan":13288,"ĠPsik":13289,"Ġtoh":13290,"Ġkolaborasi":13291,"ĠFah":13292,"Ġtrag":13293,"Ġpengungsi":13294,"umbangkan":13295,"adiran":13296,"Ġbintik":13297,"Apalagi":13298,"ĠJembatan":13299,"Ġbangs":13300,"Ġplugin":13301,"aba":13302,"ĠLaki":13303,"Ġimport":13304,"''":13305,"ior":13306,"Ġroot":13307,"Ġkesembuhan":13308,"Ġbawahan":13309,"asangan":13310,"Ġsilaturahmi":13311,"hin":13312,"Ġtembus":13313,"ĠProt":13314,"ongkrong":13315,"ĠSilakan":13316,"oakan":13317,"Ġmenata":13318,"ĠPlan":13319,"Ġbatuan":13320,"ĠPuskesmas":13321,"Ġlemas":13322,"ĠPersi":13323,"ĠYer":13324,"Ġsemasa":13325,"Ġhasrat":13326,"Ġketergantungan":13327,"Ġplakat":13328,"Ġdijalani":13329,"Ġpemicu":13330,"Kec":13331,"table":13332,"ĠKapolres":13333,"Ġpolusi":13334,"Ġrahmat":13335,"Ġdicintai":13336,"Ġsombong":13337,"Biar":13338,"Ġcucu":13339,"ĠPH":13340,"pn":13341,"ĠKO":13342,"ĠTiket":13343,"Ġyoga":13344,"Ġunduh":13345,"ĠSMAN":13346,"Ġmenyehatkan":13347,"ealisasikan":13348,"Ġbelaka":13349,"pula":13350,"Ġlebat":13351,"Ġstudio":13352,"Ġrid":13353,"ĠKey":13354,"Ġpenyerang":13355,"ĠKursi":13356,"ĠSC":13357,"Ġperlombaan":13358,"Ġprovider":13359,"Ger":13360,"Ġserentak":13361,"Ġsimulasi":13362,"ĠTuan":13363,"band":13364,"Ġdihadapkan":13365,"Ġhost":13366,"Ġpeliharaan":13367,"Ġtayangan":13368,"Ġkeset":13369,"Ġperbelanjaan":13370,"sumber":13371,"ching":13372,"ĠPerhatikan":13373,"Ġmassal":13374,"Ġrempah":13375,"ĠVi":13376,"Ġsaing":13377,"Ġpapar":13378,"Ġreservasi":13379,"Ġmenyet":13380,"Ġperbuatannya":13381,"ĠMasuk":13382,"Ġbertambahnya":13383,"Ġrambutnya":13384,"Ġarmada":13385,"Ġkado":13386,"ĠJAKARTA":13387,"Ġceria":13388,"Ġgiliran":13389,"JNE":13390,"Ġgabung":13391,"ĠIndo":13392,"Ġlot":13393,"ĠJab":13394,"yuk":13395,"ayati":13396,"Ġbenteng":13397,"Ġdipindahkan":13398,"Ġdiberlakukan":13399,"Ġkekec":13400,"85":13401,"ĠSyam":13402,"Ġbias":13403,"Ġkecanduan":13404,"Ġindividual":13405,"Ġpuc":13406,"Ġbedak":13407,"emparkan":13408,"Ġberjumpa":13409,"Desain":13410,"ĠPerjuangan":13411,"otika":13412,"Ġuraian":13413,"pm":13414,"Ġlagunya":13415,"ĠTeluk":13416,"Ġproject":13417,"ĠPelatihan":13418,"Ġalm":13419,"Ġpura":13420,"tren":13421,"41":13422,"ĠDaun":13423,"Tah":13424,"ĠAkses":13425,"Ġaduan":13426,"Ġsumbangan":13427,"ĠSyariah":13428,"usahakan":13429,"enyap":13430,"TT":13431,"Ġpeternakan":13432,"Ġterobosan":13433,"Ġframe":13434,"Ġmembantah":13435,"iya":13436,"ameter":13437,"nan":13438,"ĠMatematika":13439,"enjata":13440,"ĠTeb":13441,"Ġwacana":13442,"Ġterjemahan":13443,"Ġho":13444,"Ġmengevaluasi":13445,"kg":13446,"awaslu":13447,"Pria":13448,"Ġmahir":13449,"ĠZul":13450,"ĠPramuka":13451,"wai":13452,"abumi":13453,"emur":13454,"sep":13455,"ĠAtletico":13456,"Ġmelanda":13457,"ffee":13458,"Ġmulailah":13459,"emis":13460,"ularan":13461,"bas":13462,"Ġlilin":13463,"Ġdilindungi":13464,"Ġbercampur":13465,"Sebagaimana":13466,"Ġditanggung":13467,"ĠOpen":13468,"ĠBulu":13469,"Ġmestinya":13470,"ĠJames":13471,"ĠMand":13472,"urai":13473,"ĠCiri":13474,"sekolah":13475,"abdian":13476,"ĠAlf":13477,"Ġ49":13478,"ĠLomba":13479,"ikapi":13480,"ĠCore":13481,"ĠGak":13482,"elus":13483,"Ġorangtuanya":13484,"apar":13485,"awet":13486,"ein":13487,"juh":13488,"Ġkaryanya":13489,"Ġburu":13490,"ĠTerbesar":13491,"Ġ46":13492,"ĠMitra":13493,"Ġpengangguran":13494,"ĠAG":13495,"Ġlingkungannya":13496,"Ġtendangan":13497,"esel":13498,"Ġmemakainya":13499,"nia":13500,"Tan":13501,"ĠMahkamah":13502,"Ġrej":13503,"ĠNot":13504,"ĠTeh":13505,"Ġnav":13506,"Ġparas":13507,"stat":13508,"engat":13509,"Ġ1997":13510,"Ġmencat":13511,"Ġmenyapa":13512,"yong":13513,"PER":13514,"ĠRencana":13515,"ĠArea":13516,"Ġluput":13517,"Ġkepulauan":13518,"Ġkebencian":13519,"Ġkartun":13520,"Ġmenari":13521,"Dr":13522,"Ġscan":13523,"ĠKebutuhan":13524,"Ġpukulan":13525,"Ġpondok":13526,"ĠCup":13527,"ĠHabib":13528,"Ġlisan":13529,"Ġmeluas":13530,"Ġmengedit":13531,"Ġsemisal":13532,"Ġdijangkau":13533,"won":13534,"Ġpemanasan":13535,"cer":13536,"Ġmengunakan":13537,"ĠBest":13538,"ĠPerumahan":13539,"Ġmuj":13540,"ĠNe":13541,"arn":13542,"Ġ02":13543,"Ġgamis":13544,"Ġdibunuh":13545,"Had":13546,"Ġmemukau":13547,"Ġorg":13548,"memb":13549,"ĠMeja":13550,"Ġberasa":13551,"barkan":13552,"Ġcustom":13553,"Ġpenalti":13554,"Ġkeingin":13555,"okasikan":13556,"Ġpermen":13557,"Ġtuhan":13558,"ĠKuala":13559,"Ġbergegas":13560,"ĠTek":13561,"ĠSeribu":13562,"andel":13563,"Ġmenganalisa":13564,"Ġbagaikan":13565,"ancaran":13566,"impiade":13567,"ikannya":13568,"Ġberdasar":13569,"tai":13570,"porsi":13571,"Ġpenentuan":13572,"ĠHard":13573,"Ġmeminjam":13574,"wid":13575,"Ġkawat":13576,"gh":13577,"ĠMadinah":13578,"Ġdrive":13579,"ĠBlue":13580,"ĠPerdagangan":13581,"papan":13582,"Ġtampan":13583,"implem":13584,"Ġklinis":13585,"ules":13586,"ĠBangkok":13587,"ĠPuncak":13588,"anyaannya":13589,"Ġpokoknya":13590,"orientasi":13591,"aci":13592,"ĠNTT":13593,"Ġmemperingati":13594,"Ġmelamar":13595,"onsumsinya":13596,"Ġundian":13597,"ĠLine":13598,"liam":13599,"Ġtimb":13600,"Ġnasihat":13601,"Ġmikir":13602,"ĠSah":13603,"eless":13604,"ĠAmaz":13605,"Ġhang":13606,"ambungan":13607,"istimewa":13608,"TML":13609,"Ġbergi":13610,"Ġkuatir":13611,"Ġkriminal":13612,"Ġpenangg":13613,"alogi":13614,"ĠProduksi":13615,"tensi":13616,"Ġberstatus":13617,"ipulasi":13618,"Ġmencur":13619,"ĠMotoGP":13620,"Berry":13621,"Ġdikonfirmasi":13622,"ĠJitu":13623,"Ġsejenisnya":13624,"fone":13625,"Ġping":13626,"afon":13627,"Ġbernyanyi":13628,"ĠCle":13629,"hani":13630,"Ġmengidap":13631,"Ġrevisi":13632,"Ġranah":13633,"ITA":13634,"Ġbenua":13635,"taranya":13636,"Ġsangka":13637,"Or":13638,"Ġmengherankan":13639,"ĠHutan":13640,"Ġlin":13641,"Ġgalau":13642,"Ġmembawakan":13643,"ĠStrategi":13644,"Ġtahukah":13645,"Ġhenti":13646,"wira":13647,"ĠCCTV":13648,"Ġkios":13649,"Ġringk":13650,"Ġditel":13651,"Ġnis":13652,"Ġama":13653,"akailah":13654,"Ġcuti":13655,"Ġkemuliaan":13656,"Ġsum":13657,"itungan":13658,"Ġmodul":13659,"Ġstadion":13660,"Ġmasyarakatnya":13661,"Ġsekolahnya":13662,"ĠHarap":13663,"Ġsaku":13664,"Ġditand":13665,"Ġdesktop":13666,"ĠDah":13667,"ĠFat":13668,"ĠSouth":13669,"low":13670,"Ġkredib":13671,"esalan":13672,"Ġbrowsing":13673,"Ġmenguras":13674,"Ġmenjamu":13675,"ĠMB":13676,"Ġmenaiki":13677,"ĠJuta":13678,"ĠModern":13679,"Ġkalsium":13680,"rofesi":13681,"sin":13682,"Ġone":13683,"Ġbent":13684,"Ġsatupun":13685,"Ġsekelas":13686,"Ġdilatih":13687,"ĠTiba":13688,"Um":13689,"Ġlaju":13690,"Ġkebaya":13691,"Ġbenci":13692,"uklir":13693,"batu":13694,"atic":13695,"ĠESQ":13696,"Ġinformasinya":13697,"Ġsaus":13698,"ĠBoj":13699,"ĠYohanes":13700,"Ġpencinta":13701,"enali":13702,"Ġbersenang":13703,".....":13704,"ĠMenang":13705,"Ġtempur":13706,"ĠSumut":13707,"eduh":13708,"ĠJabar":13709,"Ġmenggand":13710,"kons":13711,"ontan":13712,"Ġilm":13713,"aster":13714,"ds":13715,"ĠJun":13716,"ĠHK":13717,"ĠKencing":13718,"iano":13719,"Ġperkuliahan":13720,"ĠColl":13721,"ĠMelayu":13722,"hum":13723,"Ġelektrik":13724,"tain":13725,"ufaktur":13726,"ĠHadi":13727,"ĠKin":13728,"Ġpungkas":13729,"Ġmengunggah":13730,"ĠBerat":13731,"hai":13732,"Ġberkelas":13733,"Ġwayang":13734,"biasa":13735,"Ġsains":13736,"apakah":13737,"Ġdilantik":13738,"Ġmendekatkan":13739,"entian":13740,"Ġpastilah":13741,"ĠRW":13742,"Ġdihilangkan":13743,"harma":13744,"ĠMadiun":13745,"Penelitian":13746,"Ġsentral":13747,"ĠCry":13748,"Ġpenuaan":13749,"Ġtanganku":13750,"ĠEun":13751,"Ġintensif":13752,"Ġdikombinasikan":13753,"ĠProyek":13754,"Ġmengusulkan":13755,"ĠJog":13756,"Ġwafat":13757,"Ġterbebas":13758,"Ġadministr":13759,"Ġmengering":13760,"Ġportal":13761,"NU":13762,"feksi":13763,"Ġeksistensi":13764,"ĠTir":13765,"Ġseksama":13766,"Ġpernapasan":13767,"inger":13768,"usuhan":13769,"Pend":13770,"ĠPabrik":13771,"Jasa":13772,"Ġkeas":13773,"ĠBuddha":13774,"Lihat":13775,"ĠKurikulum":13776,"Ġberpel":13777,"Wanita":13778,"ĠIndra":13779,"Ġmenemukannya":13780,"RS":13781,"Ġgamer":13782,"ĠMimpi":13783,"Ġmenyempatkan":13784,"ĠPras":13785,"Ġlogis":13786,"Ġtakdir":13787,"Ġcacing":13788,"ĠMam":13789,"Ġcustomernya":13790,"Ġpublikasi":13791,"abilitas":13792,"Ġaplikasinya":13793,"Ġmenyegarkan":13794,"Ġmangga":13795,"ĠOrig":13796,"250":13797,"Read":13798,"ondo":13799,"å½©":13800,"Ġbungkus":13801,"Hotel":13802,"ĠRapat":13803,"ĠPra":13804,"Ġdibakar":13805,"Ġtrauma":13806,"basi":13807,"ĠHind":13808,"Ġtertua":13809,"Ġbernaf":13810,"Ġmengedepankan":13811,"Ġmenjumpai":13812,"orbanan":13813,"56":13814,"Ġpendatang":13815,"Ġkeramik":13816,"sari":13817,"enset":13818,"stik":13819,"Ġruas":13820,"Ġmempercantik":13821,"Ġbaccarat":13822,"ĠASN":13823,"Ġbia":13824,"wati":13825,"des":13826,"Ġberfirman":13827,"Jumlah":13828,"imo":13829,"Ġbergaul":13830,"Ġadsense":13831,"Ġdebut":13832,"Ġseratus":13833,"inggo":13834,"Em":13835,"ĠTerbukti":13836,"ĠGaya":13837,"gambar":13838,"Ġmengasih":13839,"Ġkemerahan":13840,"gel":13841,"ĠSchool":13842,"ÑĮ":13843,"olio":13844,"Ag":13845,"Ġberdosa":13846,"padai":13847,"arau":13848,"Ġkuar":13849,"Ġpengk":13850,"ĠBib":13851,"Keber":13852,"Ġkuas":13853,"Pak":13854,"Ġpadamu":13855,"ĠAlloh":13856,"ihatsu":13857,"ĠAPBN":13858,"Ġterjual":13859,"Ġbarisan":13860,"ĠMalik":13861,"orge":13862,"Ġpercepatan":13863,"Ġdiameter":13864,"Ġey":13865,"irin":13866,"alifah":13867,"gaskan":13868,"Ġunder":13869,"ampiaskan":13870,"pihak":13871,"Ġitupun":13872,"LP":13873,"ebird":13874,"aksimal":13875,"AMA":13876,"ulatan":13877,"Ġmenghampiri":13878,"Ġpenyidik":13879,"ĠMars":13880,"Ġkiper":13881,"Ġreguler":13882,"Ġpilihannya":13883,"ĠSejumlah":13884,"Ġberdirinya":13885,"Ġdihadirkan":13886,"Ġoleskan":13887,"ĠSoftware":13888,"73":13889,"800":13890,"Ġpengawas":13891,"ĠJaringan":13892,"imanakah":13893,"Ġ43":13894,"Ġjadilah":13895,"ĠLib":13896,"apainya":13897,"ĠGresik":13898,"lient":13899,"Ġcuc":13900,"Ġterungkap":13901,"Ġtempe":13902,"news":13903,"ĠHouse":13904,"Ġsurut":13905,"pend":13906,"Ġdisapa":13907,"isiplin":13908,"Ġeksis":13909,"kantoran":13910,"Ġpenderitanya":13911,"Ġloyal":13912,"Ti":13913,"Ġderetan":13914,"utarakan":13915,"Ġmilyar":13916,"Ġmenyukainya":13917,"Ġmeluncur":13918,"ĠKawasan":13919,"Ib":13920,"Ġbergengsi":13921,"udung":13922,"89":13923,"Ġpeninggi":13924,"å¤©":13925,"ĠCol":13926,"Ġberkeb":13927,"ĠYakni":13928,"ĠCR":13929,"HA":13930,"Ġmengga":13931,"Ġmenjualnya":13932,"ĠPurn":13933,"ĠOri":13934,"Ġpegang":13935,"enturan":13936,"ONESI":13937,"Ġselebr":13938,"Ġestimasi":13939,"encer":13940,"Ġpenerangan":13941,"ĠPolit":13942,"Ġcicilan":13943,"LI":13944,"Ġnegaranya":13945,"hirt":13946,"Ġsedikitnya":13947,"ĠSulsel":13948,"Ġaduk":13949,"rise":13950,"Ġbaby":13951,"tabilitas":13952,"Ġpengumpulan":13953,"undangan":13954,"orban":13955,"Ġdataran":13956,"Pastikan":13957,"Ġtembaga":13958,"ï¼":13959,"ĠKabar":13960,"ĠPengalaman":13961,"Ġatmos":13962,"epotkan":13963,"Ġangkasa":13964,"Ġdiabaikan":13965,"Ġberbuah":13966,"ĠWall":13967,"gantung":13968,"Ġkecurangan":13969,"guru":13970,"maka":13971,"ĠPanas":13972,"Ġbidangnya":13973,"Ġparpol":13974,"alinya":13975,"Semakin":13976,"Ġdirektur":13977,"ival":13978,"Ġsolo":13979,"Ġbercak":13980,"Ġnotifikasi":13981,"Ġcrusher":13982,"Ġtoleransi":13983,"lanjuti":13984,"adasi":13985,"ĠJava":13986,"Ġbermotor":13987,"pukat":13988,"Ġ900":13989,"ingkuh":13990,"ĠSBY":13991,"Ġseparuh":13992,"ENT":13993,"Ġmenjelajahi":13994,"ĠPun":13995,"Ġledakan":13996,"ĠWa":13997,"Ġmodem":13998,"Ġkod":13999,"ĠBol":14000,"Baru":14001,"ĠNanti":14002,"istal":14003,"ancuran":14004,"ĠGO":14005,"Ġjengg":14006,"Ġbersek":14007,"Ġastr":14008,"rov":14009,"Ġkepeng":14010,"Ġdimak":14011,"sela":14012,"Ġdijawab":14013,"ĠCobalah":14014,"Ġsebanding":14015,"Ġterlanjur":14016,"time":14017,"Ġmarak":14018,"ĠKK":14019,"ĠRossi":14020,"ruk":14021,"ĠKUH":14022,"Ġnongkrong":14023,"kantor":14024,"kegiatan":14025,"xi":14026,"Ġjajanan":14027,"ĠBakar":14028,"Ġgaming":14029,"Ġkudu":14030,"ĠMK":14031,"ĠVic":14032,"Ġvertikal":14033,"Ġparagraf":14034,"Ġrileks":14035,"anggis":14036,"Ġberbalik":14037,"Ġasin":14038,"ammad":14039,"ĠPengetahuan":14040,"Ġdihentikan":14041,"yawarah":14042,"ĠVirus":14043,"ukanya":14044,"Ġdisetiap":14045,"Ġsent":14046,"Ġbukankah":14047,"perangan":14048,"opsis":14049,"ĠDam":14050,"Ġketebalan":14051,"Ġkostum":14052,"ĠJose":14053,"ĠBig":14054,"ĠTeam":14055,"Â°":14056,"Ġasuhan":14057,"Ġstartup":14058,"ĠPasuruan":14059,"Ġterdepan":14060,"sangat":14061,"âĢĻâĢĻ":14062,"Ġfitnah":14063,"ligasi":14064,"Ġmeluangkan":14065,"tp":14066,"Ġjasmani":14067,"Ġterbalik":14068,"Ġtemper":14069,"ĠHas":14070,"ply":14071,"Ġmengind":14072,"Ġusul":14073,"ï¿½?":14074,"ĠAyat":14075,"Ġmenud":14076,"ĠPanglima":14077,"Ġhidro":14078,"Ġkipas":14079,"uting":14080,"ĠMarketing":14081,"Ã¡":14082,"Ġwhatsapp":14083,"Ġmenipu":14084,"atuhan":14085,"ĠSwiss":14086,"Ġmenara":14087,"Ġtokopedia":14088,"Ġoil":14089,"Ġbagiku":14090,"Ġlambang":14091,"Ġtertipu":14092,"eskan":14093,"ĠOke":14094,"fit":14095,"ansyah":14096,"ĠHatta":14097,"Ġtunjangan":14098,"Ġmencabut":14099,"Ġjurnalis":14100,"ĠEko":14101,"Ġkemand":14102,"Ġpilot":14103,"Ġkekal":14104,"ĠKupang":14105,"rem":14106,"Ġpribadinya":14107,"Ġmerem":14108,"Perjalanan":14109,"Ġkenyang":14110,"Ġskenario":14111,"Ġmemus":14112,"ĠKode":14113,"ĠDPP":14114,"ĠDJ":14115,"ĠSas":14116,"Ġgelandang":14117,"Ġdihukum":14118,"Ġmagnet":14119,"eksiko":14120,"saudara":14121,
[...]
